#version: 0.2
i n
Ġ t
č Ċ
h e
o n
e r
a n
r e
a t
Ġ T
e n
o r
a l
s t
Ġt he
in g
Ġ a
o u
i t
Ġ A
e d
Ġ S
i s
Ġ C
a r
e s
i c
Ġ w
Ġ s
Ġ c
Ġ p
m p
i on
Ġ f
i l
Ġ I
Ġ P
Ġ o
Ġ D
r u
i d
Ġ b
Ġ O
Ġt o
Ġ R
en t
Ġ W
Ġ H
l e
Ġ B
an d
o m
Ġ F
Ġ M
a s
Ġ h
o t
Ġo f
Ġ d
Ġ m
ru mp
Ġ in
' s
a y
a c
v e
i g
o l
â Ģ
re s
ĠT rump
Ġt h
o w
e l
e t
Ġ G
Ġ n
ĠT o
e c
er s
il l
Ġ and
Ġ N
l y
T he
a m
at e
i m
ĠT he
Ġ L
u t
a d
Ġ l
u s
e p
at ion
e m
n d
Ġ E
r o
v er
ĠI n
Ġ g
Ġ re
Ġf or
Ġ is
u r
i r
Ġ on
s e
Ġ e
o c
l d
or t
i st
âĢ Ļ
c t
Ġ U
ou t
e w
t er
a k
Ġ he
ĠO f
it h
g e
Ġ st
ic an
Ġb e
Ġ J
c e
ĠS t
al l
u b
u l
id ent
Ġth at
u n
h o
ou r
p p
r i
ĠF or
res ident
m er
o p
r a
ou ld
t s
Ġ '
on al
ig h
m ent
ĠO n
onal d
o re
ar y
Ġ V
ac k
Ġ it
ĠR ep
e f
Ġ an
a in
ub l
i al
a ve
e st
ar t
r om
h at
he r
' t
ĠC on
Ġ y
ĠI s
ĠC l
Ġc on
Ġ K
i f
c h
u st
it y
e ar
a re
es s
Ġ v
t h
en d
i v
i ve
o s
r at
Ġ "
res s
e e
t on
u p
o st
ig n
b out
ay s
Ġa re
a b
Ġw ith
Ġa s
om e
i es
ubl ican
T rump
igh t
em oc
i a
ĠC h
ic e
. "
u d
a w
Ġ at
b am
n t
a id
an t
ĠD onald
a st
e al
emoc rat
k e
f f
o d
ĠT h
Ġh is
O P
Ġp resident
Ġ le
Ġ 2
ĠA mer
Ġ Y
Ġh as
Ġn ot
le ct
Ġh ave
ion s
in ton
ĠA nd
it e
Ġ r
Ġw as
r y
ĠRep ublican
ou se
i z
el l
Ġp ro
Ġs aid
it ic
i e
ĠCl inton
Ġs h
bam a
Ġ j
ec t
at es
g ress
Ġp ol
an s
a mp
ar d
ĠN ew
al ly
g h
ĠD emocrat
en ce
o ver
k s
ou s
âĢ ľ
a g
f ter
u re
ak e
e x
ĠW ith
as s
ĠA t
q u
ĠG OP
Ġc h
ĠH ouse
a il
r ou
Ġe x
i re
e b
e op
Ġf rom
Ġ2 0
u m
or k
ĠS en
or n
u nd
e y
u c
eop le
ĠA s
Ġw ill
or s
ow n
ĠB e
on g
ĠS h
Ġa bout
id e
or d
Ġth is
o b
ĠW h
g ain
ĠR e
Ġy ou
ill ary
ĠP resident
i p
a p
Ġw e
Ġd o
Ġ 1
Ġ al
ac e
Ġs p
ĠAmer ican
i ke
ĠH e
a v
Ġa d
o k
Ġb y
ĠI t
Ġw ho
ĠP ro
amp a
Ġ -
ĠA l
ampa ign
c c
i an
r ot
er n
a ge
d ay
er e
ĠO bama
in e
im e
âĢ Ŀ
D onald
er al
ic t
in d
ĠA n
over n
he n
Ġn ew
ĠU n
ĠS p
ĠP ol
r ation
our t
re at
Ġthe y
ou nt
t her
h ing
Ġb ut
om m
u pp
ic h
Ġthe ir
r is
ĠL e
Ġ un
b le
lect ion
ĠV ot
ĠA bout
, "
Ġ out
ic k
ĠS ays
Ġ k
o mp
re m
Ġof f
ation s
en s
ĠA d
Ġm ore
Ġw ould
ĠA re
Ġw h
ver y
l an
Ġc an
I t
ĠH is
Ġ20 1
Ġ all
Ġc l
on e
or y
t o
ĠS c
b er
Ġ up
T h
Ġv ot
it t
Ġon e
us e
e ed
Ġ- -
ĠE x
v en
r an
er v
ee k
upp ort
or m
am e
us s
Ġ or
Ġp eople
gain st
Ġg o
h n
ĠO ver
ir st
u e
Ġ âĢ
and id
ĠCon gress
ĠN ot
re t
0 0
en c
ic a
ĠF rom
ĠWh ite
Ġre p
e at
Ġl aw
ĠC ourt
is m
o g
ol d
Ġcon t
o se
ĠB l
ĠH illary
ac t
e et
n ow
and ers
u es
r im
an ce
Ġj ust
ĠW ar
Ġ our
ĠB ut
ĠT hat
ĠRepublican s
m an
ol l
ĠL aw
a x
ĠSen ate
Ġ res
ĠOf f
on s
is e
ear s
Ġpol itic
ĠM ar
Ġbe en
Ġw hat
Ġo ver
Ġth an
is s
ation al
o ve
Ġst ate
up rem
as e
ĠS ec
ad e
n ing
t ing
in k
ou gh
el y
o ok
an y
ĠS anders
i ous
o in
on d
ab le
I n
i o
is c
ĠW as
a ul
art y
m in
ĠA fter
o v
ĠJ ust
om in
ou n
iv es
at or
ĠB ill
Ġat t
im s
il d
ent s
W h
Ġ us
Ġg et
i mp
Th is
m ig
at ed
ĠAmer ica
R ep
ing s
u ch
ĠW e
ĠDemocrat s
ĠDemocrat ic
re n
il e
oc k
ĠW ill
H e
a pp
ĠR uss
an g
Ġex p
ern ie
al k
ĠJ o
re d
ĠD o
Ġ (
Ġa cc
Ġc ampaign
Ġc ould
ĠO ut
uprem e
Ġp l
W e
Ġa fter
re e
igh ts
ĠU p
ou nd
Ġ âĢľ
ĠR es
ist s
ĠC an
ĠF l
Ġa pp
ac h
Ġs ays
Ġ ru
Ġa ct
Ġs ay
ĠY ou
Ġd ec
ist ration
ĠAt t
n ed
u ff
Ġs c
ĠAmerican s
le g
o y
Ġt w
ment s
ic ial
Ġhe r
eal th
Ġg overn
l l
Ġre c
an ge
t y
ak ing
e ver
om en
Ġin c
Ġn o
ĠW hat
ĠSt ate
ĠE m
ĠC all
Ġit s
ed eral
ĠC ar
us h
Ġa g
g et
Ġc all
Ġle ad
Ġs o
min istration
Ġ qu
at ive
Ġs ome
Ġ en
an ts
im ate
Ġt ime
Ġc ount
ĠT w
Ġw eek
Ġfor mer
o od
ĠH as
he d
Ġm e
ve st
ubl ic
Ġw ere
u g
l ing
ĠA ct
v ent
rou p
Ġw ork
ĠB y
u al
ĠG et
ot t
ac y
a use
ion al
. .
Ġan y
i ol
Ġ $
it s
ill ion
Ġh ad
s o
Ġc omp
ow er
C on
Ġs ec
i k
Ġsh ould
i b
Ġc andid
is h
Ġm on
a ir
ĠW ho
Ġ imp
O bama
ĠS upreme
ĠNew s
Ġcon s
Ġl ike
Ġthe m
Ġo ther
ĠM c
ĠM ay
ĠP lan
orn ing
Ġc om
Ġc omm
ot her
it ed
Ġb ec
ow s
id en
ĠB an
w n
ĠC ampaign
ĠD ep
ĠO r
eb ate
it ies
ĠRep ort
an c
Ġw hen
i ed
Ġd on
f orm
ve l
ĠA r
f er
es n
em ent
ad y
m ak
ur ing
er t
ĠD ef
Ġb l
ĠE lection
Ġw or
Ġs he
ĠB ack
e en
ĠT r
Ġb ack
ĠC ru
rot est
n s
ic al
el f
ur ity
ho ol
Ġin to
Ġhe l
ĠH ave
Ġn ow
Ġs upport
Ġpolitic al
in a
Ġthe re
ge st
ĠTh is
Ġ if
ĠC omm
l ed
Ġle g
it ion
Ġhel p
Ġs en
am il
l es
Ġa gainst
Ġnew s
ec ut
e ad
Ġ Q
le ar
ĠG overn
Ġ und
at ing
Ġh im
enc y
ho ot
f ul
i ew
ĠH ealth
ĠC are
ar k
Ġa r
v ers
. âĢĿ
ul t
n er
vest ig
S t
Ġrep ort
e g
Ġf irst
ĠM on
Ġpresident ial
ĠM orning
w ay
H illary
Ġd id
ĠCon t
Ġal so
ĠAl l
Ġm ost
Ġn eed
Ġp er
ĠEm ail
ĠC ould
ak es
ĠM ore
Ġm ay
Ġy our
r itic
ret ary
ĠR ef
G OP
Rep ublican
P O
ĠA gainst
and s
ac are
bam acare
in s
Ġw ar
Ġh ow
he re
ic y
S en
ĠE nd
uc k
ĠI m
S T
Ġn omin
ĠA b
Ġw ant
Ġe ven
os s
Ġa m
j or
L L
a h
ri v
' re
i ef
Ġt r
Ġe very
b e
ĠP l
Ġ end
er r
at t
ĠEx p
e ak
r ong
ĠRuss ia
ort h
rou nd
eat h
Ġ201 6
ĠCru z
D emocrat
r ow
in ce
he s
ĠD on
ĠB iden
rot ect
ĠS upport
ep t
Ġre m
Ġin ter
ĠThe y
a jor
ex t
at ch
F F
ĠA m
Ġb ill
Ġk now
Ġo p
s on
ĠA cc
Ġb et
Ġy ears
ĠT ax
ĠG un
Ġe lection
ĠâĢ ĺ
e ep
g ed
Ġp re
r ist
U FF
H ow
at er
UFF PO
O n
is ion
ĠP arty
ĠSt ates
ĠLe ad
ĠJo hn
al if
Ġcount ry
ru g
ĠH ow
Ġ im
Ġp art
C h
Ġl ast
if e
ĠO bamacare
ĠSh ould
r am
es p
uff P
i ans
ĠN o
W hat
g es
mig ration
Ġd is
Ġb el
em b
ĠQ u
Ġs e
ro p
Ġa b
Ġtw o
ĠP eople
Ġd ay
Ġy ear
ord er
Ġm ake
ud ge
ĠI f
ĠY ork
F or
en eral
ĠG o
a u
ĠR ec
uffP ost
ĠM ed
i ble
l am
Ġth ink
ec h
art ment
w ard
al th
h ip
ĠD ec
ĠN ow
us l
Ġst ill
Ġd ef
Ġgovern ment
ĠW or
Ġm y
Ġund er
Ġb ig
ĠR eal
ĠW on
ĠF irst
ĠPol itic
Ġp ublic
ex as
A n
r on
r id
al s
it ter
ed ly
ĠH er
ĠN ational
nt i
ĠB ig
Ġon ly
are d
ĠTh an
N ew
on om
Ġhe alth
A mer
hing ton
Wh y
at ors
il it
ĠD ay
ire ct
y an
at h
i x
ĠU s
orn ey
ĠB ernie
J o
ĠS ay
Ġin s
Ġr ight
ĠN eed
us ed
ĠâĢ Ķ
a f
ĠAtt ack
l and
ĠM an
y st
Ġm any
il ity
Ġl ong
ĠE n
ĠA pp
m s
Ġm uch
Ġis s
mak ers
e mp
u ally
end ing
I f
oin t
, âĢĿ
ra p
st it
ĠB ush
am es
a z
ĠC andid
ĠH el
B I
A nd
rim ary
A s
ĠK now
Ġad ministration
ist ory
alif orn
rim in
The re
ĠCh ar
ĠW ould
all en
iz e
Ġwh ich
oun c
Ġc are
ĠIn ter
H UFFPO
ĠB r
Ġin d
f ore
ĠOn e
rou gh
e ech
g in
ĠA g
Ġm ed
ĠCon s
B ut
Ġp lan
ĠDep artment
ort ion
ĠC ol
iv ers
Ġad v
Ġres p
end s
B ernie
l ain
err or
e v
o x
iol ence
aliforn ia
Ġbe ing
g er
e or
ĠVot e
Ġbe fore
Ġm an
ĠThe ir
m ed
l s
ĠR yan
ub io
Ġqu est
ĠR ise
ĠCh rist
ĠC omp
Ġg roup
ĠCall s
c ess
is l
Ġw ay
Ġf ederal
ro s
Ġst art
ĠW ork
a ff
om an
os ed
c k
u ge
ĠWas hington
Ġcandid ate
The y
ĠJust ice
y ing
ĠCl imate
Ġ 3
ĠD ebate
Ġg un
hoot ing
Ġ ke
Ġd own
ic es
Ġe ff
Ġgo ing
in ess
ĠP aul
ĠLe g
e an
ĠO p
al ity
iz ed
icial s
r ol
id er
Ġvot e
Republican s
ic s
Ġp arty
ĠU nd
f l
Â ł
stit ut
a im
ĠD eal
ate st
itt ee
ĠD own
i er
im es
ire d
d er
f t
Ġt ax
ĠB o
c ome
em ber
ĠH ar
ry ing
Ġin t
c ent
g y
om et
ĠSec urity
ĠUn ited
H ere
A C
ĠA nti
ĠF ight
are nt
as ed
ur s
Ġnomin ee
j ect
Ġ 4
ĠC om
ot h
a ims
ĠM usl
Ġt ake
ĠT e
Ġd isc
ĠSt ill
ĠR un
Ġm ade
ĠHel p
et h
iv il
c o
ĠI mp
ec ial
ers on
Ġgo od
00 0
yst em
Ġsen ator
ĠS o
Ġw omen
Ġs ign
ĠR ubio
ĠI nd
us iness
ur n
Ġe lect
Democrat s
or id
Ġo pp
v iew
Ġas s
ĠS he
ĠC ome
ĠB ec
Ġl ook
Ġre l
ilit ary
l ud
ĠR ights
Ġch ange
he ther
Ġcall ed
Ġre g
ĠF BI
Ġmon th
Ġwor ld
Ġ ra
Ġvot ers
Ġbec ause
en ed
oc ial
as h
ĠPresident ial
Ġatt ack
Ġru n
orid a
en se
ĠW ants
op e
ild ren
r ate
Ġs ur
Ġdo esn
ĠW omen
Ġth ose
ĠG u
Ġn ation
e le
ĠC o
it ch
ĠP rotest
.. .
rid ay
u ct
Ġ1 9
w een
ris is
ĠW ant
au gh
ĠD is
ĠH im
as on
ie ve
Ġpol icy
v es
Ġ very
Ġf in
Ġf amil
ĠP ut
Ġo wn
ĠB ar
oc u
Ġ ro
Ġt ra
an a
ĠP er
Ġsh ow
Ġc ritic
ĠCh ange
l ess
n es
Ġw on
Amer ican
n ess
ĠT exas
Ġp res
ri ef
ail s
ĠAs s
Ġh app
ut h
un ity
re ady
s h
ĠW in
Ġin vestig
ho od
ĠAd ministration
Ġcont in
vent ion
ĠGovern or
C l
ĠF ac
ĠCon f
k ed
b y
at ter
i or
Ġt ru
Ġst ates
ĠR ace
ĠWh y
ble m
ĠSec retary
ol og
Ġn ational
ĠIn to
at her
ĠT ra
ex ual
d own
g an
in es
ĠT ime
ues day
ar ly
ĠM ich
ĠIn s
ĠSc hool
ĠTw itter
re ed
ĠC ount
Ġw in
od y
Ġr ights
erv ative
ros s
r ict
ik ely
N C
v id
ĠI ran
p t
on y
it iz
ĠN orth
Ġad d
Ġd if
Ġd uring
Ġ em
ĠD id
Ġm ove
Ġm ajor
ĠVot ers
ol ut
us es
P resident
ĠS ur
is ed
Ġc ol
Ġre f
ap it
av ing
Ġlead ers
v an
ĠT ri
ĠL ike
Ġ 6
ĠBl ack
ug gest
g ram
r ic
Ġb an
Ġpro p
ĠSen ator
Ġs ee
ĠP h
ĠF in
ĠPol ice
u res
o o
Ġf und
Ġs er
Ġf ac
et s
ore ign
Ġan t
um b
E R
Ġ ec
Ġto ld
Ġc or
ĠM ake
Ġan n
ran ts
Wh ite
ĠCar ol
out h
at ives
ĠS ome
ĠG eor
u mp
ĠAd v
omet hing
ĠG roup
ĠN omin
ul l
Y ou
i j
ĠS ign
ur y
Ġd ep
th ing
iv ing
u it
it ing
alk ing
Ġto o
ĠH I
Ġsh ort
irect or
ĠS y
ĠR em
ĠCarol ina
a el
Ġd eal
ut ure
ĠUnd er
Ġ 9
ĠW all
el s
ab ly
Ġj ob
eet ing
er ed
Ġp rotect
et er
ud ents
ĠTh reat
Ġleg isl
l oy
re ak
ĠC or
up er
Ġcon c
r ant
Ġs ince
gress ive
r act
Ġ 5
ĠM in
Ġre al
ĠMc C
Ġp ass
Ġf l
ĠL et
op s
ris on
S he
i ence
ĠI ts
ru ct
ent ion
ut s
ĠIm migration
Ġse em
Ġ Z
Ġp rom
Ġre ally
er ing
ĠR ac
ĠComm ittee
I S
ĠC alifornia
Ġf ight
Ġcon f
ough t
ĠF und
Ġg u
ĠJo e
en ing
ĠM ost
et y
ef f
ĠDo esn
Ġrec ent
Ġdid n
emb ers
n ell
ord s
ow a
Ġmed ia
' ll
is es
Ġle t
er g
ĠT ell
is ing
Ġc ome
Ġp ay
ra q
Ġwh ile
r ing
Ġp ower
Ġth reat
ĠFl orida
iz ation
um an
id s
ri b
ect ed
Ġc ourt
ĠO ur
ĠHI LL
H ouse
ĠA f
re am
ir gin
Con gress
ĠT ed
aul t
uth or
s el
id d
ĠRes p
Ġec onom
al e
Ġm illion
ir m
op ul
end er
itt le
Jo hn
ĠS hooting
ĠD em
Ġn ever
ud get
ĠRuss ian
ĠP ar
ent ial
h ind
Ġ ent
on se
ot s
Ġm ust
el come
W hen
d uc
re g
Ġk ill
ĠWar ren
ron t
2 0
Ġch ar
ĠReal ly
Ġke ep
y er
er ate
ĠM o
ow ing
Ġn ext
Ġmon ey
Ġa gain
ĠR ight
Ġbet ween
ort s
Ġinc lud
re st
ĠY our
Ġlaw s
ĠCome y
Ġc he
ĠI raq
as es
Ġan other
ST ER
l ine
o or
Ġthe se
is er
id ency
ĠB en
Ġs ystem
ĠP ost
and ing
Ġm ar
Ġsc hool
irgin ia
Ġw ants
ĠD eath
ĠY ear
uc lear
Ġquest ion
ic ally
Ġf ar
ĠF ederal
Ġh istory
Ġr ac
mig rants
Ġw here
id ed
ĠR o
ĠIn vestig
ir d
ĠVot er
LL STER
he ad
ĠG eneral
hn er
HUFFPO LLSTER
g ing
ĠG ov
ra el
ĠTr ans
esp ite
E x
an n
Ġs ub
ĠH uffPost
ĠE lect
ind s
Con nell
ecut ive
Ġw hether
ĠIn t
ra ud
a un
Ġwh y
ĠWor ld
Ġw ell
Ġd ebate
Ġm ight
her s
os ing
Ġpol ice
Ġdec ision
For mer
id es
ĠR ul
Ġr ace
Ġcandid ates
h am
Ġs erv
om ing
Ġre t
ĠCandid ate
c ed
ar get
ĠM iss
Ġd em
ious ly
Ġt e
ĠA gain
ĠR et
ang er
itiz ens
Ġdif fer
in t
ic o
Ġs et
ĠD e
ĠI owa
Ġh igh
Ġcon gress
ab eth
Ġant i
Ġd ays
ort ant
ess ions
ĠTw eet
Ġsec retary
N o
l iz
n al
Ġs ame
ĠM e
ec ts
ĠSt op
ĠV ict
ĠSy ri
T w
in ks
Ġo b
Ġh ard
Ġd eath
Ġv ict
Sen ate
liz abeth
ĠP ay
ĠR ob
le ase
as k
ill ions
Ġl ot
Ġper cent
I s
v ed
re w
Ġc ase
Ġd es
ri ed
S c
u ild
ĠT uesday
le t
Ġwith out
ĠQu est
H uffPost
e es
i ent
r ime
y s
Ġb oth
ĠG r
Ġbet ter
a uc
Ġc lear
Ġm in
ĠSp eech
u ana
er ry
ar s
ĠP rimary
ĠM ass
Ġhe re
ell er
Ġ20 0
eak er
ij uana
e el
ĠD en
Ġl ess
Ġl ife
ef ore
ĠMusl im
r acy
ĠI S
Ġg reat
Ġhe ar
ĠSh ow
Ġcl imate
ĠP re
Ġth rough
ĠRef orm
urs day
' ve
Ġp ress
ul ts
ĠAn n
Ġgovern or
ĠGovern ment
A t
f or
l ob
ĠC apit
Ġc o
Ġc ho
Ġd ist
ur re
are n
in o
or al
pp ed
ear ly
ĠCh ief
Ġal ready
ar m
ĠP ence
le y
Ġd e
Ġpolitic s
Ġg eneral
ri es
ĠK ill
Ġoff icials
ocu ment
Ġt ell
he l
ĠT ake
Ġp h
om b
Ġth ree
e ve
Ġ el
ĠP art
ĠRep eal
Ġcl aim
Ġp ut
Ġp rotest
ĠP rotect
ĠF ran
Ġis n
ag es
ĠT est
Ġs l
ĠP ass
ru s
ĠW hen
u ed
Ġhe ad
iss ion
ĠMc Connell
On e
n ey
ĠO wn
ur ns
ĠK eep
Ġex t
ide o
Ġ use
re et
Ġg ot
ir on
ĠVot ing
p or
ĠB et
us p
ee ks
ĠTh ink
ele b
A l
Ġ order
el ly
os ition
Ġch ildren
M ar
Ġto p
ro vers
ĠIn c
Ġre st
ĠY ears
ĠAn y
Ġtw eet
k ing
u eller
ĠT ru
ĠA p
ĠS essions
ic er
ĠR el
am a
ĠJ udge
ĠThe re
Ġre ad
os es
ĠPol icy
ĠLaw s
form ation
Ġbel ieve
ĠS ch
iz ing
n ot
res ent
ĠV irginia
Ġal leg
Ġatt orney
Ġcom es
P A
S ome
s w
Ġ ide
st ruct
ĠP ick
end ed
Ġch allen
d e
Ġp ast
ĠMich ael
I D
er y
is an
ef ul
Ġ1 0
ĠOff ice
Ġleg al
reed om
g ia
at ely
ing ly
ed nes
ĠW eek
Ġoff ice
ĠAtt orney
Ġtr ans
ednes day
ĠP ress
ĠP arent
om ent
Ġst op
emoc racy
y p
ĠP en
Ġst and
ĠJ an
ĠCl aims
Ġwh ite
ert ain
y l
le ge
ĠM illion
ĠIs rael
Ġv iolence
und ay
oss ible
er m
Ġs w
ĠD av
Ġle ast
ĠPro p
riv ate
Ġiss ue
N ot
P aul
mp loy
ĠF ox
Ġinc re
idd le
ĠMo ore
J ust
p ris
t ed
y n
or ic
Ġs omething
ĠD isc
ĠF amil
Ġin v
ĠE very
Ġdo es
ĠPro be
rimin al
W ith
Ġa ff
ĠH app
Ġus ed
Ġsec urity
k y
ĠO ther
ĠG ood
Ġre qu
ell ig
ĠUn ion
a res
b rief
m y
ers onal
ĠE ven
ĠSc ott
ims elf
A fter
T ed
W elcome
m ost
p ir
Ġa round
Ġs m
ail ed
Cl inton
e lect
i res
in c
ĠO pp
ĠK ore
ĠNews brief
ĠIS IS
h io
i el
ĠC ity
ĠW ay
our nal
Ġget ting
Ġar g
ĠParent hood
Ġt est
ĠC risis
R e
Ġb o
Ġb usiness
Ġth ing
ab or
ĠRe g
ĠGet s
ĠMon ey
c ross
ĠB efore
ac c
P ro
s ecut
Ġ ed
ad es
ĠJ ob
ĠEnd ors
r ay
Ġt rying
ĠS w
Ġp rimary
ra w
Ġpro gram
mak er
ellig ence
on t
ĠS lam
ĠC O
ĠH igh
Ġl atest
Ġl ikely
ĠV iolence
Ġpl ay
N N
ĠT error
ĠS m
ĠC ritic
ĠM ueller
ĠE c
ri z
oin ts
ĠCapit ol
Ġag o
ĠPlan ned
fer ence
att le
ivers ity
ĠLeg al
b ably
v iron
w ays
Ġt error
Ġg ive
um ber
ĠS erv
Ġm aking
ĠIs n
if ied
Ġwork ing
v il
ĠC ase
Ġf ace
ĠP ublic
ĠH old
vid ence
Ġconc ern
c hed
p l
t he
ru pt
ĠH ere
ord ing
ob by
viron ment
' m
ĠP ower
ĠThe m
ab ama
erv atives
Ġlead er
ĠLead ers
V ID
r ac
s ide
ĠS outh
Ġf uture
ut e
olut ion
oo ks
B T
R A
in ing
er ts
ĠT imes
Ġd en
ess age
ock ed
ĠMed ic
Ġfamil y
G BT
I A
r ican
al f
ĠA ff
il y
Ġl ittle
ĠSt reet
ear ch
ap s
enc es
Ġapp ro
ĠPolitic al
c es
Ġ 7
ĠS uper
ĠF riday
us on
' d
1 9
S h
Ġf ew
Ġf oll
ĠM y
Ġm ass
oc i
ĠJ eff
ous ands
Ġsp eech
ĠCongress man
ĠMar ch
ĠAb ortion
erg uson
ĠS exual
ĠM ike
Ġm ilitary
ra b
ain s
ĠBe ing
Ġinter est
ĠBr own
American s
r ack
ĠN ext
ĠOr der
anc y
d uct
ĠS an
ic ies
ĠP at
ĠD uring
Ġh op
ow ed
ĠJ ames
ag o
uc cess
av or
ĠAl leg
Ġimp ortant
Jo e
Ġiss ues
lob al
urre nt
ĠCO VID
ĠS ocial
ar l
Ġc our
ĠW alk
ĠW ins
ĠH ur
ĠB ad
ĠTo p
pp ing
if f
Ġlaw makers
ĠCandid ates
U n
Ġw rong
Ġs uggest
Ġth ings
Ġg r
Ġon ce
Ġe ver
Ġk n
ĠPolitic s
ĠS e
ĠN e
ur ance
ĠCon vention
ure d
stitut ional
, '
D on
m ber
at a
Ġw rap
Ġd el
ĠSt ep
ri age
ud y
rot e
Ġbec ome
o ke
Ġ rat
Ġh ome
iv ists
Ġle ft
ĠAd d
Ġen ough
ĠMed ia
is hed
ĠC ent
Ġf ind
ĠP rom
ĠD el
ĠD et
ĠJ r
if t
ear ing
ove mber
ĠCar son
ĠMcC ain
ĠEc onom
ĠW ater
Ġl ar
ir ing
if ic
Ġv iol
HUFFPO ST
ĠChrist ie
Ġann ounc
c hes
le ased
and al
ĠM ex
ly n
ĠSh ut
ian a
Ġmonth s
ĠPut in
Ġinvestig ation
i rus
s p
Ġ ve
ĠT om
it es
ri f
gh an
ĠAn other
Ġdiffer ent
Ġp oint
Ġf ound
oc al
ast er
ĠBec ause
u mer
y ear
Ġto ok
ĠN ovember
ĠL ast
ur ned
Ġpro blem
ĠSupport ers
emp t
e in
on es
st ead
ĠS et
Ġto day
ĠM ajor
Ġcons ider
ĠMay or
ĠAttack s
c er
ou b
ĠS l
ĠD irector
ĠG re
Ġe v
Ġy et
Ġch ang
ĠPol l
anc es
Ġim migration
ĠTra vel
P ol
t en
Ġc over
ĠD eb
Ġb en
Ġm embers
ĠJ u
ĠHe ad
1 1
F l
L aw
M ore
Ġ 8
or ies
Ġc ivil
ĠD rug
ĠTo o
Ġe st
ĠIs lam
Ġcons ervative
row ing
ĠDid n
H is
i ver
ir th
Ġas ked
ans as
Ġjust ice
ib eral
S upreme
c l
Ġthe n
Ġp ost
ĠIs s
ĠSh ows
ĠLaw makers
ever al
ĠGeor gia
l ic
ĠD ist
end ment
ĠCh allen
Ġam ong
uge es
u el
at ur
ĠC he
Ġc ity
ĠR ally
ĠR ound
ĠM em
ot ential
ĠU r
ap e
Ġact ually
Ġgroup s
anger ous
Ġt alk
Ġc ent
ĠW est
ig ious
oc ks
Ġcont rol
ĠOff icial
ov es
Ġact ion
ĠCont rol
Ġb ad
Ġh old
Ġn ight
Ġoff icial
ĠMar ijuana
ib ility
ĠKore a
? "
T hat
it her
Ġf act
le x
Ġst ory
ud ent
Ġpro v
eb ook
rug g
E ven
M ost
M ike
Ġb ro
ve y
Ġbe st
az i
Ġrun ning
ĠRul es
F riday
T O
e ach
en n
Ġf oreign
ĠH istory
ĠM ove
Ġh ost
Ġre form
end a
ass ment
Ġ201 7
ĠMar co
rate gy
ĠNomin ee
. )
k en
is it
Ġc ame
ĠB udget
ig an
oc us
ard s
ĠCongress ional
mig rant
af ety
ĠTell s
p h
on a
ĠO hio
ĠH amp
ĠE PA
ak en
our s
Ġcl aims
ĠMon day
ĠC ivil
ĠR est
un e
ĠBar ack
vil le
a ud
Ġ emb
Ġa way
ĠD ead
ĠM ust
ĠM ilitary
ab ility
ĠCh air
ĠBe en
Ġlegisl ation
ĠSyri a
ĠP ush
ĠL ong
ur b
ore d
Ġv iew
ĠTh ursday
Ġpl ace
ĠRes ign
S o
g n
re ad
Ġc urrent
ĠP r
ĠB order
The se
ĠE ff
ĠK ey
iv en
Ġvot ing
sh ire
ĠHamp shire
I N
a ug
k i
r al
Ġs ocial
Ġp erson
ĠP AC
ĠB el
om ney
ra ham
Ġpol ls
get her
Ġneed s
c om
ĠG ot
ist an
ĠU S
if y
L ike
or ing
Ġf our
ĠF raud
ot a
ort ation
ter m
Ġst ep
ip s
rovers ial
B y
l ish
he t
ic ks
Ġw rote
ĠP res
as y
Ġd et
ad a
ri p
Ġme an
Ġreport edly
ĠChar l
opul ar
riz ona
D o
b ack
i ber
t le
u ing
in ed
ĠP al
Ġb illion
ĠF ace
Ġh uman
ĠL o
Ġacc used
Ġsay ing
Ġnomin ation
iel d
C ons
v o
ĠT alking
Ġd eb
ĠL ook
ĠOn ly
art isan
ag er
ok es
ns yl
Ġadd ress
Ġben ef
nsyl van
u ary
Ġa cross
Ġw r
ĠD NC
Ġth ough
ĠN et
ĠSt aff
qu ality
ĠBl ock
ov ed
ĠReport edly
Ġquest ions
J eb
ĠD r
ĠSt and
ust ry
ĠMar k
oun sel
ĠRound up
nsylvan ia
al t
ar ry
E lizabeth
T op
y ers
Ġf eel
ĠW rong
ĠB usiness
Ġh and
Ġm en
ĠK elly
Ġdo ing
Ġcl ass
Ġsupport ers
Ġop en
ĠAf ghan
T o
a it
Ġt aking
ĠP rison
ĠL ou
Ġpro cess
Ġsp ecial
ĠPro blem
Ġor gan
ĠLead er
fl u
ĠSlam s
i et
er ve
an ies
ĠG ive
ĠL atest
Ġl ist
em ic
ĠSt eve
un t
Ġex ecutive
ocument ed
Ġp r
Ġm atter
ol id
am ed
oc h
oc ates
iv ed
Ġyou n
ict ion
Ġresp onse
ing le
ic ul
Ġs ent
ĠB ro
ĠM uch
Ġh ope
ĠE d
Ġst aff
ĠSt udents
est ic
Ġj udge
und red
Democrat ic
ĠJu ly
f ra
o ot
v al
Ġa uthor
ar ks
Ġf il
el os
Ġre ce
ĠFor mer
ĠK ing
Ġpres idency
p ro
on av
Ġof ten
Ġch ief
Ġcomm unity
ĠCont in
ĠMusl ims
onav irus
g ender
at ic
ĠR ich
om el
Ġn umber
Ġpro f
ĠAl abama
Ġun c
ĠCount ry
ĠPar is
O J
T exas
d en
Ġc ut
ĠD ays
ĠR omney
le ad
Ġm od
ep end
ĠE l
Ġg en
Ġbe hind
os it
ĠSec ret
ott es
ĠWork ers
auc us
Mar co
lyn n
elos i
A S
E O
or ity
ĠC IA
ĠF oreign
Ġn early
ĠCh ina
Ġpre v
ĠTe am
C alifornia
r ight
re ement
ou g
ĠC NN
ar ies
ĠH ad
ĠM akes
Ġd rug
Ġare n
ĠSen ators
Ġ201 4
ĠLaw yer
ons in
isc onsin
ĠOp en
Ġreg ul
ĠFac ebook
ĠWalk er
aug ur
it al
Ġm is
Ġm illions
ro om
ain e
Ġpol l
Ġme as
Ch ris
sw er
B C
g o
ĠT alk
ĠT akes
Ġc risis
ĠH ard
Ġin formation
ĠG ar
ĠL ives
all ot
ĠGo ing
ĠDav id
a ire
d em
Ġp ersonal
Ġd eep
ĠN ever
Ġst rong
Ġst udents
ĠCl aim
reat ed
Ġsec ond
anc ial
Ġbl ack
ĠAm endment
rimin ation
stitut ion
Ġcontin ue
pir acy
Ġs uch
Ġf ront
ĠW ednesday
Ġd iv
Ġm oment
ri ble
os al
Ġnot hing
Ġj oin
ĠRe ve
ĠGet ting
Ġcom ments
C an
k a
w ork
ĠT ur
Ġs imp
Ġc ost
ĠF erguson
Ġm eeting
ac hers
ur g
ri end
ĠK ids
Ġacc ess
for c
aren ts
ottes ville
is on
Ġs exual
ĠN RA
Ġe mploy
oc t
ĠJ ew
ul ian
ain ed
Ġv al
Ġ201 5
Ġpl ans
Ġwork ers
ĠAr rest
Amer ica
Ġke y
ĠGeor ge
por ate
P eople
k ra
ĠS uggest
ĠC ut
om estic
ĠF ound
ĠM ur
Ġh imself
Ġn on
ast s
Ġch air
ĠWh ile
Ġ1 00
ret ty
Ġrec ord
ĠDef ense
uck y
Ġeff ect
olog y
duc ation
m it
Ġw ater
Ġw oman
Ġw eeks
Ġd ead
ra g
os p
ict ed
ĠUn iversity
Ġcomm un
Ġim migrants
Ġkill ed
ĠInvestig ation
M y
a i
n on
Ġo ld
ĠR a
ĠF ar
as ich
ad o
Ġe arly
Ġe vidence
ri ends
ag ing
ĠDo es
ĠTr ade
B en
s c
Ġs ure
Ġf ree
ĠR oy
el ine
ill ing
Ġl ives
us ing
ag ed
Ġvot er
ĠAct ion
Ġfamil ies
ĠServ ice
Ġ ign
ĠS ee
ar ing
ic ago
ru n
Ġto ward
ĠR ed
ĠB re
Ġh ar
Ġm ark
ĠJ ud
Ġal ways
Ġk ind
ĠGun s
ĠCol lege
ĠCom ments
augh ter
Ġed uc
at ure
ĠC EO
Ġs hooting
Ġs uccess
Ġs everal
ĠD ream
ru itt
Ġb ring
ĠF lynn
ot i
Ġm akes
ec ess
eal s
iz es
Ġsh ows
Ġex c
Ġ20 20
Ġdec l
eg oti
row d
Ġelect ions
Ġmove ment
Ġmajor ity
ĠFamil y
u er
Ġf ire
Ġb as
us hner
Ġfor ce
art h
Ġpol icies
ĠPol ls
ĠOff icials
ĠAct ually
vel op
ĠDef ends
Ġseem s
Ġinclud ing
Ġide a
undred s
A b
W ill
W atch
e hner
n ational
ð Ł
Ġt er
Ġt arget
al ty
ĠC ost
Ġc ertain
Ġf ear
ĠI de
Ġd irector
ĠL at
Ġre ason
ĠJ eb
Ġr is
Ġcan not
ĠPl ans
Ġdisc uss
umb ers
Ġeconom ic
ĠAnn ounc
m ing
er a
ĠA ir
ĠB reak
ĠM iddle
Ġn e
ĠL ess
os er
ip l
av es
Ġrep resent
Ġcall ing
ĠRun ning
Ġfund ing
vironment al
A ll
M ich
i am
st and
ent al
ĠM eeting
Ġd one
Ġd irect
ĠY et
ĠSp ending
Ġcl ose
ĠAss ault
ĠRob ert
B iden
D is
J udge
L et
O ur
l ac
n y
u le
al se
ic ers
Ġp ick
ĠD es
ĠO b
le an
om es
ĠM eet
ĠM ade
Ġh on
ĠG reat
Ġn uclear
Ġl ost
us ion
ĠE ast
ist er
ĠU se
Ġal most
Ġvot ed
uprem ac
ĠBan non
ĠJohn son
AC A
Ġlook ing
rib ut
sel ves
IN G
W ho
er ation
ĠA rab
ĠS unday
Ġp rivate
Ġf ive
ĠP elosi
ĠN ation
Ġl ove
ĠTh inks
ĠSec ond
ov ing
Ġacc ording
Ġdec ades
Ġeven ing
ĠCount y
ĠQuest ion
atur day
Ġyoun g
uer to
. '
M on
R uss
S p
Ġt imes
ĠT arget
al ia
ĠS aid
Ġw ords
ĠP ruitt
ĠG raham
ĠL GBT
Ġre leased
ĠSp eaker
ĠEx t
ĠWar ns
ĠResp onse
b ass
w oman
he st
Ġc itizens
Ġb u
ĠW atch
Ġn ame
ĠSp ecial
Ġun t
Ġexp ected
ĠFl int
Ġevery one
ĠProtest ers
Ġinv ol
each ment
F ederal
n e
o ff
it er
ĠH ack
ĠM ight
ĠM ean
ĠG i
ri ff
ap er
itt ed
ĠIm migrants
ĠDec l
n ers
v ing
Ġ ...
ĠS aturday
Ġs upp
ru t
Ġh aving
ur ch
ĠK ushner
Ġun f
ble ms
ĠMar riage
Ġcount ries
ĠExp lain
ĠAm id
ĠApp ro
Ġro le
ĠRac ist
Ġte am
I m
b ol
e ace
ĠA rizona
ĠS il
ĠC uts
Ġs eek
ol f
ĠN uclear
ĠL ew
ĠSt ri
ĠK asich
ĠRe v
ĠMex ico
B l
E very
o f
ĠT rying
ĠS hoot
Ġw ent
ent ucky
ĠM atter
im um
Ġre d
ir c
Ġe vent
ĠU kra
Ġv ice
Ġcom ing
ĠMon th
Ġinter view
Ġbel ow
Ġeff ort
ĠAfghan istan
ĠLou is
U S
c y
ou p
ĠS ex
Ġc eleb
ĠM any
Ġm et
ĠSt art
ĠCl ass
Ġpro gressive
ĠPro gram
Ġpolitic ians
Ġag ency
Ġeff orts
Ġeconom y
ĠTweet s
Sc ott
ĠQuest ions
f ect
u rop
at s
Ġb uild
ĠW ere
Ġl ine
Ġe ach
ĠJ une
ens ive
ĠAre n
ber g
St ate
Ġwant ed
Ġins urance
van ka
ĠMedic aid
ulian i
Ġs een
ĠH and
ĠB est
ĠF ire
ad or
ef t
Ġcon v
Ġr ally
Ġj ud
og n
Ġother s
ĠPl ay
fl ict
d d
or ado
ĠP an
ĠP oints
ĠH on
ĠF ree
ĠIn v
ĠFor ce
ĠBe hind
Ġvot es
itt ing
oll s
Wh ile
ĠFin ally
Ġvict ory
ĠBet ter
B ill
G eor
n ect
on st
al ks
Ġa ble
ĠA way
ĠF reedom
Ġh ig
ĠE th
ĠV ideo
ĠCon way
ĠWith out
ord able
Ġsp eak
Ġru les
ĠTw o
Ġcontin ues
Ġser ious
ĠCharl ottesville
5 0
b ody
ed erate
ĠS ub
ĠC aucus
ic ts
Ġp ossible
il es
Ġl o
ĠE ducation
ist oric
ĠCon stitution
Ġpro bably
gress ives
Ġres ign
ĠBill ion
Ġus ing
Ġsome one
ĠPh ot
forc ement
k es
l os
Ġa head
Ġb reak
ers ey
ĠL ist
se y
ct ions
ul ly
ĠCh ildren
Ġso on
af e
Ġjob s
ĠShut down
ĠGre en
ĠPres idency
a ut
ĠC ub
Ġw atch
Ġf ail
ĠD an
ĠB omb
ĠM att
ot e
Ġl im
ess ion
ĠCh ris
Ġ1 1
ĠLaw maker
Ġany one
Ġany thing
augur ation
* *
r oll
Ġt alking
ĠS er
ĠS ave
ar ian
Ġth ought
ri ot
ĠK n
ĠTh ing
Ġle vel
leg al
Ġsur pris
ocu ments
ĠLet ter
TO N
aud i
ipl om
u ce
er man
re as
ĠA head
Ġto gether
ĠF uture
Ġh ate
ĠE urop
ĠV ery
ag on
ip artisan
Ġdo se
Ġsp eaker
Ġexp er
Ġcomp any
ĠAcc ess
ĠGo es
ĠRec ord
rough t
Ġresp ons
arent ly
Ġattack s
u ment
Ġ #
ĠT V
or ial
ed s
Ġp otential
Ġb udget
Ġb attle
ĠW oman
ĠW isconsin
om s
ĠF all
Ġm essage
ĠG ay
Ġl ow
Ġl ive
se qu
ort ure
ĠJ ersey
ĠCh ild
ĠCh ang
Ġrep eal
Ġelect ed
ĠGroup s
ĠInt elligence
Ġcongress ional
Tw itter
ĠPen nsylvania
AS H
M usl
p ay
al ed
ic ip
Ġp rison
ĠE ver
Ġfor ward
op ho
ab lish
Ġwas n
Ġresp ond
ĠMich igan
Ġcour se
O T
e ky
k l
l ace
ĠS ystem
Ġc ar
ĠD iv
ĠSt ar
Ġv ideo
Ġpro secut
Ġ1 8
Ġsen ators
Ġend ors
Ġhapp ened
ĠAdv iser
ĠAdd ress
vo id
Ġunt il
M any
st er
st ein
ĠC over
ĠC itizens
Ġs usp
Ġc red
ĠH ate
ut y
ĠK im
n et
Ġt reat
ĠT er
ĠC ho
Ġc riminal
Ġf ull
Ġf ocus
Ġm ain
ĠG ives
ro ops
ist ance
ct ion
ra z
if ican
Ġsh ot
Ġcall s
Ġrem ain
Ġpre p
augh t
ĠSchool s
ĠVict ory
Ġel se
ING TON
ĠUkra ine
ASH INGTON
D A
M itch
c are
Ġt urn
or se
ĠR ico
ĠH ost
Ġm iss
res p
ĠG old
ĠL eft
Ġre ve
ra in
Ġ1 2
ond uct
Ġatt ention
Ġact ions
Ġpass ed
ann e
ĠEndors es
Ġannounc ed
f ort
r ad
ĠS usp
Ġp at
ĠP uerto
ĠD OJ
Ġb ar
le ag
ĠF ail
Ġd emocracy
ĠG en
ec e
ĠL abor
ĠLe ave
Ġ201 8
ĠâĢ ĵ
Ġlaw yer
Ġacc ount
Ġgun s
Ġche eky
ask a
struct ure
. ,
e ared
Ġp red
ĠR NC
ĠH ol
ĠH ome
ĠH UFFPO
ĠL ive
ak ota
ĠV eter
ip eline
ĠAl ready
ĠEx ecutive
Ġcont roversial
isc onduct
Ġab ortion
irm ation
reg on
Tw o
ĠFran c
Ġincre as
het oric
fra structure
ĠHUFFPO ST
W ASHINGTON
l er
v iv
Ġa ir
ĠS k
il ities
ĠD emocracy
ĠW here
ĠF inds
ĠM aking
ĠThe n
Ġg lobal
Ġhe ld
ĠJ im
our i
iv id
ap ons
Ġsp ec
oun ce
Ġcomm ittee
ĠCons ider
Ġchallen ge
M ay
d og
ĠS eat
Ġs on
Ġf avor
ĠH ill
ĠM id
Ġth ousands
us hing
ĠE lizabeth
Ġpro vid
ĠAs ks
Ġsp ent
ind sey
ĠVot es
ĠAd m
ism iss
Ġind ustry
ev ada
Ġass ault
Ġtru e
ĠVict ims
Ġclaim ed
Musl im
t ion
at ory
Ġa p
Ġp aid
Ġp osit
il ar
ĠH its
ĠM en
ut ers
Ġg ave
Ġre ality
ur d
ive ly
Ġle ar
gh azi
Ġsp ending
ĠPro secut
act ly
Ġar t
ult ure
Ġadv iser
ĠFund ing
Ġsm all
rican e
Ġeduc ation
c on
e z
h old
m ine
Ġ ur
Ġt aken
Ġs eat
Ġp ar
ĠH uman
Ġh ours
Ġl ocal
ort unity
ĠSt ory
ĠV isit
est ro
ĠAn g
Ġexp ect
af ort
Ġrel ations
Ġdes c
Ġde velop
ifican t
A r
i ant
m as
an e
st on
it i
ĠS ince
Ġc ounsel
ĠD espite
ĠD ACA
ĠB u
as ons
Ġd oub
el t
am b
ĠL ife
Ġre v
Ġbe gin
ra ft
iv ist
rat ed
ĠTh ings
ors uch
ĠDec ision
Ġlong er
ĠConf ederate
Ġ5 0
Ġlet ter
hel le
bass ador
ĠGi uliani
1 5
i ar
r il
ĠS ent
ĠC rime
Ġin flu
Ġv o
over ty
Ġ1 5
og rap
Rep ort
leg ates
ĠComm ission
ĠRef ugees
Ġtr ade
Ġpre vent
Ġbig gest
ĠInter view
ĠBo ehner
t ime
ĠT urn
ĠS ame
ĠS audi
ic helle
il ing
ĠH op
ĠM itch
em ale
ĠJ ournal
ĠK h
th ony
ĠRe qu
ĠRe lease
Ġwould n
oun ts
ock ing
Ġexp lain
ound s
Ġru le
Ġcomp anies
ev in
Ġtru th
arl ier
ĠEconom ic
ĠAnnounc es
A nti
O ff
ĠT own
st ant
ĠA ide
Ġs um
Ġp ush
ĠH aw
om a
Ġd ata
Ġm id
ĠN ight
ro ve
ĠJ ones
ust er
qu e
ĠRe id
ĠPro f
ĠSc andal
Ġru ling
Ġits elf
Ġar rest
An other
ĠLeg isl
Ġcho ice
Ġext rem
ĠAp ril
oci ety
ĠSuggest s
S unday
c ern
in et
in ner
Ġa w
ĠS on
Ġs k
Ġf ig
ĠI ll
ru st
ĠW hether
om o
Ġm em
ĠL ove
Ġl ate
Ġre ject
ur ning
ist ic
Ġst rugg
ĠCh icago
ine es
Ġag enda
ivers ary
ĠNomin ation
ablish ment
ivid ual
A m
N orth
R ight
e aking
i as
Ġs it
Ġs ex
Ġp oor
ĠP ort
ĠP ri
ĠO ct
ĠB irth
ow ers
ur ther
ter n
ĠOn ce
ĠK och
ĠRe ady
Ġme ans
ĠMan afort
Ġ3 0
Ġhear ing
Ġtweet ed
a iting
i ers
l o
Ġt ry
ar ah
ĠD rop
ĠR ule
om inees
Ġh alf
Ġg round
Ġbe h
Ġlead ing
rop ri
Ġschool s
Ġkn own
ĠEth ics
S anders
i pp
i est
m ore
Ġt ried
Ġs ide
Ġs elf
Ġs hoot
Ġc ases
ĠP ra
ĠW ell
ĠH ear
ĠB uild
ĠG orsuch
ec hn
ĠThe se
Ġfor m
ĠJ ail
all ed
ra ge
Ġan swer
Ġpol ling
ĠSp eak
ĠSc alia
Ġget s
Ġapp ear
ĠHar assment
Ġfin ally
Ġhapp en
ĠAff ordable
kl ah
B ar
F ox
d ers
s elf
w h
Ġw ealth
ĠP ast
Ġb r
ĠR ips
Ġd angerous
ill erson
ĠL aun
Ġl ack
Ġl iberal
ir t
our ces
ĠK en
ch ing
Ġsh ut
Ġad m
enc ies
Ġres ults
oun ter
Ġsen se
ful ly
Ġtr ad
Ġfac ing
Ġrecent ly
Ġev ents
m a
Ġt ri
Ġt urned
al es
ĠA w
ĠA uthor
ĠS eek
ĠC eleb
ĠC rack
Ġs afety
Ġc re
Ġb order
ent ly
ĠH ot
Ġd am
Ġin stead
ut es
ĠV iol
est in
Ġas k
Ġr ad
ell ing
ĠAs ked
ĠSp icer
ner gy
ĠEmail s
ĠHar vey
ĠInd iana
Ġcongress man
ĠLaws uit
A ct
E n
J eff
T uesday
V ot
W ar
b l
b and
i ents
l in
u ments
u omo
er gy
ĠS ept
is ions
ĠC amp
ent agon
ĠH it
ĠL ear
Ġcon vention
end ers
ab inet
eb s
Ġal ong
av en
Ġop in
ĠCons ervative
ecial ly
ĠFac es
Ġalleg ations
ĠAlleg ations
ĠCent er
Ġve ter
Ġcover age
ĠIde a
klah oma
d o
Ġ enc
on ents
es c
Ġs ingle
Ġf reedom
ĠP ark
Ġo cc
ĠD akota
id ing
ĠH omel
ĠB ook
ĠF ood
Ġn umbers
ĠL ose
ĠL obby
ro g
out s
ĠCl ose
Ġ2 1
ag an
Ġch ild
Ġen g
Ġbel ie
ĠUs ing
ĠCol orado
ĠChrist mas
rate g
ĠCo hen
ĠSch umer
ĠDist rict
ĠReve als
an k
ĠS omething
ĠR ick
ĠM od
Ġth inks
ĠIn f
Ġst ar
Ġwho se
Ġoff icers
Ġall ow
ĠEx c
oun g
ĠEm b
Ġthem selves
Ġcomm on
ath room
Ġfin ancial
ĠPer cent
Ġmeas ure
! "
F BI
L ast
n a
o ol
ĠA ug
Ġw ays
ĠF oll
Ġl ed
ur al
ĠJ oin
Ġj ournal
io id
Ġacc ept
ĠFl ag
ĠNeed s
Ġint elligence
Ġtra vel
sequ ences
a ith
ĠC riminal
Ġp ract
Ġf ailed
ĠH all
ot ed
Ġd espite
ĠTo day
im in
Ġl and
Ġl ater
ĠE v
se e
ab ee
Ġ1 7
oll ars
ĠRes ults
ĠDef eat
uck abee
ĠJan uary
Ġconcern s
Ġrat her
ĠJew ish
W ednesday
Y ear
c el
l ad
o le
Ġ il
or ry
ĠC oll
Ġf ather
ĠI gn
le ment
ĠB attle
ĠM is
el an
ĠG od
Ġre ady
Ġe ither
ĠSt udent
ho se
art in
ress ed
Ġhas n
act ion
led ge
Ġhelp ed
Ġdis p
Ġadv ocates
Ġser ve
ĠBen ghazi
yp oc
Ġsimp ly
A P
D espite
b or
j ects
u ation
he m
ĠC uomo
ic ult
Ġf all
ĠP et
ĠL ooks
Ġl ose
Ġe asy
Ġst at
Ġst rategy
ĠJ ared
ĠV al
ous ing
ĠBan k
Ġfight ing
Ġdel iver
Law makers
Ġprov ide
osp ital
V os
g ins
l ight
w here
Ġ &
Ġt rou
ĠT im
ĠT ies
or ities
Ġc y
Ġp retty
Ġf ix
Ġf raud
ĠH earing
ĠB as
ĠB oy
ĠM illions
Ġm eet
Ġin j
ow ard
ĠE ric
ĠSt rategy
ĠK ansas
Th ursday
ran ge
Ġrep eat
ĠAcc used
ounc il
Ġsign ed
Ġprop osed
Ġprop osal
ĠPh il
ĠAf rican
ĠTrans gender
Ġdem onst
inc ip
ĠSe em
A pp
C A
R and
R ick
T om
W as
e quality
l or
w ide
ar r
ic le
Ġs ix
Ġc ities
Ġp un
Ġf air
il ty
ĠW age
Ġth ird
Ġn egoti
ĠN Y
ĠL ikely
Ġe mp
ist ing
ĠV eg
her n
ob b
ap t
Ġ201 2
rim es
Ġapp ears
ĠAct ivists
Ġcomp lain
ik es
ĠWork ing
Ġfin al
ior ina
Ġleaders hip
ĠDem s
Ġrac ism
ĠElect ions
struct ion
Ġchang es
Pol itic
ĠIslam ic
ĠIss ues
Ġcommun ities
S em
b at
r ace
re es
ĠS um
ar ily
Ġw all
Ġs uff
Ġp opular
Ġf ood
ĠB ern
ĠM ess
ĠM essage
el ess
im ony
Ġst ri
ĠJ ack
Ġwith in
Ġpro blems
ĠPro gressive
ĠCall ed
Ġag ree
Ġqu ick
Ġweek end
Ġreport ed
New s
Ġem ails
ĠPass es
ĠFamil ies
ĠJob s
rupt ion
Fl orida
ĠChallen ge
pro f
ecess ary
ĠVeg as
o es
re ct
it ness
ĠS ue
ĠI D
ĠP rivate
ĠF our
ĠM et
Ġd r
ac her
ac hes
ĠN A
Ġg iven
Ġre lease
Ġe qu
ist ed
ce ed
ident s
ke y
od e
Ġpro be
ail y
ĠRe ason
Ġun p
orm al
any ah
Ġen forcement
ĠOr ders
vers e
vers ation
Ġreport s
ĠIm migrant
ĠAb use
Ġam id
Ġdef ense
Ġgu y
Ġrac ial
ĠSyri an
Ġrest rict
erm ont
Ġfoll owing
Pol ice
opho b
anyah u
F L
M c
on ent
er k
at form
ĠT illerson
ĠP oint
ĠD am
ĠH uckabee
ĠF ather
Ġd ied
Ġd ev
ac re
ig in
ly ing
ep ar
ĠE r
Ġhe ard
ul ation
ary land
ĠK entucky
ress ion
ast ed
Ġle ave
ord in
ob er
av ed
ĠNot hing
enc ed
ik a
Ġcons piracy
ĠBig gest
Ġind ividual
ĠCons ervatives
ĠComp any
ĠFin al
Ġpower ful
ĠResp ond
ino is
Just ice
ĠHur ricane
run ner
ĠVeter ans
elan ia
A re
N ow
b o
b urg
h aps
s olut
Ġ esp
ĠS ure
Ġs y
Ġs uper
Ġp osition
ĠH al
ĠH imself
ĠM om
Ġh it
Ġh ot
ac es
ac hed
us ive
ĠE mer
ist or
ĠV iew
ĠCon cern
Ġv s
Ġch ance
Ġ1 4
Ġk ids
ĠBl ames
rim aries
Ġapp eared
ott en
Ġopp ortunity
Ġent ire
Ġchar ges
Ġlaws uit
ĠBet ween
Ġbenef its
Ġrece ived
ai i
Ġris k
Mon day
' :
1 0
C C
D em
F rom
N BC
O ver
c i
i els
er c
ĠT reat
Ġw ond
Ġs im
Ġp ri
Ġp riv
ĠB ob
ĠB rot
Ġm ind
Ġm ember
Ġn et
ĠL ot
ĠL ost
ĠL ie
ad d
ra ising
ĠTh rough
rou d
Ġex actly
ĠRe ad
Ġrec ogn
Ġen ergy
ĠReport s
ĠDef end
Ġunder stand
ĠUs ed
ĠChrist ian
ĠTe achers
ĠImp eachment
Ġrel igious
ĠProtest s
ĠUr ges
Ab ortion
ebs ite
G un
R ead
S ec
b all
c ial
st anding
ĠC our
Ġs ol
Ġs ociety
Ġc ru
Ġc uts
Ġc rime
Ġp opul
ĠP aid
ĠP oor
ĠR i
ĠM embers
ĠL ow
ĠIn auguration
ur t
ĠCon v
av ior
ĠLe ak
Ġatt empt
ang u
ĠDo ing
ĠAr g
ĠAr my
Ġevery thing
Ġ19 9
Ġdif f
Ġcol lege
ĠCor onavirus
ĠHapp ened
ĠPr ice
upremac ists
estro y
B e
c le
l it
o pped
t ah
u ke
in y
re nd
ĠS afety
Ġp en
Ġp oss
Ġf ired
il ed
ĠF ind
ĠF ix
ĠM r
ĠM itt
ĠM oment
Ġm orning
ĠG lobal
ĠN on
ĠL ittle
Ġst ay
Ġst udent
ĠSt ay
ĠSt orm
ack ed
Ġcon flict
ĠAs k
ob ody
Ġ1 6
Ġstate ment
ink ing
Ġdef eat
ĠInter est
Ġtru st
ĠRul ing
Re uters
A d
C E
H S
s et
it ive
ĠC ops
ic ations
Ġf alse
ĠD ata
Ġb rought
le vel
ĠF iorina
Ġh ands
Ġh uge
Ġd eter
ill ed
ĠL as
ĠL ies
ut r
us hed
ĠE mploy
ĠE nergy
Ġg rowing
Ġe arlier
ort ions
ire ment
Ġ1 3
av y
ĠSc ience
ĠEx ecut
ĠâĢ ķ
Ġres earch
ink ed
Ġpart icul
ĠThan ks
Ġind epend
ĠAg enda
Ġmed ical
ĠBo ard
ĠCom es
Ġsign ificant
Ġcritic al
Ġco al
acc ine
ĠContin ues
Ġprev iously
ĠGar land
ĠArrest ed
OT US
E lection
K elly
g round
Ġt ies
al a
ing er
ĠC y
Ġb allot
as io
Ġh or
Ġm ist
Ġin f
ĠG ame
ĠN ame
ĠL im
us band
ĠE p
ir l
Ġhe art
ĠJ on
ĠV ice
ĠCon dem
ard on
ens us
Ġwor st
ĠBack s
Sen ator
ĠEn g
ĠChar ges
Ġref ugees
Ġserv ice
ĠRet urns
ĠDe Vos
Ġprotest ers
por ations
ĠMajor ity
ĠDeb t
ĠIss ue
ĠMem o
Ġbro ad
ĠMove ment
ĠEff ort
ĠCub a
Ġexper ience
Ġesp ecially
B ig
E A
H er
L U
o on
o res
Ã ©
Ġt akes
Ġt erm
it ions
ĠS n
ĠC abinet
Ġw ord
Ġp an
Ġp ath
Ġp arents
ĠI l
ĠP un
Ġb omb
Ġb irth
Ġto wn
and er
ĠF ake
ĠF avor
Ġd ue
Ġin vest
Ġl ooks
em en
Ġbe gan
Ġsp oke
ick ing
Ġoff er
Ġgo es
Ġag reement
Ġcomp let
riv ing
ĠSur pris
ĠTru th
Ġterror ism
ĠBel ieve
Ġval ues
Mich ael
Russ ia
leag ues
Ġincreas ingly
ĠOct ober
L GBT
S A
h ouse
p ect
ĠA lex
Ġc apit
Ġf urther
il t
ent ed
and ed
Ġm iddle
Ġg one
ĠSt rugg
Ġ2 5
Ġbl ock
uck er
Ġop er
ix on
ĠBr ing
Ġcritic ism
Ġrac ist
Ġhop eful
ĠPal estin
L indsey
N ancy
O bamacare
d raw
t t
y es
ou l
ĠC ouncil
Ġw id
Ġc rowd
ĠD inner
id emic
ĠR and
ĠB id
and emic
ĠF eb
ĠM oves
Ġm ess
ol ks
Ġg ame
Ġg iving
ĠAnd rew
Ġr hetoric
ĠPro bably
Ġall ies
Ġcont est
ib ly
ĠComm unity
Ġneed ed
Ġrem arks
ĠUs ers
med i
ĠGu y
Ġban k
Ġcor onavirus
ĠRo le
ĠDav is
Bar ack
l aw
w e
re p
ĠT aking
ĠC ast
ĠC lear
Ġs il
Ġf riends
ĠP red
ĠD oub
ĠD oug
Ġb ook
ĠO ld
ĠO regon
ĠW ild
ĠF ired
Ġn ar
ĠN evada
am ous
im ore
Ġl abor
Ġe as
ĠSc ar
Ġund ocumented
St eve
Ġrem ember
ĠAg ency
uge e
Ġem ail
Ġfac es
Ġcor porate
ĠMin imum
ĠBen ef
ĠPre p
Ġph ot
ĠMedic are
ĠSan ctions
ĠEconom y
alt imore
go ing
Ġinvol ved
bol a
Geor ge
reas ury
ĠAug ust
D ef
G et
M an
O r
O ld
R em
c oming
h y
i ece
m en
Ġ resident
al y
Ġa ud
ar ant
ic i
Ġc reated
ĠP ossible
ĠP ipeline
Ġo il
ĠH un
ĠH ope
ĠF ull
ac hing
âĢ Ķ
ĠV ows
ĠY oung
ound ed
Ġapp oint
Ġapp arently
ĠCall ing
Ġshould n
ows ki
ĠReport er
ĠRef uses
err ick
Ġknow s
ĠDec ember
ĠSay ing
ĠEn ough
ĠComp lain
ĠBo ost
ĠBec ome
Ġra ised
ĠTri p
Ġvict ims
Ġmin ority
Ġinterest s
Ġgr and
Ġview s
ĠRich ard
Ġdiff icult
G ov
S an
Y es
a ust
e lection
p a
en nes
ĠA id
is hing
ĠP icks
le as
om as
Ġd omestic
Ġre view
ir ms
ri ve
Ġ2 4
ell ow
ĠRe view
ap on
ĠBl asts
Ġcom ment
Ġbec ame
ĠDep ortation
ĠPl ace
Ġbill s
Ġthink ing
Ġdisc rimination
ĠHelp ed
ĠThreat s
ĠThreat ens
Ġ200 8
ĠDen ies
ĠFran ken
ĠPen alty
ĠEndors ement
Ġprogram s
ĠTerror ism
Ġappro ach
Ġsuggest ed
Ġchair man
Was hington
Ġcapit al
ennes see
C ol
P oll
a os
r ick
re l
st ate
ĠS ues
Ġs aw
Ġf un
Ġf oot
il s
id ers
ĠR is
im ir
ĠL a
Ġl osing
ĠE nt
ir ther
ĠV ermont
nt il
hen ey
Ġall owed
ĠOr gan
Ġrem ains
ĠAg reement
Ġadv oc
Ġcritic ized
itiz en
ĠSign s
Ġfl ag
Ġinclud e
ĠDream ers
lac ement
ĠArab ia
ĠPan el
lad imir
. -
c he
c ast
i um
k ansas
p o
Ġ ident
Ġt echn
Ġw ife
Ġc irc
Ġp oints
ĠP ersonal
ĠM ill
ĠM os
ĠE arly
ir med
ak er
Ġr oll
ĠRe agan
Ġwe apons
ris y
Ġout side
Ġjust ices
Ġatt emp
Ġwor se
ĠAcc uses
ĠInter national
omet imes
Ġ4 0
ĠCom ing
ĠTri ed
ĠTri es
ets y
ĠAp olog
Ġconcern ed
ĠProm ises
Cons ervative
Ġdoub t
ypoc risy
solut ely
C ru
M iss
g ate
g ency
r or
v ision
Ġ ill
re aking
it ud
it arian
ĠA round
ĠS ean
ĠC ities
ar re
ar med
Ġf ore
ĠD oct
ĠR en
ĠB rief
ĠF il
Ġh undreds
Ġd iplom
Ġm ult
ac ts
ĠG l
ĠL iber
Ġl obby
ro duc
ort ed
ĠV is
ĠY emen
ian ce
ind er
Ġun ion
ens ion
Ġres ult
ned y
Ġwork ed
Ġdon ors
ged y
Ġdis g
ĠIns urance
Ġref lect
Ġprotect ions
Ġche ck
ĠGr and
erry m
rovers y
Ġtweet s
Ġincre ase
Ġchang ed
ĠStri ke
Ġopin ion
utr ality
Kelly anne
pa io
B ec
G overn
U nd
y ond
Ġ [
ĠC red
ar a
Ġc ause
Ġp ra
ĠD eep
ĠR on
ĠR eb
ĠH uge
Ġd esp
Ġd aughter
Ġd ollars
ac ed
am ing
Ġl ight
Ġl ady
us al
Ġre b
ĠU N
Ġbe yond
ra ight
ĠV P
ĠV et
ard ing
Ġcould n
Ġdec ided
Ġsec ret
ĠMed ical
ĠUs es
Ġopp osition
ĠPer ry
ines e
Ġprom ise
Ġmar ijuana
pl ay
Dis p
iter ally
Ġdesc rib
ropri ate
E lect
d ling
w ell
w hel
Ġ z
re y
ĠT ry
Ġp ubl
ĠP ope
ĠO il
ĠW ays
ĠF ed
ĠM or
Ġm ot
ac ter
ĠG erman
Ġl aun
us hes
Ġfor ces
ct uary
all ies
ain ing
Ġr ise
eb us
Ġwill ing
ĠAd s
Ġor igin
ĠBl ocks
ĠLaw yers
ator ial
ĠRuss ians
Ġact ivists
Ġmay or
ĠAm ong
ĠTax es
ĠShould n
Ġab use
land o
emp or
ĠLeg acy
ĠCo al
Ġwin ning
ĠMiss ouri
ĠRel igious
Ġlar gest
ĠMex ican
Ġdeb t
Ġorgan ization
Ġdeep ly
Ġcertain ly
ĠLat ino
ĠTer rible
ĠAdm its
ĠKen nedy
angu age
E m
I nd
c ks
u its
w in
Ġt ough
an ks
ĠT oward
ĠS C
ĠI vanka
ĠP o
ĠD angerous
Ġb all
Ġm other
ill y
ĠL iberal
ĠE bola
oc used
Ġhe ro
ĠRep resent
ĠCon ference
up id
ĠCh uck
Ġr ich
ĠAs ian
ick et
ens es
Ġcont ribut
ĠOff icer
app y
Ġexp erts
ĠAr paio
Ġop t
Ch uck
Ġse ven
ĠWor se
ĠFight ing
ĠImp ortant
ĠSur viv
Ġconf irmation
Ġtell s
enn ial
Ġgen er
Bl ack
Ġhig her
T E
e ven
it ional
ĠS eeks
ĠC op
Ġw age
Ġs afe
Ġc oup
Ġp eace
ent y
le a
Ġd ocuments
ĠN un
Ġl iving
ver t
ĠSt at
Ġv is
Ġv isit
ign ed
Ġas king
ud den
ant age
ĠTh ird
ob il
ok ing
Ġwho le
Ġoff icer
air s
ĠOr lando
ĠDon ors
Ġresp ect
ck now
fl icts
Ġcritic s
ĠRac ial
ĠKill ed
Ġtrans p
ĠExplain s
ĠDan iels
po en
) ,
M in
U p
w ood
Ġ esc
ĠT old
ĠT urns
ĠS and
is ers
ĠC heney
Ġs n
Ġs an
Ġp ur
Ġb ased
Ġb rief
ĠF ear
ĠM ad
ĠM isconduct
ig ged
ĠG ave
ĠN ixon
ul ner
Ġcon ference
Ġcon stitutional
Ġcon dem
Ġcon sequences
Ġv ers
amp le
ag ue
ag ement
Ġex ecut
ĠAn thony
Ġlaw maker
isc o
Ġinc ome
Ġcons ervatives
Sen ators
ĠAcc us
Ġpart ies
ivers e
Ġstart ed
ĠInd epend
Ġshow ed
Ġfac ts
ĠZ ika
Ġprom ised
Congress man
Ġserv ed
Ġserv ices
ient ists
auc uses
Ġprotest s
Ġbusiness es
olid ay
Ġhar assment
ĠExt rem
May be
ĠPri ebus
ĠSept ember
Ġsim ilar
? âĢĿ
D ear
E ric
P h
T od
W omen
g un
k in
l ines
s s
Ġ ep
Ġ era
in ation
in ke
Ġt ele
ĠT hose
Ġa im
Ġa ide
ed ic
Ġw orth
Ġc ast
Ġp ers
ĠD omestic
ĠR ock
ĠW ent
ot ing
Ġd ro
Ġd ram
et ts
us an
em y
ĠE mp
ur der
Ġst rateg
ri pt
ĠK erry
Ġv ac
ab ilities
ĠPol icies
Ġacc omp
Ġdec ide
Ġimp act
ins burg
Ġwar ned
ĠAm bassador
Ġab ility
ĠWor st
ĠInter ior
Ġra ise
ĠIns ide
Ġref used
ĠTri al
ĠRac ism
Ġthreat s
Ġchar ge
Ġmar riage
ĠRel ations
Ġchallen ges
ĠReg ul
Ġpr incip
Ġemploy ees
Ġseek ing
ĠEurop e
pay er
raz y
resp ond
ĠFranc isco
Ġinflu ence
Ġarrest ed
Ġresident s
errym and
Disp atch
1 00
D id
F irst
I vanka
M al
N Y
P rotest
S NBC
W here
y e
Ġ rap
ĠT alks
it z
Ġf ield
il i
ĠI d
ĠP entagon
ĠO K
le v
ĠB ow
and ate
ĠF iring
ĠM other
as c
Ġh aven
Ġd oct
et t
Ġl ies
Ġg as
Ġon es
ist le
ĠV ladimir
ĠK aine
Ġsh are
ip le
ĠLe ast
ĠVot ed
ren g
Ġpl ed
ĠAcc ount
Ġplan ning
ĠUnd ocumented
ĠHar ris
Ġem erg
Ġkill ing
Ġdist rict
ĠTru st
sw ers
Ġrequ est
Ġannounc ement
Cons ervatives
Ġbenef it
Ġsupp osed
Ġtreat ment
Ġur ged
Ġrelations hip
ĠKh an
tern ative
Ġtri al
Ġcre ate
J ames
N e
O f
S ex
g ely
j ust
m o
Ġ ens
Ġ riv
Ġt rip
re en
ĠT rou
ĠT orture
ĠS ol
Ġb rot
Ġb ipartisan
ĠF e
ĠF ailed
ĠM errick
Ġd ark
ĠN ative
Ġl oss
em ents
ĠE vidence
ĠIn stead
ir al
ir ls
our ce
rat ing
ĠSh ort
enc ing
iss ipp
ang el
Ġen vironment
Ġen vironmental
Ġcomm ission
vers ight
On ly
Ġpart icip
ĠOp ioid
Ġtax es
ĠShe riff
Ġ19 6
Ġpay ing
ĠElect oral
At t
ĠKill ing
ĠDisc rimination
ĠEvery thing
Ġrequ ire
ĠPower ful
Ġbillion aire
ĠNet anyahu
ĠFound ation
arth y
ĠHomel and
arr ass
Bec ause
C NN
F erguson
H arry
L ago
R E
T r
b ling
d y
p er
p an
y le
st ers
ĠS ad
ĠS old
Ġc a
Ġc reat
Ġf riend
ĠP riv
ĠD ies
ĠD od
id ence
ĠF riends
Ġd ismiss
ĠG round
ĠN FL
am ent
ĠL ine
Ġl ie
us etts
ĠE qu
out hern
ub ern
ĠRep lace
os als
ĠCh urch
Ġj ail
ure au
ĠSh ot
ĠBl ame
ĠWe in
ach usetts
Ġsc andal
Ġcomp lic
Ġper form
att ers
rid ge
Ġman ager
ĠGu ard
Ġfac ed
ĠZ inke
ĠDem and
ĠProtect ion
Ġmass ive
ĠContin ue
Ġmark et
ĠIll inois
ĠEmer gency
ulner able
issipp i
ubern atorial
J im
S ean
k ward
l ant
s y
z z
Ġ er
ĠA ge
ĠS al
ĠS elf
ĠC ore
ĠC ounsel
ĠP ul
Ġto t
ĠW il
ĠF ew
ĠM ag
Ġh arm
Ġd emocrat
Ġm oral
ĠG iving
ĠG insburg
ĠE ll
Ġre n
Ġre fer
Ġre asons
if ying
ch ange
iv al
ĠCh inese
iz arre
Ġsp read
Ġsp okes
Ġsp eaking
iss ions
ĠCar ter
St ates
Ġhapp y
ĠCor porate
Ġpress ure
for ce
Ġalleg edly
ĠCritic ism
duct ive
Ġorgan iz
Ġprof ess
Ġhig hest
Ġposit ions
Vot ers
Ġenc our
level and
R el
h ic
h as
l ash
r ity
u f
u ic
ĠT ough
or row
Ġa void
ou ch
ĠC lean
ar ity
ic it
Ġw alk
Ġs old
Ġc oll
Ġc ulture
ru ary
Ġb it
ĠR oll
le ases
Ġh istoric
Ġd ocument
Ġm ag
ac ific
Ġn ear
ill s
am o
ĠE vent
ĠU tah
ack ing
est ruct
Ġcon d
ĠTh omas
um e
ĠRe ject
ip e
ĠAl aska
Th ree
In ter
ĠWas n
Ġru led
Ġsc ience
anc ed
Ġhelp ing
ĠExp ect
ept ion
Ġiss ued
Ġann ual
Ġide as
Ġbo ost
Mich igan
Ġbu y
Ġrespons ibility
ĠAng el
ĠRequ est
ĠHaw aii
ĠHot el
ĠFoll owing
Tod ay
M eet
P at
R es
R ob
l ig
p et
p ost
p aper
r ich
Ġ ult
ĠT roops
Ġa ut
Ġa ge
it ment
ĠS ingle
ĠC r
ĠC rowd
ic ing
Ġw ild
Ġf inds
ĠP otential
ĠD if
ĠD one
ĠB er
ĠB allot
ĠF red
as ion
Ġm urder
ĠL osing
ĠL yn
ver age
ĠIn frastructure
ĠSt rong
ra ve
est er
ĠCon nect
ant or
Ġ2 2
Ġpro ject
ous ly
ict ure
ĠAn ton
In side
Ġatt end
Ġbec oming
Ġbl ame
Ġwor ry
Ġreport ers
Ġdef end
ĠChar ged
ĠCons piracy
ĠBec omes
ĠDis aster
nes ota
ĠMcC arthy
Ġprom ises
Al abama
ĠChe ck
ĠRest rict
ĠChair man
Do es
ĠEurop ean
ĠMid term
Ġart icle
ĠDrop s
wh ile
ĠCrack down
Ġil legal
ici ary
ĠSC OTUS
G o
H ealth
T e
a ur
l ike
r and
x on
z ens
Ġ ir
Ġ eth
on na
st one
Ġa id
Ġs lam
Ġs ides
Ġp o
ĠD ad
ĠD ie
le ep
ĠF un
ĠF air
ĠF ails
ĠM aryland
Ġin n
ig ion
ol n
ec k
ĠN early
ĠN ancy
ate ver
ĠL and
Ġl ower
Ġg row
oc aust
ĠFor ward
Ġcon versation
th ough
rat es
Ġpro gress
um n
av an
Ġ201 3
Ġup on
ran ch
ĠHas n
Ġany way
ĠAr t
St op
Ġwar ning
Ġhow ever
oss il
ĠRec e
ĠRec ords
ĠPolitic ians
ĠAg ree
ĠInd ustry
ĠWant ed
Ġro om
Ġhapp ens
Ġser ies
ĠMe ans
ĠPre vent
ĠProp osal
ĠOther s
inc oln
ĠCritic s
ĠLeaders hip
Ġkn ew
Ġlar ge
Ġest ablishment
ĠLat in
upremac ist
ĠShoot ings
ĠHon or
Ġbeh avior
Ġbelie ves
Ġquick ly
ĠFeb ruary
) .
P en
S arah
h ow
h ib
p ort
s id
w ing
Ġt een
Ġt roops
ĠS uccess
is hes
Ġc amp
Ġc lean
Ġp ain
Ġp urs
Ġp overty
id icul
ĠO klahoma
ĠR aid
ĠR og
ĠH am
ĠH istoric
ĠF ocus
ot al
ĠG ard
Ġn ine
ĠL ee
ĠL ib
ĠL oses
Ġl if
ĠIn flu
Ġfor ced
rom ise
Ġcon duct
ire t
Ġad s
ok ed
ĠAn swer
ren ch
Ġacc us
ĠRes earch
Ġsc hed
Ġsen ior
Ġreport er
ĠRef ugee
ĠAss oci
olut ions
Ġcol or
Ġkeep s
ĠElect ed
Ġdeath s
ĠRob erts
ĠPart ners
ĠRel ief
ĠDisc uss
ĠSm ith
Ġterror ist
pl ace
ĠHur t
Ġconsider ed
tle ment
lead ing
Ġregul ations
Ġcost s
Ġne igh
ĠLouis iana
Ġshoot ings
Ġveter ans
Cru z
Ġpubl ished
angel ical
Ġdemocrat ic
E d
E PA
L eg
R ac
U P
i od
m bol
r ows
x it
ĠT een
ĠA void
ĠS un
ar p
ar ter
Ġs ave
Ġs epar
Ġf ast
Ġf aith
ĠP eace
ĠR od
ĠB ur
ĠB athroom
ĠF act
ĠF ront
ĠM artin
ac rif
am ala
ro ad
Ġg ay
Ġst udy
ĠJ erry
un ch
Ġr ate
over y
ag ine
ord ers
ĠPol ling
ick ed
lan k
erv es
Ġrep lace
app ing
app ed
Ġapp eal
ĠCar l
Ġwor ried
ĠComm un
Ch rist
Ġbel ief
stit u
Ġind ic
Ġ19 8
Ġpres ent
Ġcol leagues
ĠFin ancial
ĠMin ister
Ġchar ged
Ġplay ing
Ġden ied
ĠNe il
Ġviol ent
ĠPal in
Ġwr ite
Ġprev ious
ĠRa ise
Ġfail ure
ĠLaun ches
Ġshut down
ĠColl ins
Mal ley
C or
C omp
G ood
M A
M itt
M ichelle
R oy
R ubio
g ry
l ights
p ed
w ise
Ġ X
Ġ ess
ou d
it ial
ĠS ick
ĠC oup
ic ious
Ġw ake
Ġw ait
Ġf elt
ĠP erson
ĠP arents
ĠR ad
ĠB oth
ĠF ore
as hes
Ġl iber
ur ate
Ġe ar
Ġst ories
all s
op er
Ġan al
ast e
Ġ2 7
Ġoff ered
erv ation
elf are
Ġsupport ing
ĠAll ies
Ġim medi
ĠInter net
ĠPut s
Ġlegisl ative
ĠRo ad
Ġsub ject
Ġdem and
Ġdiffer ence
ĠMe as
Ġgreat er
Ġph one
ĠKeep s
ĠResign s
ĠChang ed
DA TE
UP DATE
3 0
D C
F ac
M ark
P P
S ince
m ar
Ġt ens
ĠT reasury
it orial
ĠS ho
Ġs olution
ĠI CE
ĠD ev
ĠD ocuments
ru m
Ġb oy
ĠW r
ĠH ospital
ĠM ichelle
ac le
ol unt
Ġn ominees
ĠN ations
am er
am uc
ĠU ntil
ĠIs land
ost on
ome y
ĠTh ousands
Ġj ury
Ġex ist
ĠRe jects
ĠRe leases
Ġsp end
ĠHe art
ĠPro ject
ĠWar ning
ĠOff ers
uprem acy
Ġper haps
ĠEnd orse
Ġinter national
ward s
ath y
az is
Ġcare er
ĠBr it
ĠDis p
olog ical
ump t
loy ment
ĠFund s
Ġthreat ened
ĠInvestig ate
Ex p
ĠMass ive
ĠAnn iversary
Ġde legates
ĠProtect ions
yl um
Ġaff ect
ĠSm all
ĠProm ise
ĠLong er
urb ing
Ġdet ails
Ġmod ern
ĠMur der
Ġdirect ly
Ġbuild ing
Ġsum mer
Ġsit uation
uf act
1 2
C ritic
C ross
N ever
O ut
e ith
l ikely
t ain
z en
Ġt act
er o
at ched
ĠT ower
en g
ĠA C
ĠA nt
ĠA cross
ĠS upp
is ive
Ġw ish
Ġs end
Ġp ushing
ĠP lead
ru ck
ĠH ell
ĠM aine
Ġh istor
Ġm atters
Ġn ecessary
se a
ri an
ĠV A
ĠV o
ĠK evin
Ġle ak
Ġex ample
Ġ20 2
hen s
ĠLe aves
Ġout rage
Ġcan cer
Ġstate ments
ond on
ĠUp d
Ġag encies
Ġcandid acy
ĠMay be
anc ing
Ġper fect
Ġpart isan
oint ed
ĠHelp ing
Ġtra gedy
ĠFac ts
Ġadd ed
Ġem er
Ġdep artment
Ġte achers
Ġfoll ow
ĠNe utrality
Ġlar gely
Ġest ate
ĠMem orial
ĠUr ge
Ġcurrent ly
Ġjoin ed
Ġter ms
ĠLGBT Q
ĠLew is
ĠMatt ers
Ġsurpris e
pay ers
iti ative
ĠPra ises
ĠLear n
ĠFour th
ophob ia
Ġwond er
amuc ci
1 4
A cc
B o
E S
L eak
O hio
R eal
T ime
n o
w ar
re ced
en e
ĠS imp
ar cer
Ġw ins
Ġp roud
Ġf ocused
ĠI I
ĠD og
ĠW ords
ĠH ands
ĠH aving
le ston
and on
and owski
ĠF ears
ĠF alse
ĠM eg
Ġm ilit
âĢ ĺ
ĠL oss
ad el
ĠE ra
ro d
ho d
ab b
Ġle aving
ans ion
Ġdo g
ok en
Ġcl oser
itt en
Ġlaw yers
ĠWar n
man uel
Ġact ivist
leg ally
ib uster
ĠTr olls
ĠAg o
ĠSo on
Ġinvestig ating
Ġcol lect
ric ts
Ġann iversary
Ġinclud ed
ĠTrans p
Ġret urn
ĠMass acre
Ġcho ose
hel sea
ĠPress ure
ĠIsrael i
ĠHapp en
Pro gressive
Ġhop ing
Ġhop es
ĠBad er
ĠDet ails
ĠTur key
Ġsimp le
ĠJud iciary
Ġtarget ed
Ġhon or
ĠDecl ares
ĠSil ence
ĠHol ocaust
Ġvo ice
Ġmem o
Ġtrad ition
ĠHal ey
Ġnet work
reced ented
? '
C ivil
D av
W ing
W ork
d om
l ose
m ates
r ary
w orth
in ent
er en
al d
al m
Ġa v
ĠA im
Ġp und
Ġp ushed
Ġp andemic
Ġf ake
Ġf olks
ĠP ardon
ĠD ismiss
ĠR os
ĠH ours
ĠB altimore
ĠM ist
Ġd omin
Ġd ream
Ġd raw
ve ill
ĠG reg
ĠG rowing
ly wood
ĠE quality
Ġre ach
Ġst age
ĠSt ands
ri be
op h
are ly
ĠCh ance
ant ed
Ġnot ed
ĠPro gress
ran k
ĠBl ow
oll ar
ĠWill iam
ĠCan cer
Con t
Ġimp eachment
Ġleg acy
ĠReal ity
ĠGu ant
Ġ6 0
Ġfund s
Ġser iously
ĠDem ands
ĠTest ify
ĠEvery one
Ġbo ard
ĠHold er
ĠTom Dispatch
Ġbro ken
Ġmeas ures
ĠMonth s
ĠPhot o
Ġparticul arly
Ġindepend ent
Rem ember
ĠRis k
Ġdescrib ed
ĠNun es
Pen nsylvania
veill ance
C arly
D ep
E C
I ran
N early
P ut
R udy
S outh
V irginia
a ires
c ont
p ing
v iously
Ġt yp
he red
re ts
at ers
ou ble
ĠC ause
ic ut
Ġc ap
Ġf e
Ġf irm
Ġb ase
Ġb att
ĠW ife
ĠB ol
ĠF emale
as hing
as hed
Ġh usband
ot ional
Ġm er
Ġm ention
ĠG olf
Ġn amed
ĠTo ok
ĠN ominees
im al
Ġl anguage
Ġg ather
ort un
Ġst uff
ri a
ra st
Ġcon nect
if ts
rat ive
ĠTh ough
Ġ2 6
Ġr an
Ġsh ift
ans hip
Ġsp ot
ĠPro gressives
Ġgo al
Ġcont ract
ĠWar s
ise ase
ĠOut side
Ġpl aces
leg ate
Ġcom bat
ĠTr ad
ĠMon t
ĠCont roversial
Ġwar s
Ġam ount
Ġend ed
eep ing
Ġdis app
Ġdis aster
ĠApp eal
ĠComp anies
Ġshow ing
hood s
Ġcor rect
Ġcongress woman
Ġob s
ĠMass achusetts
Ġhear ings
ĠAny thing
Ġtrans gender
iff s
Ġsuggest s
Ġconsider ing
Ġcent er
ĠEff ect
Ġdeb ates
ĠBreak s
Im migration
ĠLew andowski
Ġjud ges
roll ed
ĠCitizens hip
Ġreve aled
Ġpred ict
ĠFranc is
Ġlear ned
Off icials
Ġfig ure
ĠBuild ing
ĠSpeak s
Ġrad ical
ĠJoin s
Ġstat us
Ġpun ish
ĠPalestin ian
istle bl
post ed
Critic s
b ur
b ased
i h
t ers
u els
re nt
ing rich
Ġa c
Ġa cknow
ĠC irc
ĠC leveland
Ġw itness
Ġs at
Ġs uit
Ġf ine
ĠP eter
ĠP lea
ĠD ark
Ġb ody
ĠH alf
Ġh um
Ġd ie
Ġd iss
Ġm isconduct
Ġin equality
ĠG ut
am ental
ĠL ar
Ġl ands
ĠIn vest
ĠIn formation
Ġg ives
Ġg ender
ur ge
un ning
ri er
ain t
ĠK ob
ch ieve
amp ion
ĠWith draw
ide os
ĠWh ich
ĠPro b
Th ousands
ĠOff er
ĠWe igh
Ġapp l
leg es
Ġag reed
Ġme ant
ik ki
ĠTr oll
Ġab s
Ġpublic ly
ĠApp ears
ĠTe a
Ġattack ed
ĠGu ilty
umb ent
Ġcor porations
ĠRet urn
Is rael
Ġph ys
ĠTest imony
Not hing
Ġarg ue
ĠDeb ates
Ġhold ing
ph ia
Ġmean ing
Ġfil ed
Ġdiv ided
Ġter rible
Ġhon est
Russ ian
ĠPhot os
ĠSer ious
Ġendors ement
Ġbegin ning
ĠRi ot
udden ly
pan ic
stitu ents
umpt ive
adel phia
C he
F ew
G ay
K entucky
T A
h aul
l ished
m ark
p artisan
Ġt orture
an amo
at al
at ures
ĠT ennessee
ĠA ust
ĠS arah
ĠC B
ĠC re
Ġc ounter
ĠD raw
ĠH ig
ĠF eel
ĠM ul
Ġh ousing
Ġm oving
ay ing
res h
Ġn ations
ĠN azi
im id
Ġg iant
Ġst anding
ĠJ os
ul f
ack s
Ġan ger
ch or
iv ity
Ġ2 3
ĠPresident s
ap an
Ġsp lit
Ġk ept
ber t
og ue
ĠBill s
ile ge
ĠFl ip
ach ine
Ġdec isions
Ġqu ite
Ġqu alif
riv ed
ĠPl atform
ĠAcc ept
ĠChrist ians
Ġro ad
Ġprop osals
ĠFin ance
Ġseem ed
Ġconf ront
Ġconf irmed
ĠFund raising
Ġchar acter
ĠMiss issippi
Ġput ting
Ġsl ow
Ġarg ued
Ġterror ists
ĠStep hen
ĠCent ral
ific ation
cl usive
fra id
Ġbas ic
Geor gia
ĠChang es
Ġprosecut ors
Ġposit ive
ĠHop eful
Ġwealth y
ĠJack son
ĠIl legal
tt a
errymand ering
D OJ
F ake
H appy
O R
P l
W or
e qu
p ired
Ġt urning
Ġw aiting
Ġc ust
Ġc rimes
Ġp ul
Ġp rem
Ġp rimaries
Ġf ully
ĠP ot
ĠP retty
ĠD iplom
Ġb orn
ĠH ypocrisy
ĠB ipartisan
ĠB irther
ĠB etsy
ĠB ureau
ĠF oot
ĠF eds
ĠM ilit
ĠM ember
ot ally
Ġin frastructure
ol ved
ĠG ingrich
Ġn ames
Ġn ormal
ĠN ames
ĠN BC
ĠL ate
ĠL os
ĠL incoln
ĠE st
ir ty
oc ent
ist ent
Ġst opped
ĠJ ong
Ġare a
ab y
ab les
ĠTh ought
eb r
um ers
uc ceed
ĠRe leased
ris ons
Ġ201 0
ĠBl asio
min ist
Ġdec ade
ĠAtt empt
ĠComm on
Ġmay be
ĠPl ot
ĠHer oin
ix ed
Ġins ide
ĠEn vironmental
gy pt
Ġdisc rimin
Ġelect oral
Ġpres umptive
Ġtru ly
ĠAdv ocates
ĠCor respond
ĠMin ority
Congress ional
Ġvict im
ĠGr ass
Ġmin imum
aren cy
ĠInc re
Ġappro val
ĠChallen ger
Ġcent ury
Ġpr ice
ĠMeet s
rut al
ĠStri kes
Ġrespond ed
ĠDiv ided
ĠCho ice
ĠHol lywood
ĠBu y
Act ivists
Ġrepeat edly
obb ying
prof it
Ġindividual s
ĠScar amucci
Und er
uic ide
H undreds
L ook
M e
M elania
N et
N ational
P lan
V ery
Y et
a very
g ic
m ath
n am
s he
x ic
Ġt en
on ight
er ty
ĠC old
ic ed
Ġs ick
Ġs olid
Ġs ometimes
Ġc arry
Ġf ellow
ĠP ath
ĠP opular
id el
Ġb id
ĠO s
ĠR ice
le e
ĠF rench
Ġin st
et ition
ĠE ach
Ġe ight
Ġst reng
ĠCl oser
ust ing
ag ger
ass ion
ĠAt lant
ey ond
ĠRe asons
ind ed
ĠAd am
ĠEx xon
ret t
Ġwor ks
eg ative
ĠEnd s
ĠExp erts
ĠAm az
Ġpre c
ĠLead s
Ch arl
Ġunder mine
ĠWould n
Ġopp osed
Ġra re
ĠGu ide
Ġcontin ued
ĠTri b
Ġdep ortation
ĠRac es
ĠResp ons
urre ction
Ġtell ing
ĠProp osed
Ġrequ ires
Ġarg ument
ĠServ ices
Sh ould
rack ing
ĠAlleg ed
Ġfeel ing
Ġunc on
Ġdecl ared
dd s
Ġendors ed
ĠFail ure
Ġaccount able
Ġvo ices
Ġreject ed
ĠSum mit
ordin ary
ĠRespond s
Ġpan el
Tr ans
sy ch
ĠLatin os
Dav id
ĠKob ach
C o
D an
I L
K K
S upport
b it
i pping
m on
m are
n uch
r ous
Ġt rend
re ets
Ġa fraid
it ism
ĠA c
ĠS ide
es e
Ġw ebsite
Ġc itizen
Ġf eat
Ġf uel
Ġf emale
ĠP ushes
Ġb ott
Ġd ig
Ġin form
ol ic
el son
ĠN egoti
ĠN umbers
ĠL ater
ĠL ondon
ad ed
em ies
ĠE as
Ġbe at
ĠJ er
ĠSt amp
ĠSt anding
ĠSt udy
all ing
ĠRep lacement
if th
ast y
ell ed
ail ing
ĠPro cess
ĠPro blems
ĠUn p
ĠSp read
Ġall owing
Ġover t
oin ting
ĠWe apon
Ġexp ert
ĠCan cel
ĠFl ake
Ġapp eals
ĠQu iet
az a
Ġstart ing
ĠBo o
ĠHar ry
Ġreg ion
Ġ19 7
ĠWin ning
ĠConf irmation
ĠMin nesota
ĠHapp y
Re ince
atur al
Ġrece ive
Ġeffect ive
ĠRa ises
Ġexc ept
rut iny
ĠRev olution
ĠKn ew
Ġprep ared
Ġreve al
ĠConsider ing
ĠHop es
Ġmid term
ĠProf ess
Ġrestrict ions
ĠStorm y
Ġdro pped
ĠLyn ch
ester day
avan augh
idicul ous
ĠUpd ates
nuch in
1 6
5 00
B et
C ould
F ree
M ex
O klahoma
P D
P age
P AC
R S
R yan
e ec
g iving
m ical
r in
r own
Ġ riot
ed d
ĠS usan
ĠC ur
ic ation
Ġs ect
Ġs ound
Ġs ought
Ġs upremacists
Ġp iece
ĠP lease
ĠP rime
ĠP ray
ĠD uck
Ġb reat
ĠR ex
ĠH or
ĠH um
le w
ĠB ay
ĠB all
ĠB oston
ĠF ast
ĠM il
ĠM elania
ĠM SNBC
Ġm ount
et z
ĠN SA
The ir
im ent
ĠThe ory
Ġg onna
Ġst ands
ĠJ apan
ĠSt ance
if ul
rat ors
und ed
Ġad op
ict ions
Ġ201 1
Ġcont roversy
act ed
Ġpolitic ally
ĠFl ood
ik i
Ġcomm itted
fer ent
Ġmost ly
Ġwar ming
Ch icago
Ġse ason
ĠWor ried
ĠChar leston
Ġra ising
Cl imate
ĠIns ists
ĠIran ian
ump s
ĠAdv ice
Ġprotect ing
rant ed
Ġkeep ing
aun t
Ġhard er
ys is
Ġext ra
Ġalleg ed
Ġaff ord
ĠHapp ens
ĠKore an
Ġplay ed
rac ed
Ġcour ts
ĠDel iver
rif ying
Ġauthor ity
ĠEl se
ĠBre xit
ĠAppro val
ĠBillion aire
Ġap olog
Ġlear n
Ġveter an
ĠPhil adelphia
Sem itic
ĠBern ard
ĠBrot her
Ġpen alty
ucker berg
Ġwid ely
rel ated
ennial s
poen a
Ġvers ion
Ġemerg ency
ĠTrou ble
Ġsched ul
ĠAC LU
ĠGuant anamo
ebr aska
ĠCorrespond ents
! '
A rizona
D e
D uring
I mp
L ead
M r
S er
S ix
T im
W ell
b on
c ow
c ript
e o
f it
z a
ĠT erm
it or
it im
it ely
ĠS end
ĠS upremacists
ĠC ust
Ġw ind
Ġs om
Ġs ho
Ġc ore
ĠP overty
ĠD aily
ĠR udy
ĠW ord
ĠW iret
ĠH ousing
ĠB ul
ĠF el
ĠF ires
Ġh ur
Ġd estroy
ĠTrump care
et e
ĠTo gether
am my
Ġon line
Ġon going
Ġhe ll
ĠSt ein
ĠFor m
ĠK at
Ġpro ve
ĠBe at
Ġal one
ĠAl ways
Ġcl osed
og ul
Ġexp ress
Ġcampaign s
ĠRes istance
ĠCan ada
uff ing
leg round
ĠCar ry
ĠAr med
Ġbl ow
att led
ĠSupport er
Ġim migrant
emb ly
Ġdef ended
An thony
ĠMan ager
ĠApp ear
emp loyment
Ġplan et
ĠComp ares
ĠTe acher
Ġopp onents
Ġinvestig ations
Ġfund amental
ĠUnder stand
ĠInt el
Ġclear ly
ĠTest s
Ġorder ed
Ġsw ing
lic ations
Ġbro ke
ĠDead ly
ĠLook ing
Ġval ue
Ġcommun ications
ĠTarget s
ĠWatch dog
Ġceleb rate
los ure
ĠProsecut or
con stitutional
Ġsy mbol
ĠMom ents
Sec ret
ĠCy ber
Ġeas ier
ĠBenef its
Miss ouri
itud e
Ġpur p
arrass ing
ĠGard ner
I owa
M ass
M ajor
P er
T oo
Y our
b ie
c ing
h an
h us
v ard
Ġ ðŁ
in itely
re hens
at ically
ĠT ay
al i
it le
ĠA ud
ĠA ides
ĠS now
ar ms
ic on
Ġc aucuses
Ġp ack
ĠD ro
ĠD ick
ĠD HS
Ġb al
Ġb ur
ĠR ape
ĠW ebsite
ĠH ook
ĠB ody
ĠF irm
Ġh ouse
Ġd estruct
Ġm ental
Ġin itial
ĠG ill
Ġn ice
ĠN umber
im b
ĠL ocal
Ġl oc
ĠE arth
ro ductive
Ġg olf
Ġfor get
Ġst orm
ĠSt one
ĠSt ock
all as
ul ate
un g
ĠCl ub
ĠK avanaugh
if ting
Ġv ision
Ġv ulnerable
ĠCh aos
ĠTh ree
Ġr ising
ail able
um m
uc ks
ĠBe gins
ĠRe vers
ĠRe aches
Ġwe ak
Ġal ternative
ĠAl so
ĠUn ions
ĠSp ec
Ġcan cel
use um
Ġour selves
Ġover whel
ĠWe apons
ĠRes idents
Ġtw ice
Ġrec ords
Ġimp rove
Ġimp lement
ĠAr kansas
ark ed
Ġar med
Ġam bassador
Ġend ing
ĠSupport s
esp read
ĠDec ide
Ġbig ger
ĠAttack ing
ĠApp eals
ĠHel d
ĠChar ge
Ġplan ned
Ġadv antage
stitut ions
Ġsign s
Ġsur vey
Ġtra ining
ĠSur v
ĠPh one
Ġdep art
ĠRem arks
ĠCor ruption
ĠIts elf
ĠRo e
Ġsub sid
Ġhigh ly
let e
ĠAny way
Ġstand ards
ĠOpp onent
Ġtest imony
Pro gressives
ĠTerror ist
ĠDel ay
ph y
ĠEff orts
Ġign or
Ġign ore
ĠJud ges
ĠHack ing
Ġred uce
ĠCover age
Ġdam age
ĠPark land
Ġstri ke
ĠTreat ment
ĠBrot hers
ĠCour se
ĠEp idemic
Ġmult iple
empor ary
Protest ers
ĠBow l
Ġens ure
Ġriv al
ĠRog er
ĠPartners hip
ĠGrass ley
B ush
B efore
N A
c ott
c hers
e er
f ires
f riend
g ment
v ious
z e
Ġ ut
in formation
ĠS qu
ĠS afe
ar i
ĠP opul
ĠP rimaries
ĠD er
ĠD irect
ĠW ealth
ĠW eeks
and a
ĠF arm
ĠF riend
Ġh ospital
Ġh urt
ot ry
Ġd ri
Ġm oved
Ġin auguration
ol er
Ġre ached
Ġfor g
Ġis land
ist ered
ĠSt age
ĠV ac
ĠV iet
ĠV accine
rat or
ab ot
ia gn
Ġle aves
ĠNew t
ork er
Ġun s
Ġwh om
ĠHis panic
Ġcl in
ism ant
ov al
Ġus ers
app er
app ropriate
ĠJo ke
Ġpl atform
Ġact ual
Ġcomp romise
Ġsec ure
Ġother wise
ĠDep ort
ĠAr ms
Ġbl ood
Ġback ing
Ġsupport s
Ġsupport ed
ĠAb s
Ġop tion
Ġab ortions
ĠThan k
az ine
ĠCol umb
ĠBec ame
ĠConf irms
ĠSur ge
Ġgu ilty
Ġthreat ens
Ġret urns
ĠDe legates
ĠInc lud
ĠWeek end
ĠOpp osition
Ġcour age
ĠDet ention
ĠKey stone
ĠJud icial
Ġjournal ists
Ġtrou ble
ĠSeem s
Sem itism
Ġpopul ation
Ġmist ake
Ġcomplet e
ĠMos cow
ĠLiber ty
Govern ment
Ġlaun ched
Ġorigin ally
ĠSurviv ors
Ġtele vision
Ġcomplic ated
Ġspokes man
Rob ert
Plan ned
eec hes
B oth
B acked
I nt
L e
M artin
O regon
P acific
R T
R NC
d ie
k ish
m ate
n ight
o pping
p s
w r
Ġ id
Ġ et
Ġ ri
Ġt icket
on est
re ach
st ream
Ġthe ory
it b
it imate
ĠA CA
ĠS it
ĠS uff
ĠC ame
ĠC ases
ar ation
Ġs qu
Ġs ens
Ġc ross
Ġp age
Ġp ipeline
Ġf el
Ġf amous
ĠP osit
ĠD ocument
ĠD estroy
ĠW y
ĠW ond
and als
ĠF CC
ĠM ain
ĠM obil
as ks
Ġh om
Ġd anger
Ġm om
ol es
ol ve
ol itic
ĠG ift
im ately
us ual
em in
ĠE gypt
ro ots
ur ers
ĠU K
ĠJ ason
ul s
un k
ra wn
ore tta
ĠCon d
ess ed
Ġv ast
Ġv owed
ab el
ud d
Ġ2 8
Ġ2 9
Ġpro sp
und er
ap ers
av ily
ĠPro v
ĠLe aving
Ġun n
erv ing
og le
Ġcont ent
act ions
Ġres ources
Ġthan k
ang ing
ĠRes c
Ġany more
Con f
ĠDef und
Ġbl ue
eg rity
ĠLead ing
ĠHow ever
Ġim m
Ġdis ag
Ġab ove
ath an
ĠEn forcement
ĠKnow s
stitut e
Ġopp onent
Ġhapp ening
Ġinvestig ate
ĠFac ing
Ġlegisl ators
ĠZ uckerberg
ĠGr ay
Ġel imin
ĠTru e
ĠOpp ose
ĠTerror ists
lic it
ĠBel ie
ĠDr illing
ĠKelly anne
ĠMur phy
Ġtoward s
Ġsuccess ful
ĠGreen e
Ġlevel s
Ġdevelop ment
Ġrad io
ĠInf o
ĠExc ept
ĠConcern s
Ġadvoc ate
ĠWil son
Ġren ew
ĠConnect icut
Ġimmedi ately
Ġuncon stitutional
ĠBernard ino
Ġschedul ed
- -
H ey
M aking
O p
S m
W isconsin
a fer
l ong
y a
Ġ ug
Ġt our
or ate
al ter
Ġa ides
ou ston
it able
ĠA ut
ĠS ales
Ġs ad
Ġs itting
Ġf ears
ĠP ers
ĠP ushing
ĠD esp
ĠW ake
ĠB ans
ĠB und
ĠM us
ĠM andate
Ġd rop
ig ger
el ves
ĠN ar
ĠN amed
am in
ut er
Ġl ines
ĠE asy
se x
Ġe yes
ct ic
ack le
Ġan swers
ĠCl in
ĠY es
ap ing
ere z
omp eo
ĠOver t
ĠOff icers
Ġrec omm
Ġag gressive
Ġimp er
Ġimp ro
ert ific
Ġbl ocked
Ġshe riff
ult z
Ġper iod
ĠEnd ing
Ġrem ark
Ġrem oved
Ġhealth care
Ġadv isers
Ġeff ects
ĠOp ens
Ġint ended
ĠCom bat
Ġrel igion
atter n
Ġsee ing
ĠProp oses
Ġappro ved
ĠStep s
Ġrat es
Ġchang ing
ĠHead line
Ġcent ral
Ġemb race
iven ess
Ġwr itten
Ġgen eration
Ġbring ing
Ġdiscuss ion
ĠClass ified
Ġwatch ing
Ġrespons ible
Ġcred it
ĠGold man
Ġspec if
Ġprovid ed
ĠJournal ists
ĠPort er
ĠHear ings
Ġocc up
Ġdeliver ed
Ġcy cle
Ġdev ast
ĠCondem n
ĠSurpris e
Ġphot o
ĠApolog izes
ĠRen ew
roduc ed
ĠCred it
ĠGerman y
Ġopt ions
Ġsan ctions
Jim my
ĠEll ison
ĠAngel es
antor um
ĠAnton in
Ġslam med
Ġneigh bor
ĠTay lor
itb art
6 0
C ourt
I ll
K ey
N evada
P olls
a uthor
e ac
g ers
l ook
n el
o om
t ained
Â ¯
Ġt ired
on c
at hing
at hered
ĠT PP
ĠS am
ĠC ard
ĠC orker
Ġw ave
Ġs ite
Ġs ell
Ġs ever
Ġc as
Ġc ash
ĠP erez
Ġb us
ĠO range
Ġto ol
ĠR ather
ĠR hetoric
ĠW el
ĠW ade
ĠW ait
ĠH ide
ĠH ann
ĠB ase
ĠB att
ĠF uel
ĠM ap
ĠM ocks
Ġm ogul
ĠG ary
ĠN ear
im ated
ĠL arry
Ġl ik
ep h
ĠE sc
ro it
ur ies
ur red
out ing
ĠJ okes
ĠFor get
ĠCon stitutional
ĠCon flict
Ġy es
Ġv irt
th s
ĠTh rows
Ġr ound
Ġpro gressives
Ġch ances
ĠBe gin
ĠAl most
ĠSp ent
ĠLe Page
Ġout come
rem lin
Ġup coming
In s
In stead
ĠAtt ention
Ġag ents
Ġqu iet
ĠAct ivist
ĠCampaign s
ĠBack ing
Ġback ground
Ġsupport er
ĠAb b
Ġend s
Ch ar
ath olic
Ġadv ice
Ġ3 1
Ġ4 5
Ġsur viv
Ġcontin uing
ĠConf irm
ĠTra ff
Ġlegisl ature
Ġreal ize
Ġfl oor
Ġinclud es
ann el
Sc hool
lob e
Ġstand ard
ĠLegal ization
ĠAlleg edly
rif ic
ĠLo an
ĠEd ition
Ġign ored
ny der
Ġbu ilt
Ġunf air
aut iful
Ġlim it
Ġprep aring
ograp her
Ġfig ures
Ġpract ice
ophob ic
ĠConcern ed
Ġposs ibility
ĠEmploy ees
ĠThanks giving
Ġesc al
Att orney
ĠRestrict ions
amer as
Bo ehner
ĠMont ana
istlebl ower
. âĢĻ
H ave
H omel
L ife
O N
P ublic
P entagon
b ed
b ook
b led
b ara
c alled
f ire
h t
i pped
j oy
l ife
s en
t r
t ies
t arian
Ġt reated
at ast
ĠS uit
ĠS outhern
ĠS nyder
ĠC DC
ic enses
Ġc aught
Ġp ray
Ġf ought
ĠP ow
Ġo w
ĠD ig
ĠO versight
ĠR ate
le ts
ĠB oss
ĠB rag
ĠF iles
ĠM nuchin
Ġh our
Ġh oliday
ot es
Ġd raft
Ġd riving
Ġm inds
ol y
am era
ĠL oves
ĠL indsey
ĠE yes
ĠIn equality
Ġg ain
ort ance
ort ez
ist rict
Ġst ruck
ĠJ ury
ul ated
if ies
ab ortion
ast rous
ell s
ie g
Ġsh ared
Ġj ump
over ed
eb all
Ġdo or
Ġwh atever
Ġcl os
isc al
min ed
ren n
Ġexp ressed
ĠDo or
ĠRes erve
ach s
Ġcomp ared
Ġcomp lex
ĠTr ack
Ġback ed
led ges
ĠAll ow
PO RT
Ġwar ns
Ġinter net
ĠQu it
ĠRec ount
Ġdef ending
ĠWor ry
Ġman ufact
aff etz
Ġopp ose
Ġass oci
ĠDis app
Ġprotect ion
Ġprom inent
ĠFund ra
Ġent hus
reg n
ĠDeath s
ĠInvestig ating
Ġhigh light
Ġdes erve
ĠSch iff
ĠSch ultz
Ġrequ ired
ĠHold ing
Ġmass acre
ĠDrug s
Ġtalk ed
Ġdet ention
Ġlist en
ĠBro ad
Ġunc ertain
Ġdrug s
ĠHard er
ĠReve al
ĠJew s
Ġdead ly
Ġcitizens hip
Im migrant
Ġexper i
ĠSusp ect
Ġincreas ing
ĠProsecut ors
Ġextrem e
Ġstrugg ling
En vironmental
ĠHomel ess
Ġjournal ist
Ġpract ices
ĠNY C
ĠView s
Ġball ots
ĠFe ud
Ġperform ance
Ġaccus ations
Ġess ential
ĠMeas ure
Ġemer ged
Leak s
iki Leaks
atast rop
D r
D eb
H ar
L ou
N RA
N obody
S orry
W est
c ut
c her
c ons
c ept
g u
i qu
l ist
m ission
r ica
u x
w eet
Ġ orders
Ġt alks
he w
re atest
re ason
ĠT outs
Ġa chieve
ĠS een
ĠC ot
ĠC ash
ĠC rimes
ĠC ensus
Ġs earch
Ġf ier
Ġf resh
ĠP osition
ĠP ompeo
ĠO val
ĠR allies
ĠW elcome
ĠB ump
ĠB izarre
and ria
ĠF aith
ĠM er
ĠM ot
ĠM oral
ĠM ocked
Ġd ict
Ġd rive
ig ible
ig rant
ĠG irl
ĠG aza
ec urity
ad ing
Ġl oy
ĠE ar
ĠIn n
Ġg otten
Ġg athered
Ġst ance
ĠSt raight
ĠV er
hat t
Ġcon flicts
Ġare as
iz r
Ġpro ced
Ġpro duct
ĠSen se
ĠAl i
ict ment
Ġnew ly
ĠSp ot
ĠAd op
Th anks
erv ed
ĠCongress woman
ĠBl ood
Ġpolitic ian
ov ie
Ġinc ident
Ġbec omes
ĠDep uty
ĠQ at
Ġar rived
ĠCont ribut
Ġtr ack
ĠDon ations
Ġrem ove
On ce
ĠQu iz
ĠRec ogn
ĠDec ades
ĠCol bert
ĠOp in
ĠCom ment
ĠInd ian
ĠCo oper
Ġfin ance
Ġtra il
Ġban ks
oo f
Ġdep ort
ĠRem ember
Ġdeal ing
ĠMin utes
Ġpass ing
Ġgu ide
Ġent er
Ġmar ks
ĠTrans ition
Ġte acher
ĠVict im
Ġob ject
ĠPay ing
ĠCapit al
Ġsm art
Ġarg ues
ĠReg istration
ĠHigh lights
Ġfoll ows
Ġve to
ein stein
cl ass
ĠPAC s
ĠCharl ie
ĠStaff er
ĠPrison ers
osp it
ĠStart ed
ĠProgram s
ĠBomb ing
Ġlim ited
stant ial
ĠLegisl ation
Ġsk ept
ĠBirth day
ĠCamp us
ĠDefeat s
hem e
Ġcy ber
Ġnegoti ations
Ġsuff ering
ĠNA TO
Dem s
Ġrecogn ize
Ad v
ĠOrgan ization
Ġpra ised
usal em
Ġcondem n
Ġcreat ing
Ġorganiz ations
ĠDif ferent
ĠPlead s
Ġav ailable
Ġpund its
she ll
ĠViet nam
1 7
C IA
C omey
D eath
F our
F ight
F eds
G A
H igh
J ournal
M att
P arty
S ty
b an
l ies
m ingly
Ķ ¥
in ning
Ġt oug
er em
at red
ĠT our
ĠT urned
it age
ĠS ends
ĠS ides
ĠS achs
Ġw atched
Ġc r
Ġc op
Ġc apt
Ġp iv
Ġp owers
ĠP age
ĠP ract
ĠD aughter
ĠD raft
ĠD allas
ĠW a
ĠW ind
om ed
ĠF ield
ĠM ock
ĠM yst
Ġd eg
Ġm ad
ve ys
ow dy
ers hip
ly mp
ĠL ack
ĠL ower
ad ow
Ġl ikes
out ed
ter ed
ter ms
ith ole
Ġst upid
Ġbe gins
ho st
ĠOn line
rat ul
ant asy
Ġpro mp
qu ir
Ġex erc
um es
ĠBe g
ĠPro ves
ĠUn ve
ĠUn constitutional
Ġun w
Ġun ions
Ġoff ensive
Ġres ort
ĠWe ak
Ġsc ient
so ff
Ġcom b
Ġcomm itment
ĠReport ers
ĠAr ctic
eg reg
Ġper man
ins ured
Ġam endment
ĠAcc ording
Ch ief
ĠWor ks
An y
ĠNational ist
Ġins ult
ĠAg ents
Ġtax payers
AC LU
Ġrel ated
Ġrel ief
ĠCo ast
Ġtra gic
ĠWin ner
Ġcol umn
Ġref using
van ey
Ġfl ood
Ġlet ting
Ġthreat ening
rib ute
ĠResp ect
ĠRo om
ird s
Ex t
ĠRet irement
Ġmin orities
arm a
arm ing
ĠAny one
acc ept
Ġden y
Ġ7 0
Ġpoint ed
ĠWest ern
Ġwr iting
ĠNet work
ĠStand ard
Ġstaff ers
Ġunc lear
Ġstrong ly
ĠIde as
ĠOb s
Ġinvol ving
ĠSil ent
Every one
Ġjud icial
fort un
fort able
Ġpat ients
Ġfavor ite
Ġprovid ing
Ġrev olution
ĠViol ent
War ren
ĠLear ned
ĠVal ues
Ġunp recedented
Mc C
Ġpriv ilege
Ġcoal ition
ĠPun ish
Ġcomplet ely
Ġattemp ts
ĠDoct or
Ġdiplom atic
Ġcoup le
Ġep idemic
Ġdram atic
Ġprincip les
Ġgrow th
ĠInflu ence
ĠAssoci ation
ĠCarl son
ĠRad ical
Exp erts
arcer ation
rod uce
Che ck
uffing ton
eac eful
ĠHann ity
A T
B A
C ortez
D ec
E nd
K ansas
M ake
M ont
P ay
Q u
R et
R ich
T ake
c an
c asio
f e
f ree
f air
r it
t ig
Ġt ask
it ary
ĠS im
ĠS ter
ĠS ets
ĠS ees
ĠS aved
ĠS upremacy
ĠS antorum
is f
is dom
ĠC ory
ic ism
Ġw ing
Ġw elcome
Ġs al
Ġs ource
Ġs acrif
Ġc ult
Ġc rack
Ġp ort
Ġp icture
Ġp attern
Ġf an
Ġf ill
ĠP ack
ĠP regn
ĠD ean
ĠD umb
ĠD uke
ĠR ant
ĠW ass
ĠW eed
ĠB ox
ĠM ount
ĠM ental
Ġd er
Ġin stitutions
ĠG as
ĠG ubernatorial
ĠG errymandering
Ġn one
ĠN ov
ĠN avy
am ber
ĠThe ms
ut her
Ġl iterally
ĠIn j
ĠIn form
Ġg l
ur ious
ĠU g
Ġst raight
ul ar
ho re
ĠFor d
igh ter
ĠV an
ĠV ers
ĠV acc
ĠCon flicts
ĠK KK
ab led
Ġas ide
ĠCh affetz
od es
Ġpresident s
Ġpro hib
Ġsh arp
ex p
ĠRe ach
ap es
ĠUn ity
ris es
Ġun ivers
Ġout s
rem end
enc er
og yn
ons ense
In c
ĠWe ird
red ible
ĠCan not
Ġact ing
ĠAtt end
Ġgovern ments
Ġso ft
Ġcount y
iol ent
Ġcom ed
Ġnews paper
ĠAll owed
Ġtr illion
ĠExp and
ĠSupport ing
ron es
als ely
ĠEn c
rimin als
ounc ed
Ġind eed
Ġ3 00
Ġsur ge
ĠAss embly
Ġwin ner
ĠSome one
ĠAdv is
Ġdeal s
Ġgu arant
duc ed
Ġsystem s
Ġdes ign
ĠDen ial
Ġtest s
ĠHold s
rac eful
ĠPat rol
ĠPat rick
Ġgr ad
Ġdel ay
ĠWater gate
Ġviol ate
ĠHead s
ĠOfficial ly
Ġcut ting
ecess arily
ĠCost s
Ġris ks
Ġdirect ion
Ġbu ying
ĠAppro ves
Ġconv icted
Ġresign ed
Ġlim its
Ġprosecut or
Ġsusp ect
Ġpat riot
Ar kansas
ĠLegisl ature
Ġstrugg le
ĠAw kward
Ġeng age
ĠNY PD
Mc Connell
Ġsy mp
ĠArg ument
Ġdeter mine
ĠExecut ion
Col orado
ĠMill er
ĠRepresent atives
Ġcontribut ions
ĠIndepend ence
ili ation
Ġbrot her
Ġtot al
Ġeth ics
Leg al
Ġbelief s
Put in
Ġgather ing
ih ad
ĠDraw s
ĠMul vaney
minist rator
ĠOs soff
ĠAmaz on
Ġbott om
Ġug ly
ĠCot ton
hatt an
tig ieg
ĠWass erman
ĠThems elves
C O
E ra
F ire
H E
H as
M ean
P ros
R ec
S everal
W ould
W oman
a ho
b reaking
e as
f ranch
i ot
k n
n ab
o il
in ced
Ġt im
on or
an im
ĠT al
it ation
ĠS ell
ĠS olution
is a
Ġs olutions
Ġs ucceed
Ġc al
Ġc ited
Ġc aucus
Ġp ret
Ġp ull
Ġp aper
Ġf iring
ĠI RS
ĠP ledge
ru p
ĠR at
ĠR ising
ĠW orth
ĠW aiting
ĠH unt
ĠF an
ĠF einstein
Ġh all
Ġm or
Ġm ate
et al
ĠG one
ĠG row
ĠTo dd
ĠN ice
ĠL ed
ĠL ock
Ġg irl
Ġe quality
Ġhe at
Ġst ake
ĠSt upid
op her
ĠCon versation
ĠK eith
ĠK remlin
ch in
Ġv accine
iv ism
ress ive
ab s
Ġr ough
Ġr allies
Ġpro b
Ġj oke
ass ed
ĠSh ares
ord an
ĠWh it
Ġwe igh
ĠPro ve
ĠUn c
ĠSp end
lan ation
Th ough
Ġexp and
ĠCan c
ĠFl oor
Ġact s
Ġinc oming
ĠState ment
ott e
form ed
ĠCru s
Ġreport ing
ĠCont est
Ġper pet
ĠAb ortions
ah l
err it
ĠExp ert
Ġop ening
ater ial
Ġse lect
Ġab road
Ġunder standing
New t
Ġhealth y
Ġins ist
Ġins isted
emp er
ĠChar les
Ġreg ard
Ġro ck
Ġtra ff
ĠAss ad
ĠTra in
ump h
Ġprotect ed
ract ion
ĠAf rica
ĠIraq i
Ġserv ing
Ġless ons
Ġdist ricts
ĠFran ce
ĠKeep ing
Ġincre ased
Ġaff ected
Ġarg uments
ĠCritic izes
ĠRest ore
ĠBlock ing
ĠMark et
ĠBro ok
Ġauthor ities
urg ent
ĠCEO s
Ġtarget ing
ĠAir port
ĠLess ons
iam i
Ġresign ation
ĠCub an
roll ment
Ġap art
hold s
Ġbeh alf
ĠLaun ch
Ġadm itted
ĠLobby ist
ĠMod el
ĠBoy cott
Politic ians
Ġparticul ar
Ġsignificant ly
ĠCondem ns
ĠFavor ite
ĠSand y
Ġdoct or
Ġbrot hers
RE PORT
ĠWein er
ĠWein stein
Ġprofess ional
ĠBrit ish
ĠBol ton
ĠJer usalem
renn an
2 5
A lex
C omm
C helsea
F TA
G reat
M ed
M aryland
R ex
S ch
S ee
b oy
d ue
l usion
u ous
u kes
Ġ ally
Ġ lying
in ts
in come
re qu
re ck
ĠT ar
ĠT otally
en franch
ĠA R
ĠS orry
is anship
ĠC ross
ar ch
Ġw eren
Ġs ounds
Ġc ard
Ġp uts
Ġf ossil
ĠD ri
ĠD ied
ĠD ump
id y
Ġb athroom
ĠO lymp
Ġto m
ĠR id
ĠR ow
ĠW ish
ĠH o
ĠH atch
ĠB ru
ĠB uff
ĠB lank
ĠB eyond
ĠM a
ĠM ind
ĠM oving
Ġh ack
âĢ ¦
Ġth row
ĠG ates
ĠG ian
ĠG ather
ĠG ender
ĠG iven
ĠN ort
am ation
am eful
ĠL ight
ut ies
Ġl oved
Ġre ven
ld on
ist ering
Ġst reets
ĠSt ories
ĠSt rateg
ĠFor g
mer cial
ĠRep eat
Ġan gry
Ġan chor
ĠCon yers
ĠCon sequences
ĠK amala
Ġv acc
os ite
ĠCh ap
aw are
ke ley
ell o
ous es
Ġch ampion
Ġex am
ĠAs king
ĠBe h
ian ne
Ġrep lac
og an
Ġcont rast
Ġus er
Ġpl enty
Ġag ent
Ġen emies
ish onest
Ġdon ations
Ġbl amed
Ġback lash
amil ton
riv es
ĠExp ected
Ġop ioid
Ġpre gn
Ġmy self
ĠEn ter
And rew
As ian
ĠCol or
ĠOp t
Ġtax payer
ĠHar vard
Ġint roduced
ĠTe ach
ĠImp act
Ġfamil iar
Cl ass
Ġcor ruption
ĠNomin ate
Ġ9 0
Ġconf irm
20 16
Ġlaws uits
ĠMiss ing
Ġdem ands
Ġset ting
auc i
ĠReform s
Ġchallen ging
ĠAttorney s
Ġtrans ition
pir ing
Ġplay ers
Ġinterest ing
Ġrat ing
ĠDet ain
ĠChallen ges
com es
ĠLo oms
ĠGar ner
Ġpersonal ly
Ġdiv ide
Ġwatch dog
ĠAng ry
ĠCommission er
Am id
ias m
Ġappear ance
ĠCeleb rate
Ġil legally
Politic al
Ġcru cial
ĠStrugg le
ĠPalestin ians
leas ing
Ġtechn ology
itud es
ĠVis its
Ġpra ise
Min ute
Ġsepar ate
ĠDev ast
ĠCirc uit
Ġpul led
ĠEst ablishment
ĠIncre ase
ĠEas ier
oler ance
ĠBund y
Homel and
ospit als
Sty le
accept able
remend ous
! âĢĿ
B ack
B ob
D en
J ared
J erry
P ence
R uth
T ax
d ose
e ase
f all
i que
n est
o ks
r ory
s hore
t hen
Ġt able
Ġt urns
Ġt emporary
on gest
at ism
ĠT or
ĠT act
en es
al le
st ep
st orm
Ġa ims
ĠA G
ĠA ward
ĠS earch
ĠS uing
ĠS upremacist
ĠC a
ĠC orn
ĠC ounter
ĠC atholic
ar ison
ic he
Ġw a
Ġs ing
Ġs ession
Ġs leep
Ġs upremacist
Ġf it
Ġf allen
Ġf ool
ĠI r
ĠP ain
ĠP ays
Ġo dds
Ġb ul
ĠO l
ĠW id
ĠW olf
ĠH undreds
le ph
ĠB rennan
ĠF ine
ĠF ights
Ġh omel
Ġh omes
Ġd ad
Ġd isease
Ġm ission
ol ly
ĠG irls
ĠG owdy
Ġn atural
ĠN azis
ĠN ebraska
ĠL ands
ĠL ying
ĠL iterally
ad en
ad ian
Ġl augh
ro c
Ġre verse
ir it
Ġon to
Ġbe gun
ĠJ ordan
ĠSt ew
ĠSt even
ri al
if er
eal ing
Ġr out
ag anda
ĠSp orts
ration s
ick en
omp et
Ġoff ers
ĠSc al
ĠEx change
man n
Ġres c
ĠMar ine
Ġthan ks
Ġatt ended
Ġacc ounts
Ġru ral
ĠAtt emp
Ġinc umbent
Ġimp ossible
Ġcons umers
ĠMc Donald
ĠBan ning
vel ations
ĠGovern ors
St ep
ĠCont rad
ĠRef lect
ĠExp l
Ġpre ced
ĠMan chin
ĠAg rees
ĠInd ia
Ġreg arding
Ġra ises
Ġattack ing
ĠPer fect
ĠTra ining
ony m
ĠSur veillance
Ġdep uty
ĠRem ain
ĠTell ing
ĠPar ks
ham ed
Ġret ired
ĠDe velop
Ġless on
Ġthrough out
ĠAnn ounce
Ġhead ed
ĠOwn er
With out
Ġtest ify
rac ts
Ġfind ing
ĠDel ays
umer ous
Ġprov ision
ĠResign ation
vo ided
ĠBro ken
Ġfil ing
Ġregul ation
Ġmis leading
Ġdeep er
ĠRed uce
ĠBre aking
ĠBre itbart
ðŁ Ķ¥
ĠAnnounc ement
Ġrepresent atives
ĠShoot er
Ġjud gment
Ġfail ing
ĠMatt is
ĠSer iously
ĠFall s
ĠTurn out
ĠPra ise
ĠAuthor ity
Ġbelie ved
Ġstar ts
ĠVal ley
Ġhot el
Ġpri orities
LGBT Q
Ġwid espread
ĠCast ro
ĠDoub t
Ġeas ily
aly t
ĠFil ibuster
Ġca used
Ġdismiss ed
ĠEqu al
ĠCore y
Ġcond itions
Inter ior
ĠCr ash
ĠFred die
aur ant
Fac ebook
Ġpunish ment
ĠWeigh s
ĠHig her
Wor ld
bit ious
ĠDuck worth
oom berg
ĠAbb ott
ĠPow ell
ĠQat ar
erem ony
Pros ecut
, âĢĻ
D ream
E W
E l
F in
F amil
G ary
H aw
J on
M embers
O h
O pp
S ur
S ant
S uper
T hing
T ennessee
b ig
b ers
b les
d ahl
e ers
f ord
f ace
h or
m ers
m aking
p ret
r ities
u is
u ate
w ill
in ement
in ition
ĠT ro
ĠT ech
al o
st ance
Ġa verage
ĠS ued
ĠC al
ĠC as
ĠC PAC
ic ient
Ġs ending
Ġs ources
Ġc orn
Ġc atch
Ġc razy
Ġp orn
Ġf ate
Ġf rust
ĠP ull
ĠP risons
ĠP ledges
ĠD ram
ĠD anger
Ġb i
Ġb ed
Ġb oss
ĠW eb
ĠW rote
ĠW ikiLeaks
ĠH aven
ĠH oliday
ĠH uffington
ĠB on
ĠB ald
and atory
ĠF ig
ĠF ive
ĠM ac
ĠM ail
ĠM ask
ĠM erk
ot ic
Ġd aily
Ġin itiative
ol ving
ĠG ap
Ġn egative
ec ided
ĠN av
ĠN ormal
im als
ĠL am
ĠL ines
ĠL oretta
Ġl inked
ĠE manuel
Ġg rab
ir k
Ġe ye
oc rat
Ġhe avy
Ġhe avily
Ġst ood
ĠJ ay
ident ally
mer ce
ĠV ideos
ĠCl erk
ĠK ind
ĠK irst
ĠK icks
ĠK urd
ost er
bam as
ant ly
ast ing
Ġnot ice
Ġsh own
qu alif
Ġch urch
ĠSen s
ĠSh ake
ĠSh ift
Ġdo zen
av ors
Ġad ult
ĠAl ong
ĠSp y
ĠSp okes
Ġun armed
Ġun likely
Ġall ows
ĠSc ientists
Ġrep roductive
ĠBl ue
ĠBut tigieg
Ġover all
Ġus ually
ock et
ang ers
Ġher self
ĠBan ks
ĠDef ending
ĠBack lash
ĠCont roversy
Ġyour self
jor ie
Ġinter nal
Ġim age
Ġab solutely
ĠRec ent
ĠMed dling
ron ic
ĠCons umer
Ġ3 5
ĠOp tion
ĠDeal s
Ġint ent
Ġass istance
Ġsur v
ĠPut ting
by e
ĠCount ries
ĠRem ains
IS IS
Ġconf ident
ann on
ĠMiss ed
Ġdem anding
Tw eet
Ġob lig
Ġob vious
Ġdes igned
let ely
Ġdist urbing
Al most
ĠAny more
ĠAp art
ĠAp ology
Ġed itorial
Ġfew er
Ġfoll owed
ĠPat riot
ĠSe ason
ĠCent ury
ĠDet roit
Ġcivil ians
Ġaddress ing
Ġclass ified
Ġmod el
augur al
ĠTur kish
Ġeffect ively
Ġdiscuss ed
ĠDes erve
Ġsurpris ed
Ġmiss ing
ĠFail ing
ĠVeter an
ĠSeat tle
Ġprovid es
Ġopin ions
Ġeng aged
Ġdisp ar
Ġstri kes
verse as
bo ard
Ġposs ibly
ĠStrugg les
Ġoper ations
Ġnar row
San ctuary
ĠIndepend ent
Ġpled ged
Rel igious
ĠBer keley
Ġtact ics
ĠSimp le
ĠRos en
Ġfe els
ĠCB O
ĠCre ate
Ġcust ody
ĠAtlant a
Mex ico
Ġpurp ose
rehens ive
ĠSnow den
abot age
ĠWy oming
ĠBelie ves
quir y
Mont ana
ĠBrook lyn
ĠStew art
onym ous
A ir
A bout
B altimore
B etsy
C ar
C ong
C eleb
E N
I P
L A
L ist
L abor
M ueller
M aine
O b
O ther
P al
P ope
R ef
b reak
c ience
d is
f un
i able
l iest
u z
u zz
z y
z ar
Ġt ight
Ġt one
Ġt ied
ĠT ied
ĠT ammy
al ph
Ġthe ories
ĠS erve
ĠC razy
Ġs orry
Ġp ot
Ġp ardon
ĠP roud
Ġb ail
ĠO casio
ĠR amp
ĠR ush
ĠR uth
ĠR ural
ĠW ood
ĠH usband
le m
le ans
ĠB us
ĠB ail
ĠB erg
om ers
ĠF eat
Ġd ying
Ġd rawn
Ġm oves
ĠG ore
Ġn or
ĠTo ss
ĠL ied
ĠL ady
ĠL uther
ut ation
Ġl oud
ĠIn come
Ġg irls
ak ed
ak istan
Ġst yle
ĠJ ill
ul ting
ra pp
ra ged
art ers
Ġcon vent
ust ain
Ġv ar
Ġv iral
Ġv olunt
os ure
ab it
ud ies
ast ert
ĠTh row
Ġsh ock
Ġsh ape
ard ons
ure n
um ed
ĠRe in
ip ients
ĠHe at
Ġad mit
ĠPro of
ĠAl ly
ind ing
ĠAn swers
ĠSp eaking
Ġun less
eed s
Ġcont ender
ĠBl ocked
Ġres istance
iss ed
Ġexp osed
Ġapp ly
Ġsc rutiny
ĠCar ly
Ġqu it
ĠAct ual
ĠWho le
ĠBack ground
ĠQ ual
Ġar ms
vers ations
ĠCont ract
ĠExp er
ĠDon or
Ch ina
ĠDec ides
ĠPolitic ian
ĠBig ger
Ġins urrection
az ing
ĠAg ent
Ġint el
Ġint imid
Ġdisc lose
ĠCome back
Ġlook ed
Ġnation wide
ĠDis g
ĠDis abilities
President ial
ĠSur vey
Ġfund raising
Ġann ounce
ĠAdv ances
ĠThreat en
ĠMcC rory
Ġprom ote
Ġpay ments
idd ing
Ġmar gin
Ġquestion ed
Ġrac es
Ġserv es
ask et
let es
Ġmin utes
Ġhead s
ĠOpp onents
ĠHigh way
Ġgr own
ĠNe o
Ġlar ger
Ġviol ated
ĠSet tlement
ĠSl ow
ĠGre ece
Fl int
Ġ8 0
ĠIslam ophobia
Ġpost ed
Ġcent ers
Ġprov ider
urb an
Ġstep s
Ġstaff er
Ġfil m
Ġdead line
ĠDes c
ĠTarget ing
ĠTarget ed
ĠGi ant
rut ality
ĠStart ing
ĠPlay ing
ully ing
Ġcred ible
Ġremain ing
Ġur ging
Ġaw are
Ġsex ually
ĠHit ler
App eals
ĠNA FTA
Ġpri ority
Ġpriv acy
Ġinvest ment
Ġsil ent
Ġsil ence
Ġnar rative
Ġaud ience
ĠComplain t
ĠApolog ize
ĠDoct ors
empor arily
ĠAccus er
Ġaim ed
Ġstrateg ist
lev ant
Ġinn ocent
Ġcamp us
Ġanal ysis
ĠAust ral
ĠTrib ute
Ġsom ew
Ġmom ents
Ġrecomm end
Ġspecif ically
istrict ing
kn own
nab is
ĠRat ings
ĠScal ise
Thing s
ĠBerg dahl
B ad
C ore
D NC
D oug
F ive
I CE
K och
K amala
L ess
M edic
O L
P re
P art
T hose
U D
V eter
W ant
g le
l ied
r ig
v y
w ater
Ã ¡
Ġ ou
Ġ ver
re al
re ational
ĠT aps
or ious
ĠA x
ĠA ims
ĠS ounds
ĠS epar
ĠS uicide
ĠC aught
ĠC aucuses
ic able
Ġw elfare
Ġw isdom
Ġs ize
Ġs uing
Ġs ales
Ġs afer
Ġf at
ĠP andemic
ĠP icture
ĠP akistan
ĠD ue
ĠD ying
Ġb ars
Ġb rain
Ġb ias
ĠH om
ĠB ible
ĠB raz
ĠF ans
ĠF uels
ĠM achine
ĠM useum
ot yp
Ġd rag
Ġd uty
Ġd iverse
Ġm andate
et ime
ĠN obody
ĠN ikki
ĠL t
ĠL iving
ĠL inked
Ġl ocked
Ġl oves
ĠIn st
Ġg ap
Ġg ubernatorial
Ġg reatest
oc ol
oc ide
ak i
ĠSt opped
ĠFor ces
op ou
ra h
ĠCon ced
Ġy esterday
ĠCl ar
ch ang
Ġv irus
Ġwith draw
ĠY ates
Ġpro of
ag s
qu arters
und ing
ĠAs ylum
Ġwe apon
Ġdo zens
Ġsp ons
Ġsp ring
Ġad ults
ĠPro vid
ĠAl t
ĠUn s
ĠSp lit
ĠLe vel
ens ions
ĠSc rew
Ġup set
Th ank
ran ce
erv ers
erv atism
Ġrep lacement
aul ting
min ing
ĠJust ices
Ġus ual
Ġexp lo
ĠRes olution
Ġsc ientists
Ġrec overy
ĠEm otional
Ġqu arter
Ġsome body
illion aire
Ġcomp et
Ġcons ensus
ĠPlan et
ĠPlan ning
St orm
Ġim agine
ĠGo ogle
ĠHer o
Ġlong time
ĠAg encies
AC P
ject ion
ĠImp each
Ġsign al
ĠInd icted
Ġopp osite
Ġro b
ĠConf ront
Ġadd itional
ĠPh arma
ĠAdv oc
ĠRem inds
ĠRem inder
ĠWall ace
ĠMost ly
idd en
ĠPost s
ann a
Ġret irement
ĠDe legate
Ġvict ories
Ġ200 9
Ġclaim ing
Ġprotest ing
ĠProtect ing
ĠFran k
ĠOwn ers
ĠInc reas
pris e
ĠSw amp
ĠSm art
ĠCritic al
riz e
ĠAff air
Ġhop ed
Ġsuggest ing
ĠNe igh
Ġrat ings
ĠAdd iction
rif ied
Ġest imated
ĠChe mical
Ġreform s
ĠDead line
het ic
Ġaddress ed
Ġthough ts
ĠStaff ers
alt ies
Ġpr ices
Ġrece iving
Ġmod erate
ĠEl imin
Ġstrong er
Ġfront runner
ĠTur ning
Ġemploy er
ĠArrest s
Ġdecl ined
Ġbas is
Ġrepresent ed
ĠMean while
ĠAppro ach
Ġpotential ly
ĠStar ts
leag ue
Ġpar ts
ĠSent ence
Ġinflu ential
Ġbr ings
rog ate
Ġinj ust
Ġequ al
Ġunp opular
Ġpri or
Ġmess ages
Ġfoot ball
ĠMill ennials
ĠBrief ing
Ġlobby ist
Em b
ĠSurviv or
Ġtransp arency
Ne il
mo il
ĠSold iers
ĠPriv acy
Ġtot ally
Ġwalk ed
Ġsold iers
Ġult imately
ĠVo ice
ortun ities
urge on
Ġqualif ied
Net anyahu
Charl ottesville
itim acy
Ġpack age
Ġbal ance
Ġsubsid ies
ĠColumb ia
ĠProv ide
Ill inois
Ġtom orrow
Haw aii
1 3
9 0
A R
C ampaign
D own
E ducation
F act
N azi
N azis
O U
P uerto
b orn
d ef
e iling
i at
i us
k owski
l as
l ow
l ers
m itted
n st
t e
t led
v iolent
w or
w art
Ġ i
in ct
in ary
he ld
he art
he ast
er red
ĠT ight
ĠT ears
ĠT ext
ĠT echn
ĠT icket
ĠT itle
or ist
is her
ĠC ulture
ar on
ic op
Ġs ort
Ġc ell
Ġc aut
Ġc atastrop
Ġp rot
Ġp rime
Ġp lead
Ġp urch
Ġp eaceful
ĠP iv
ĠP od
Ġo vers
ĠD A
ĠD omin
ĠD ele
ĠO cc
ĠR am
ĠR ew
ĠR ee
ĠR ap
ĠW elfare
ĠB rian
ĠF ate
ĠF rust
ĠF urther
ĠF ossil
ĠM al
ĠM ate
Ġh un
Ġd inner
Ġd edic
Ġm us
Ġm ir
ac ity
ig il
res ents
et ty
im ism
ĠL augh
ĠL obbying
Ġl og
Ġl ied
us ers
ep ting
em an
Ġg ains
Ġg reen
Ġre action
Ġst ick
Ġst ock
Ġst reet
ĠJ es
ce aled
ĠSt on
ĠSt ake
ĠSt ocks
ĠFor ced
ra ining
ĠRep ublic
Ġy outh
Ġcon stant
ĠK a
ĠK rist
ch ar
are well
iv als
os is
ress ing
Ġas ylum
aw ay
Ġr id
Ġr igged
Ġsh ame
ass idy
Ġex clusive
um ing
ĠSh are
ap ol
Ġwe ird
Ġsp ace
Ġsp eed
ern ity
ĠAn ger
ĠAn alyt
ĠSp encer
Ġoff ering
ĠSc ient
og y
Ġpl ant
ree k
ound ing
Ġlead s
Ġany body
Ġany where
ĠNews paper
ĠCru cial
Ġwar m
ah m
Ġbill ions
Ġdis play
Ġdis astrous
ĠQu ite
ĠQu its
Ġab andon
Ġmy th
Ġbig otry
Ġins pired
ĠMan ning
ĠApp le
ĠBr ings
Ġmed dling
ĠWork er
ĠSo ft
uct ion
ĠDis ag
Ġtru ck
Ġadd s
Ġem issions
Ġcol leges
Ġdep end
Ġprom oting
Ġmar ch
Ġob sc
Ġdes erves
ĠGr ows
eel ing
ĠDen ying
Ġco op
Al though
Ġincre ases
Ġaff airs
ĠOpp oses
ĠOpp ortunity
Re ady
Re illy
Don nell
Ġviol ation
sp oken
Ġev angelical
ĠChe cks
ĠUr ban
Ġofficial ly
Ġhuman itarian
ĠLo ans
Ġorgan ized
Ġlist ening
Ġsent ence
ĠMur kowski
Ġmark ets
Ġfire arms
Ġtarget s
Ġrepresent ative
iam ent
ĠHack ers
ĠMean ing
ĠHand le
ĠSub poena
ĠList en
opho le
Ġturn out
ĠSk ept
ĠJim my
May or
Ġdesc ribe
iti atives
Ġsum mit
ĠHear d
ĠSeek ing
ĠLobby ists
ĠEv ents
ĠIgn ore
ĠPet ra
Ġinj ured
App arently
Ġcomplain t
ĠCour ts
ĠLeak s
ĠLim its
ĠBenef it
ĠGl enn
poen as
Ġaccomp lish
Ġencour aged
ĠRaid s
Ġliber ty
Ġtens ions
ĠDismiss es
rent ice
ĠJos eph
ĠProfess or
ĠJapan ese
Ser iously
ĠPosit ive
olitic al
Adv ocates
egreg ation
fortun ately
McC ain
Core y
opou los
7 0
A dd
B annon
C arl
D et
G u
J an
K im
K ris
L ong
R our
S w
S y
S and
U tah
b ox
e us
e ah
f unded
g g
g reg
h ar
h ard
i ety
l ings
p ire
p orts
v in
w as
Ġ icon
in ter
Ġt end
Ġt ouch
an th
re ements
ĠT apper
ing ing
ou ching
ed a
ĠS el
is le
ĠC atch
ĠC itizen
ar ations
ic ian
ic ense
Ġs elling
Ġs aved
Ġc oin
Ġc ops
Ġp ill
Ġf ault
il em
ĠP aper
Ġo versight
Ġo verseas
ĠD un
ĠD evin
ĠD ollars
ĠD ouble
Ġb old
Ġb ox
Ġb rag
Ġb arely
ĠO w
ĠR u
ĠR ican
ĠR um
ĠR ose
ĠR ove
ĠR oss
ĠH B
ĠH ait
ĠH ouston
ĠH astert
ĠB ed
ĠF ile
ĠM ary
ĠM iami
Ġh ide
Ġd iagn
Ġm atch
Ġin fect
ac ing
ac ies
ĠG ains
Ġn umerous
im istic
ĠL y
ĠL og
ĠL aden
ut ion
Ġl ock
ĠE U
ro ck
ĠIn itiative
Ġg ames
Ġg ranted
Ġre in
Ġfor ms
ur se
ul a
pp er
ra vel
if ted
ust ed
th y
ress es
ab e
ab ies
od ies
Ġnot e
Ġr ic
Ġr ow
ag ers
ass roots
eop ard
ong ering
Ġal ike
Ġal though
Ġsp arked
ind al
ĠAn al
Ġun ity
Ġun usual
ĠAd elson
ĠEx it
ĠEx actly
ĠOver haul
oll ster
ĠMar ks
Ġover haul
any e
ang ered
Ġacc urate
ĠOut s
ĠOut rage
Ġpl aint
Ġafter math
Ġact ive
ĠEm bass
Ġen force
Ġwork place
ib rand
ĠWho se
Ġimp ortance
Ġcomm it
Ġdon or
ĠTr ick
ĠQ ue
Ġar m
ĠMon uments
ĠIm m
Ġtr ick
Ġevery body
Ġevery where
Ġend orse
ĠAm y
Ġknow ledge
Ġop eration
uffP ollster
Ġse es
An on
ĠEn emy
ĠCol leagues
Ġ3 6
ĠHar m
Ġint egrity
Ġdisc losure
ĠRun off
ĠImp rove
Ġelect orate
Ġreg istered
Ġra mp
ĠGu est
ĠBar r
ĠBar bara
Ġcritic ize
Ġadd iction
ric ter
Ġprop erty
Ġfac ilities
Ġcor rupt
Ġconc lud
Ġpass age
Ġgu ys
rib es
Ġche cks
Ġquestion ing
aun ting
Ġdiffer ences
ĠPay ments
ys fun
ĠGr ad
Ġph il
ĠPart ies
ĠTest ing
Ġhead lines
Ġarg uing
acc urate
Sh ithole
Ġviol ates
Ġve t
ĠSl avery
Ġcover ed
cl usion
ĠPr ices
ĠUS A
rip s
Ġwr ites
ĠStand ards
olid ays
ĠEd ge
ĠClaim ing
forc ing
Ġsuccess or
Ġsuccess fully
Ġexc ited
Mon ey
Ġinvol ve
ĠSex ist
ĠHon ors
Ġlo ans
** *
Ġcred ibility
aught ers
Ġmiss ile
ĠGold en
Ġreve als
Ġaccount ability
ĠMid terms
ograp hy
Ġbr and
ĠCeleb rates
Vot ing
ĠEv angelical
Ġtrou bling
Ġrepeat ed
ĠConv icted
Be ing
Ġbank rupt
Ġident ity
Ġident ified
ĠVet o
ĠPo ised
ĠPo ison
Ġaccomp lished
ĠRegul ations
asc ist
Ġaut om
Ġanal yst
Fac ing
ĠDisp ute
Acc ording
ĠMeg yn
ĠThough ts
Ġac ad
Ġacknow ledge
Ġbreat h
ĠNewt own
Ext rem
ĠSter ling
exp ected
Mean while
ĠCanc els
Ġhomel ess
Sant is
ĠBald win
Ġinjust ice
ĠPetra eus
Rour ke
ilem ma
4 00
B order
C andid
C itizens
D ick
E th
F oll
F reedom
G i
H ard
H istory
I T
K h
M od
M illions
N ikki
R eg
S am
S ad
S ign
S usan
T ru
W all
a eda
b age
e h
f ield
h appy
k ers
l ock
m el
m et
m its
p el
r d
w est
x y
y lan
Ġ iron
Ġ rif
in ian
in ated
an o
re v
en ant
Ġa ward
it led
it ches
ĠS ending
ĠS olid
ĠS uddenly
is ode
ĠC at
ĠC reated
Ġw earing
Ġs ch
Ġs ued
Ġs uddenly
Ġc iv
ĠP ed
ĠP oss
ĠD eter
Ġb ound
ĠR if
ĠR ivals
ĠW he
ĠW ave
ĠW itness
ĠH alt
ĠH ints
ĠB reat
ĠB ach
ĠB rutal
ĠF at
ĠF ool
ĠF antasy
ĠM asks
as ing
Ġh ired
Ġd ate
Ġm ent
ol t
ĠTrump s
Ġth rowing
ĠG rop
ĠG ulf
ĠG lobe
Ġn obody
ĠN ob
ĠL A
ad er
Ġl it
Ġl os
Ġl aid
Ġre vers
ew ork
Ġhe ated
ul ating
ho en
op oly
ĠRep lac
ĠK iss
ust ries
end y
end um
ign ity
aw s
ast ers
iz er
ell ent
Ġpro ven
Ġsh ocking
ect or
Ġch aos
Ġ20 00
Ġsp eeches
ĠAl b
ere g
ĠUn less
ris k
Ġun ve
Ġk id
ĠAd mit
ĠSc ram
ber y
Th ink
Ġcont rad
Ġcont enders
ons ider
Ġover come
ov ers
ĠBill ions
Wh ich
Ġexp anding
Ġexp lanation
Ġacc ord
ĠCan adian
ĠFl o
Ġapp ropriate
Ġact or
Ġsc andals
oy ers
Ġinc idents
Ġsome how
ĠTw eeting
Ġwork er
Ġcomm ander
Ġbl ind
ĠBack ers
ult iple
St ill
ĠCould n
ĠRef use
Ġtr oll
Ġtr igger
ĠExp ansion
round ing
Ġrem inder
Ġop ened
Ġpre fer
Ġim ages
Ġpart ner
Ġdis enfranch
ĠQu ick
ron y
ĠMan hattan
emp l
ĠChar ity
Ġcare ful
ĠInter ference
Ġman ip
Ġdisc our
ĠRun s
Ġopp ortunities
Ġreg ret
ĠProtest er
Ġ19 4
Ġnational ist
ĠIns ult
Ġref use
ĠPh ys
Ġant icip
ĠRem oved
Ġent ered
Ġent ering
ĠInvestig ated
ĠMiss ile
Is lam
Ġ200 1
ĠDen y
ĠShow down
ĠPart isan
Ġsl ight
Ġattorney s
Ġsw amp
Ġtest ing
Pro fit
ĠSw ing
rac ing
rac es
duct ion
ĠHur ts
Ġdel iber
.) .
ĠPr incip
Ġsent ences
Ġauthor ization
Ġpersonal ity
Ġjoin ing
ĠReve aled
ĠTur ner
Ġnon profit
ĠRa ised
Ġhar sh
Ġne o
ĠOb struction
ĠEast ern
Sp ecial
Ġceleb rating
Ġconv ince
Ġconv iction
ĠDiv ide
ĠCho ose
Ġmain stream
fort e
ĠSusp ends
amb ridge
ĠSent enced
ĠPort land
Ġocc urred
bor ough
Ġnegoti ating
Ġemp ty
prof ile
ĠNA ACP
ĠDam ning
ĠHal ts
Ġsol ve
ĠLeak ed
Ġhor rific
Ġbroad er
ĠAlex ander
ĠDoub les
Get ting
ĠEnt ire
Ġcirc um
Ġdesp erate
Ġorigin al
Ind iana
Ġhero es
Ġgener ations
vert ising
Ġtransp ortation
ĠMad ness
ĠExtrem e
Ġdoct ors
Ġriv als
ĠDod ges
ĠFun eral
Ġbatt les
Ġconnect ion
idel ines
Ġstreng th
ĠQuiet ly
edd ing
Ġdestruct ion
ĠGill ibrand
Ġunn ecessary
ĠResc ue
ĠOvert urn
Char les
Ġclos ely
ĠOpin ion
ĠUg ly
ĠEnc our
errit ory
ĠBeh avior
ĠDevelop ment
ĠMac ron
Storm y
ĠAnalyt ica
Gi uliani
Ġlos ers
2 00
C op
D isc
D ACA
G od
I raq
J ew
K eith
M em
M ilitary
M SNBC
P lease
P elosi
R ed
T er
T alk
W I
c iss
d oor
f are
g r
h ill
h med
h uman
j amin
k er
k ay
k ee
l t
l ide
l ands
n is
n ected
n oon
p resident
p age
p arty
r ine
r ina
w ith
w are
Ġt ext
Ġt aught
on ing
er ates
re ci
ĠT ex
ĠT ape
ĠT otal
ĠT onight
ĠT ackle
en ry
en ger
or ation
or ce
st ed
Ġa voided
ĠS at
ĠS lain
ĠS ociety
ĠS elling
ĠS acrif
ĠC ell
ĠC urrent
ĠC apt
ĠC helsea
Ġw ear
Ġs ac
Ġs upremacy
Ġc ry
Ġp etition
Ġf ans
Ġf illed
ĠP orn
ĠP urs
ĠP ushed
ĠP acific
ĠD rag
Ġb ooks
Ġb reaking
Ġb izarre
ĠR an
ĠR onald
ent h
ĠH ay
ĠH istor
ĠH UD
ĠB orn
ĠB ond
ĠB ash
ĠB urns
ĠB ridge
ĠF alsely
ĠF auci
ĠM ir
ĠM ention
Ġh ypocrisy
Ġh atred
Ġd iversity
Ġd ouble
Ġm al
Ġm ap
Ġin mates
ig rants
ol en
ol ars
Ġn orm
ĠN or
ĠN AS
im mer
ĠL ets
ĠL amb
ĠL icenses
Ġl ay
Ġl ived
ep ts
em on
ĠIn mates
Ġg rew
Ġre nt
Ġfor t
ur er
oc racy
ist ant
ak ers
ĠOf ten
Ġst e
Ġst em
Ġst ark
Ġst uck
Ġst ring
Ġst opping
ĠJ indal
ri ev
ra v
ĠV en
Ġan x
ĠCl osed
ĠCl osing
Ġcon stituents
if ty
ch ie
ess ing
th old
iv ated
iv ities
iz on
Ġj ur
Ġpol ar
ag og
ĠWith in
Ġex change
ey er
ĠRe ince
ap se
Ġwe ather
Ġsp orts
ĠPro sp
ĠAl one
Ġun b
Ġun employment
Ġoff ices
Ġcl ub
itt ees
ĠEx ist
Ġcont ain
ĠAfter math
ren ce
Ġexp ensive
ound er
Ġrec ru
ĠEm issions
Ġqu ality
Ġcount ies
ĠTw ice
ĠAct ions
Ġcomp l
Ġcomp assion
Ġcomp arison
Ġcons ult
ĠMc M
ĠAr m
Ġleg ally
St udents
ĠEnd ed
ĠPl ays
ĠPl ag
Ġend less
Ġrem inded
Ġknow ing
Ġim ag
ĠRec overy
Ġunder st
ĠEn rollment
ĠApp oint
ĠApp arently
ĠCol in
ĠCol leges
Ġadv ance
ev itable
ger y
ĠTe ens
ĠHelp s
Ġsign ature
Ġreg ime
Ġreg istration
Ġown ers
ĠPer form
ĠZ ero
Ġconf used
Ġte ach
Ġset tle
ĠDe Santis
Ġob viously
Ġob tained
aren thold
Ġel ite
ĠPass ed
ĠTru ck
rac eption
Ġden ial
Ġden ounced
ĠAff airs
Ġinterest ed
ĠOrder ed
ĠDet ained
Ġest ab
ĠMem e
Ġbad ly
Ġemb attled
Ġemb arrassing
Ġfour th
Ġdet ain
ĠEd itorial
Ġregul ar
Ġjoin s
Ġold er
ĠRa ising
ĠDream er
Ġbas ically
ðŁ ĺ
Ġdiscuss ing
ĠLess on
ĠSil ver
Every thing
Ġceleb ration
Ġceleb rated
Ġsurpris ing
ĠChang ing
Ġprison ers
resp ons
ĠBu ying
ĠJournal ist
Ġexplain s
Ġexplain ed
Ġextrem ism
Ġaw kward
ĠBook er
ĠEmb race
Ġland mark
Ġdemonst rators
Ġemp has
Ġcomplain ed
ĠSum mer
Ġsuff ered
ĠDam age
ĠEr nst
bo arding
Ġentire ly
Ġcru el
Ġtrust ed
ĠEmploy ee
ĠStrugg ling
Ġhopeful s
ĠPrep are
ĠPrep ares
che ck
ĠLiber tarian
Ġlobby ists
ĠVet oes
Ġgener ally
Ġrap e
Ġrap id
Ġpled ge
ĠSold ier
ĠPul ls
Ġrefer red
Ġult imate
Ġpo ison
ĠRece ives
ĠLib ya
Rac ist
ĠCommun ications
ĠAnt hem
Ġhistor ical
ĠMist ake
ĠWilliam s
Ġacknow led
ĠJos h
ĠFoot ball
Look ing
ĠBoo ed
ĠRevers es
Ġcancel ed
Ġet hn
Ġdisag ree
ertific ate
ĠFundra iser
Ġenthus iasm
Ġtoug her
ĠPregn ant
ĠInform ant
Ġcomed ian
ĠMa her
ĠGian forte
iche le
Opp onents
bers ecurity
ĠRosen stein
ĠOcc up
ĠBach mann
ĠNob el
hoen ix
2 3
A ul
B illionaire
C ub
D ead
E ight
E MA
F rank
L at
M O
M uch
P ower
P rop
R on
R igged
S ometimes
T error
U ntil
V E
b ut
b ors
c omm
f ers
g overn
g ood
h is
j o
l a
p oint
r ase
s ec
t rack
w an
w au
Â Ń
Ġ ordinary
in formed
Ġt or
Ġt rump
er b
st ances
ĠA iles
ĠS ite
ĠS uch
ĠS elect
ĠC reat
ĠC ode
ar ts
ar ren
ic ate
Ġs ight
Ġc art
Ġc ares
Ġc ode
Ġc amera
Ġf ly
Ġf ights
Ġf ram
Ġf right
ĠP it
ĠP act
ĠP sych
ĠD iss
ĠD riving
ĠD isease
id ance
Ġb and
Ġb ans
Ġb ought
Ġto ll
Ġto xic
ĠR ay
ĠR ub
ĠR ates
ĠR ises
ĠR ival
ĠR oof
ĠW at
ĠW eren
ĠH eb
ĠH eck
ĠH uffPollster
ĠB ot
ĠB ased
ĠB rought
ĠB rain
ĠF DA
ĠF ifth
ĠF arenthold
ĠM at
ĠM all
ĠM ick
Ġh unt
ot ion
Ġd ele
Ġd rew
Ġm ill
Ġm ine
Ġm ale
Ġm ovie
Ġin appropriate
ol ar
el d
Ġn ature
Ġn ecessarily
ill iant
im migrant
ĠL ays
ĠL oy
ĠL ikes
ut enant
Ġl ink
ep ern
ĠE ve
ĠE ither
ĠE ye
ro ke
ĠIn stitute
ĠU ber
ĠJ oint
ĠJ ump
ub ious
ra id
Ġan imal
ĠK ate
ĠK irk
Ġv ideos
ab ric
ia st
ast ic
Ġnot ion
Ġr ange
ell en
Ġpro ceed
ect ive
ous and
ag ram
ĠBe ach
ĠBe au
ĠSh owing
ĠRe action
ap ed
Ġal ive
Ġsp in
Ġsp ect
Ġsp oken
av in
ict ing
ĠUn likely
ĠLe ague
Ġk icked
Ġcan nabis
to o
ĠSc athing
Ġgo als
irst ri
Ġrep resents
og us
old ing
ĠBl and
ĠOff ensive
aul ts
Ġatt ract
Ġru ns
Ġsc ary
Ġgovern ors
Ġso le
ott ed
Ġhad n
Ġcom mercial
ĠDef icit
Ġbl asted
ĠTr illion
Ġleg itimate
ĠCare er
ĠAll owing
ĠRef used
ĠExp osed
ĠHow ard
Ġpart ners
Ġbel ong
ĠYork er
ron gest
ĠHer itage
Ġins pect
ĠNeed ed
ĠAttack ed
Ġman ner
ĠChrist opher
ĠComp lic
cess ive
ĠOp er
ĠOp ening
Ġint ention
Ġopp osing
ĠShe l
ĠBec k
Ġsur veillance
Ġsur veys
ĠGu arant
ĠPer man
ĠTra il
Ġcol lection
Ġban ning
Ġsee ks
Ġfund ra
Ġec ho
ĠHI V
ĠRem ove
ĠUnder mine
loy ed
ĠMcC abe
She riff
Ġgu ard
duc ing
Ġsub stantial
Ġsub stance
ĠInt roduc
ĠInt roduce
Ġdem anded
uild ing
Ġ200 5
Ġ200 6
Ġ200 7
Ġcho se
Ġcho ices
Ġdist ract
aren ce
Ġde legate
ĠKill s
Ġph arm
ĠRepeal ing
Ġtop ics
Ġread ing
Some one
ĠPick ed
ID S
ĠIsrael is
ĠProp ose
ĠDisc lose
Ġinv asion
Ġrequ iring
Ġed ge
ray ed
ĠCritic izing
pl ays
Ġden ying
ĠAff ord
ĠMy th
ĠSan ctuary
ĠHur ting
iff e
iff ords
Un less
Ġviol ations
ĠSet tle
Ġhost ile
back ed
Ġhuman ity
ĠDr one
Ġhand le
ĠBro ke
Ġfil ibuster
Ġmoment um
Ġnon partisan
Ġign oring
Ab solutely
ĠDes erves
ĠMeet ings
ĠGreat er
ĠNation wide
ĠHack ed
Ġunf it
ĠSex ism
Ġmet hod
ĠInv olved
Ġrespond ing
Ġsusp ended
ĠHost s
Ġmiss ed
ĠGen eration
Ġseat s
ĠBu zz
ĠJournal ism
ĠNight mare
Ġmem ory
ĠIgn oring
ĠPet e
ĠBas ically
Ġpopular ity
Ġdr illing
Be hind
Ġindepend ence
ĠIl legally
rep resent
ĠClear ance
ĠScar borough
Ġphot os
Def ense
ĠHun ger
ĠComplain s
Ġattemp ting
ĠStat ue
ĠExtrem ism
ĠRelations hip
ament ally
Ġspokes woman
Ġmag azine
Ġpurs ue
ĠX L
Ġear ned
Ġleak ed
Ġoutrage ous
ĠTransp ortation
Ġtradition ally
cont rolled
bur gh
Few er
ĠHopeful s
lee ing
ĠStamp s
Ġapolog ized
ĠWiret apping
ĠDro pped
Ġinitial ly
Ġignor ance
ĠPopul ist
Ġri pped
ĠWond ers
Ġbus y
Ġtool s
ĠBatt leground
ratul ations
Ġpromp ted
Pay er
Rich ard
ogyn y
rup ts
Sch umer
ĠAttemp ts
ĠMerk el
Cong ratulations
Ġvar ious
Ġintel lect
ĠIncreas ingly
apol is
ĠSel ma
Ġric hest
Kh izr
Aul iffe
wau kee
epern ick
1 8
4 0
A f
A gain
C are
C alif
C apit
D es
F K
H alf
I l
L inked
N EW
O W
P N
P ress
P rotect
S ocial
T ucker
V ote
Y oung
b eat
c ape
e k
f ight
f ather
h and
i ate
i ors
j ud
l usive
m ail
m anship
n ation
p ects
s l
t a
u ates
Ġ error
er ly
re cy
ĠT en
ĠT ale
ĠT erry
ĠT yp
ĠT aken
or able
Ġa isle
it mo
ĠA T
ĠA y
ed ge
ĠS ing
ĠS av
ĠS ession
ĠC ry
ĠC ap
ĠC ens
ĠC antor
es b
Ġs ong
Ġs ue
Ġc able
Ġc rises
Ġp itch
Ġp sych
Ġf ails
Ġf uels
ĠP ur
ĠP rize
ĠD u
ĠD itch
Ġb re
Ġb itter
Ġb aby
ĠO ath
ĠO bamas
ĠR eop
ĠR olls
ent e
ĠH ers
ĠH ilar
ĠH ogan
ĠB in
ĠB rett
ĠM A
ĠM oms
ĠM ixed
Ġh aw
Ġh alt
Ġh ospitals
Ġd od
Ġd ismant
Ġm os
Ġm ail
Ġm ask
Ġm achine
Ġm aterial
Ġth rew
ow ards
ĠG rab
ĠG iffords
ĠL iar
ĠL isa
Ġl uck
Ġg ut
Ġg ift
ur ches
Ġe vil
oc cer
Ġst ream
Ġst rip
ĠSt range
un ned
ho red
ri ers
ĠFor um
ra f
Ġan imals
est ine
art isanship
rom e
ĠCon duct
Ġcon versations
ĠK ick
ear chers
Ġas ks
iz z
Ġsh ameful
Ġj oint
Ġj okes
ect ing
ect ion
gress ion
qu er
ors hip
ĠRe act
ip artisanship
Ġ1 50
Ġad ministrator
hen omen
ĠUn ivers
ĠSp ace
ĠSp eed
Ġun anim
Ġout l
erv ous
ĠOver whel
Ġcont empt
ĠBl oomberg
ĠWar m
ĠWar ner
ĠOff ered
ĠMar ia
Ġus es
ang s
red ibly
Ġpl ot
Ġpl aced
Ġafter noon
Ġapp arent
Ġact ress
Ġact ivity
Ġgovern ance
ĠCar rier
Ġen joy
ĠHas pel
ug g
Ġimp lications
Ġimp ressive
ĠMc G
ĠPlan e
Ġcom fort
ĠOr leans
ĠReport ed
ĠRef using
ĠPl ant
Ġrem oval
ĠAcc use
ĠTax payer
Ġdis abilities
ĠMed al
Ġdef icit
Ġdef inition
rid ges
ĠHer oes
ĠApp l
ĠCons iders
Ġadv is
ĠComp ared
Ġ4 7
lud ing
ĠProtest ing
Ġown er
ĠBar s
ĠPer due
less ness
Ġinvestig ated
ĠConf ident
ĠNorth am
ump tion
ĠAdv antage
ĠThreat ened
ĠThreat ening
ĠMin orities
Ġfl ip
Ġpay ment
ĠPar ade
ĠBen jamin
ĠMiss ion
ĠRet ire
ĠRet reat
ĠDen ounce
Ġco ast
Ġcho osing
Ġcho sen
ĠKill er
Ġhead ing
ĠInc arceration
Ġrest ore
ĠLaws uits
Ġide ology
Ġide ological
Ġchallen ged
Ġchallen ger
de au
Ġlegal ization
Ġsw eeping
ĠDisc rimin
Ġinv ited
ĠReg ulation
ĠEndors ed
Un like
ĠProm ised
ĠDel ivers
Ġviol ating
Ġdifferent ly
Ġfound er
Ġcover ing
Law s
ĠIslam ophobic
Ġnight mare
enn is
com fortable
Ġdet ained
Do zens
vo ids
Ġyoun ger
Ġregul arly
Ġdiv ision
Ġmark ed
Ġdecl are
ðŁ İ
Ġreason able
Ġne ither
ĠQuestion ing
ĠDecl aration
ĠHand ling
ĠPlay ed
ĠPan ic
ĠPhot ographer
ĠKim mel
Ġprep are
Ġpat ient
ĠSk ew
Ġdevelop ing
elt down
Ġsk in
Ġstrugg led
Ġstrugg les
wh ite
ĠAuthor ization
do ing
rog ation
ĠFoll ow
ĠIgn ores
ĠMis leading
ĠPet ition
Ġrecogn ition
Ġpopul ist
ĠMoment um
Ġdefeat ed
Ad am
ĠExecut ions
Ġmist akes
ĠLim it
ĠAlex andria
Ġcontest ed
Ġfoot age
ium s
Ġattemp ted
Ġdisg raceful
ĠStat ues
ĠSand ra
Ġexecut ives
Ġpers u
ĠEmp ire
Ġvac ation
Ġprincip le
ĠId ent
just ice
Ġloss es
ĠMag azine
Ġprofess or
ĠRece ive
Ġteen ager
Ġpurs uing
ĠHam as
Ġindic ated
ĠCoup le
ĠBrit ain
Ġtact ic
ĠSupp ression
Ġcollect ive
Ġbatt leground
Ġdiss ent
OR K
equ al
Ġsolid arity
Dan iel
Support ers
Ġmount ing
cript ion
Ġbur den
Ġignor ant
ĠWealth y
ĠFarm ers
Ġfel ony
emin ist
Ġcontent ious
ĠClin ics
Ġcas ual
Ġvirt ually
ĠTraff icking
ht ag
Lou is
ĠPract ice
Ġexerc ise
Ġperman ent
Ret ired
ĠAdvis ory
Ġrough ly
ĠTact ics
Ġpreced ent
Ġsurv ive
Tweet ers
List en
ustain able
ĠAustral ia
chang es
wor ks
Ġdedic ated
ĠKa epernick
Ġplaint iffs
ĠEmbass y
Ġinvolve ment
Eth ics
ĠSolid arity
ĠHeb do
) _
/ Â¯
A w
B rit
C ory
C ities
D ay
D aily
D HS
E c
E arlier
E nergy
F ar
G old
H A
I d
J ason
K eep
L K
L iberal
L iber
M E
M or
M ade
M eg
P r
R ad
R esp
R omney
S il
S essions
T ell
T reasury
V iew
W eek
W hether
\ _
a gh
a otic
c hool
d ad
e ign
f ast
f ront
g en
h a
h our
k ins
m ad
m ajor
n i
n ib
p ower
r ite
r ings
u ating
w ould
x en
z ing
¤ Ķ
Ã ±
Ġ ought
er ately
re ening
en ar
or ous
it a
ĠA le
ĠS ant
ĠS ally
ĠS ong
ĠS ources
ĠS oul
ĠS leep
ĠC umm
ĠC zar
ar ia
ar ians
Ġw ages
Ġw ounded
Ġs ites
Ġc ur
Ġc abinet
Ġc ameras
Ġc eremony
Ġp rim
Ġp icks
Ġp lea
Ġp risons
Ġf iscal
ĠP ep
Ġo ath
ĠD ismant
ĠD ylan
ĠO sc
ĠO mar
ĠR ent
ĠR ating
ĠW alter
ĠH ond
ĠH enry
ĠB aker
ĠB aby
ĠF est
ĠF ury
ĠM ent
ĠM ine
as se
ow een
el ing
ĠG ab
ĠG ina
ĠTo omey
ĠTo xic
am eless
ĠL ink
ĠL oser
ut ed
ut ical
ad s
Ġl obbying
Ġl abel
em eter
nd rome
ĠIn mate
Ġg rant
Ġre election
Ġre leasing
Ġfor cing
ur a
Ġe ager
Ġe arth
Ġst akes
Ġst ruct
ĠJ am
ĠJ umps
ce st
ĠSt eel
ub e
ho p
ri ello
ts burgh
ĠV ulnerable
ĠV olunt
ĠK id
Ġv ital
os a
aw ed
Ġat h
ĠY ellen
ĠY ORK
Ġr ide
Ġpro jects
ĠClinton s
amp ions
over eign
ĠSen ior
ĠAs h
own ed
ĠSh ame
ĠSh arp
Ġwe ed
Ġdo ors
ace utical
ĠAl ive
ian n
ĠUn employment
ĠSp in
ĠSp ring
ĠPol icing
hing ed
Ġun able
Ġun acceptable
Ġ201 9
Ġcl ot
ĠSc hed
ĠSc heme
orm ous
enc ement
Ġrep utation
eat ing
eat her
old s
old ed
Ġcont acts
ĠBl aming
act ive
ĠMar jorie
iss ue
ov ation
Ġexp ansion
Ġcampaign ing
ĠUp set
Ġact ivities
Ġdec line
Ġinc ompet
Ġen emy
ik ed
Ġmon ument
Ġcons ervatism
ĠBan ned
ert ies
Ġbl og
Ġshe l
ead ows
St rong
eg ment
ĠAll en
ĠRef uge
ins ki
here nt
ĠEnd angered
ah ren
ĠExp ensive
Ġinter ference
Ġinter pret
Ġpart ial
ĠNo ah
ĠRec k
ĠDec ided
Ġins ists
rap y
Ġadv anced
Ġman aged
ĠComp lex
Ġgun man
Ġint ense
Ġ4 3
Ġ4 00
Ġass ert
Ġrel ative
Ġsur rounding
ĠCo ff
uct ant
ĠBar ry
Ġtra in
ĠPer riello
Ġcritic izing
ĠConf irmed
ĠTra gedy
Ġwin ners
Ġem otional
Ġcol league
Ġprop aganda
Ġser ver
Ġcor respond
ĠSome how
rison ed
Ġprom oted
ĠAf raid
irm ing
Ġent ertain
ĠRo ose
Ġsub poena
Ġret ail
Ġret urned
Ġdem ograp
Ġob struction
Ġ200 3
Ġhear ts
Ġdist ance
Ġel igible
ĠPass ing
Ġext ended
Ġsw orn
Ġaff ordable
inc ing
ĠOpp osed
Ġtest ed
Ġbusiness man
ĠReg ister
Pro f
Pro bably
ĠSw eeping
Ġden ies
Ġ7 5
ĠNe ither
ĠProm ote
Ġannounc ing
ĠGre atest
ĠDeb bie
ĠJu an
Ġhold s
enn ifer
Ġstep ped
ĠBusiness es
ĠBro oks
Ġprof it
Ġprof ound
Ġprof its
ĠGar c
Ġdiv isive
Ġemploy ee
ai wan
Ġne utrality
Dis g
Ġpick ing
ĠDecl are
ĠAppro ve
Every body
ĠHon est
Ġspeak s
ĠSer ver
ĠKn own
Ġrespons es
ĠChild hood
Ġcar bon
Ġfocus ing
Ġmain tain
dog an
estro ying
ĠRequ ire
Ġmid st
ĠLegisl ative
Ġground s
Ġliberal s
Ġdam aging
Ġaccept ed
Ġtrou bled
ĠBas eball
Ġcomplain ts
Ġdr inking
Ġrecogn ized
Ġsol ar
ĠConv iction
ĠArg uments
Ġ199 0
ĠNon partisan
Ġhor ror
ĠJon i
ĠEng lish
Ġbirth day
ĠDoug las
Ġappoint ed
ĠLa uren
Ġreb uke
Ġesc ape
Ġcondem ned
ĠAccus ers
ĠAccus ations
errymand ered
NY C
itz er
Ġparticip ate
Ġrequire ments
ĠSal v
ĠPul ling
ĠFew er
ĠExpect ations
Te a
Ġeth ical
ĠCommun ities
Ġexist ence
Ġdream s
Ġdraw ing
ĠTrad ition
ĠLar gest
ĠProb es
Ġmeaning ful
ĠAust in
Ġdiscrimin atory
Ġstreng then
Trans gender
ĠNegoti ations
Ġovert urn
ĠPray ers
ĠKat rina
ĠAppear ance
Per haps
ĠDro pping
Ġdestruct ive
Ġdepart ments
friend ly
ĠDeport ations
ĠInclud e
Ġelimin ate
ĠDesp erate
Ġremark able
Â¯ \_
Ġsurviv ors
ĠInn ocent
ĠRecogn ize
Ġsacrif ice
Ġouts ider
Ġpatriot ism
leph ant
Step hen
Prosecut ors
Dream ers
Ġcorn er
Veter ans
ĠRee lection
Foll owing
ĠNAS A
Ġrapid ly
govern ment
ĠIntroduc es
ĠMA GA
)_ /Â¯
enar io
ĠCumm ings
Â¯\_ (
' ?
3 00
B re
C H
C ount
D R
D ist
D ebate
D ennis
F ull
J ack
K E
K n
K erry
M orning
M oyers
P ost
P ete
R I
S C
S ure
S eek
S audi
T en
T ur
a o
a ver
c ious
d uce
e u
f ere
g ent
h ave
i en
i ated
l ip
l osed
l iament
m ond
m osp
o e
o ons
p at
r int
r illed
s ome
t ru
t ling
u k
u gh
u ations
ã ĥ
Ġ urgent
Ġ xen
Ġt ech
Ġt ale
Ġt onight
he alth
er ious
re land
at ican
ĠT y
ĠT oug
ĠT rey
ĠT aiwan
or rect
al ing
Ġa st
ĠA ble
ĠA cknow
ĠA aron
ĠA voids
ed e
ĠS om
ĠS ound
ĠS everal
ĠS ource
ĠC ook
ĠC iting
ĠC ertain
ĠC ites
ic ated
ic its
Ġw ide
Ġc old
Ġc urb
Ġc alm
Ġp lease
Ġp ool
Ġf inger
Ġf rank
Ġf ifth
Ġf requ
il ot
ĠP und
ĠP rot
ĠP ret
ĠP uz
ĠD EA
ĠD rive
ru d
Ġb rutal
Ġto ss
ĠR are
ĠR oman
ĠR ages
ĠR idiculous
ĠW ear
ĠW aters
ĠH ike
ĠH ij
ĠH HS
ĠB al
ĠB ee
ĠB ott
ĠB rew
ĠB rus
ĠF ill
ĠF reak
ĠF ellow
ĠF racking
ĠM O
ĠM ic
ĠM el
ĠM eadows
as ey
Ġh yp
Ġd ism
Ġd ollar
Ġd ignity
Ġm iles
Ġm obil
Ġm ixed
Ġin itiatives
ac ey
ol ish
ĠN orm
ĠN elson
ĠN BA
ate g
ĠL iz
Ġl oser
Ġl iar
Ġl eng
em ed
ro ken
Ġg ar
Ġg old
Ġre aching
Ġre velations
Ġre levant
Ġis ol
ist ics
âĢĻ :
Ġst unning
Ġbe ating
ĠJ en
ce eds
ĠSt eal
ĠSt ops
ĠSt rip
ul us
ra pping
ra ined
ĠV ow
ĠV irgin
ĠV iral
Ġcon ven
Ġcon struction
ĠK icked
th ink
th irds
end ez
ive st
ab il
aw ays
Ġle th
ĠY outh
Ġr idiculous
Ġsh ake
ag a
ag g
Ġch ap
Ġch amber
Ġex ists
Ġex isting
eb ert
ĠSh rug
ĠSh uts
ĠSh adow
ĠRe verse
Ġal ert
Ġsp irit
ĠUn fair
ris h
Ġun iversity
Ġun insured
Ġun expected
Ġcl ar
Ġcl ash
ĠSc rutiny
Ġup hold
ĠBl ast
ĠWar ned
Ġres olution
ĠOff shore
ĠBill Moyers
ren cy
ĠWill ing
Ġexp l
ĠFl ight
Ġru m
Ġru sh
Ġsc ene
Ġrec k
ĠCar bon
Ġcount ing
ik h
ib an
Ġcons ist
Ġthem e
ĠMc Auliffe
Ġcomm ittees
ĠDep t
ĠDep art
anc er
Ġdon ated
vel t
ĠAr ch
ĠBack fires
ĠQ Anon
Ġar ch
St and
eg lect
Ġper mission
ĠRef er
ĠIm medi
ĠAb solutely
ĠAb andon
oss ier
Ġam bitious
ĠExp ort
ĠExp oses
Ġrem ind
Ġrem ained
Ġinter vention
ĠTax payers
ĠQu arant
ĠYork ers
ĠRec ru
An n
ron ts
Ġind icted
Ġind ictment
Ġind ustries
ĠCol lect
ĠComp et
ĠComp letely
ĠWork ed
ĠBo ebert
Ġint olerance
Ġ4 1
Ġ4 2
ĠCom merce
eth ane
ĠInd ictment
ĠBec oming
Ġreg ister
ĠCo op
Ġpres ence
sh ot
Ġinvestig ators
Ġadd ing
ĠSur rogate
Ġref uses
ric ulture
Ġban ned
Ġfund ed
ĠSign ed
Ġ9 9
Ġlegisl atures
ĠCor rect
ĠCor porations
Ġconc ept
Ġconc lusion
Ġseem ingly
Ġconf idence
Ġgu ess
irm ative
ĠPar liament
Ġent ry
reg ard
Ex isting
ask ill
ĠDen ier
ĠDen iers
ĠIS IL
ĠChief s
Ġhead line
Mar ch
ĠInc umbent
ĠTru deau
ĠRel igion
Ġalleg es
Ġlegal ize
yn ical
Ġaff air
Ġbo asted
ĠReg rets
ĠSlam med
ĠCritic ize
Ġ7 2
ĠWalk out
Un ion
ĠCent ers
ĠPoll sters
Law maker
Ġcivil ian
cl aim
ph one
Ġemb raced
Ġperson nel
ĠBel t
Ġbillion aires
Ġwr iter
Ġauthor itarian
ĠOpen ly
Ġpoll sters
rag ile
Ġexc use
Will iam
Ġdiscuss ions
Ġpick ed
.' "
ĠExt end
ĠDecl ines
Ġsupp ression
Ġconv inced
ĠPlay ers
Ġlo oming
Ġbreak s
ĠDan iel
ĠBomb shell
ĠFall ing
ĠFall out
OT U
Ġsusp ects
Ġmain t
ĠGen ocide
ĠSk ip
Ġap ology
Ġextrem ist
Ġextrem ely
Ġtrad itional
Ġalong side
Ġocc asion
ĠMod ern
ĠMod erate
ĠFlag s
ĠDefeat ed
Ġfall ing
arr assment
ĠBern stein
ĠEr dogan
Sec ond
Ġfalse hoods
ĠEng agement
EA L
ĠSurpris ing
ĠBring ing
ĠPred icts
Ġaud io
Ġcomment ator
ĠEnt ry
Ġadvoc acy
ĠMor gan
Ġmot ion
Ġlaun ch
Ġcoup les
ĠStat us
Ġvis ited
Ġexecut ed
ett e
ĠAccount ability
Ġmag n
ĠDif ference
ĠAnton io
Ġpo ised
ĠBur r
ĠCoup les
ĠFore ver
ĠMeas ures
ĠWr ite
Real ly
ĠII I
ĠTransp arency
Ġtyp e
ĠWithdraw s
Ġphys ical
Ġten ure
ĠAtlant ic
ĠRespons ible
ĠRespons ibility
Bet ter
Lead ing
Ġoverwhel mingly
ĠSurv ive
Ġdri ven
Ġforg otten
ĠAbs urd
ĠDocument ary
Conf ederate
Ġimpro ving
author ized
Ġsever e
Ġquiet ly
Ġpray ers
Deb bie
ĠMyst ery
ĠUnve ils
Ġunivers al
Ġguarant ee
Ġregard less
ĠBru ce
ĠStrateg ist
Ġreplac ed
ĠIr ma
ðŁĶ¥ ðŁĶ¥
Famil y
ĠSpokes man
Pal estin
Ġconvent ional
ĠInst agram
ĠNeigh bor
Ġplead ed
Ġcoop eration
rev or
ĠRif le
Ġethn ic
irstri kes
henomen on
nib us
ĠRoose velt
lip se
ãĥ Ħ
ĠPuz der
2 50
6 00
A uthor
B obby
C all
C ity
C ome
C riminal
D el
D rug
D akota
D evin
D ianne
F ear
G reg
H CA
H amilton
I F
J ill
K evin
L arry
N ext
N uclear
O uch
S ens
U kra
V t
V ice
W alk
c a
c ient
d ated
h ol
h icle
h aust
i ou
i os
i ased
l ass
o op
p art
p erson
r ors
u ros
w eek
Ġ @
Ġ urban
in n
in th
Ġt ro
Ġt ort
Ġt remendous
on ies
at eral
ĠT emporarily
it an
it ens
ĠA IDS
ed y
ĠS ort
ĠS ix
ĠS ale
ĠS itting
ĠS abotage
ĠS EAL
ĠC aut
ĠC ameras
ĠC eiling
ar ro
ar ray
Ġw alking
Ġs un
Ġs now
Ġs ets
Ġs ounded
Ġs uicide
Ġc rus
Ġp ed
Ġp air
Ġp arent
Ġf ees
Ġf irms
Ġf ulf
Ġf avors
ĠP in
ĠP rem
ĠP itch
ĠP hoenix
ĠD C
ĠD ow
ĠD ate
ĠD ana
ĠD iversity
ĠD NA
Ġb le
ĠR out
ĠR ip
ent less
ĠW alks
ĠW ishes
ĠW edding
ĠH y
ĠH art
ĠH iring
le ments
ĠB unch
ĠF ence
ĠF allen
ĠF ier
ĠF ried
ĠF atal
ĠM and
ĠM ast
ĠM inds
ĠM erc
ĠM igrant
ĠM LK
Ġh am
Ġh undred
Ġh acking
ot om
Ġd ial
Ġd umb
Ġd yn
Ġd ishonest
Ġm ic
Ġm our
Ġin ability
Ġin accurate
ay ed
ig en
el er
ĠG aff
ĠG itmo
ĠN ick
ĠN ears
ĠN egative
im ates
ĠThe ories
ĠL ab
ĠL ind
ĠL abel
ĠL ahren
Ġl i
Ġl ots
Ġl ift
ĠE duc
ĠE rupts
ro ved
Ġre ference
ur ately
Ġe ast
oc uses
ist ers
ĠU t
Ġhe ight
Ġst aun
Ġbe ar
ce an
ĠSt reng
un ion
ra it
ĠV atican
est ed
ĠCon g
ĠK ris
ust rial
ee le
up s
Ġas pects
ight ed
Ġr ing
Ġr ational
Ġsh ocked
Ġsh ield
Ġsh aring
Ġj oked
Ġpol icing
amp les
ag ging
ex isting
ĠAs ia
ĠSh ocking
ĠWh istleblower
gain ing
ap hor
Ġad vers
ĠIt aly
ere otyp
ĠUn cle
ĠUn iverse
ĠSp arks
ĠSp eeches
Ġun iverse
ick ets
Ġall iance
Ġcl imb
ĠNot e
ret ch
Ġjust ify
ĠBut ton
Ġres olve
ons ored
ĠMar sh
Ġstate wide
min ation
min ute
ĠJust in
Ġatt itudes
ĠDo ors
Ġcampaign ed
ĠUp coming
Ġdec ency
Ġsc heme
Ġrec ipients
ĠEm manuel
Ġqu o
Ġqu ote
Ġcomp uter
Ġcomp rehensive
ib i
Ġmon uments
ĠNews om
Ġcons umer
ĠDef erred
ĠComm it
ĠComm itted
Ġhelp s
ĠQ aeda
Ġund o
ĠMon ument
ĠCont empt
ĠRef usal
ins ky
Ġwar rant
ĠIm age
Ġnomin ated
ĠAb road
Ġevery day
att ack
ĠExp anding
eak s
ĠAcc ord
ĠAcc omp
Ch ildren
Ġse a
rop ortion
Ġunder way
ĠPolitic o
ĠPolitic ally
As s
aliforn ians
ĠInter n
ĠBr and
Ġmed ic
ĠCol umn
lain e
Ġman age
ĠWork place
ean ing
ĠUnd o
ĠUnd ecided
cent ury
Ġ4 6
Ġass ume
lud e
Ġra in
ash ion
Ġ19 14
ĠPer iod
Ġpres ented
ĠAss ange
ĠFac ed
olog ies
ĠIns urrection
Ġref ugee
ĠTri be
ij ah
ĠSign ing
ĠRem ark
ĠRem oves
ĠLet ting
Ġeconom ics
Ġche mical
aun ts
ĠRul ed
Ġret urning
Ġhard ly
Ġpercent age
Sc alia
Ġgreat ly
ĠShow ed
ĠPre vention
Ġpress ing
Ġco ol
ĠKill ings
ĠProtect ed
Ġext end
Ġext ension
por ation
Ġalleg ing
Ġtrans l
Ġsw eet
ĠProp erty
yn n
pl aced
Ġappro ve
Sh ame
ĠJeff erson
ĠPat ients
Ġgr assroots
Ġve hicle
Ġconsider ation
lic ation
uel ess
Ġcent rist
Ġfact ors
Ġhost ed
urb in
ĠPr ince
Ġstep ping
Ġhand ling
Ġhand ful
Ġemploy ers
Ġval id
Ġrecord ed
ĠFar go
Ben ghazi
ĠBre yer
ĠAir lines
Ġne uros
Ġhon oring
Ġsupp ly
Im agine
ĠSex ually
ĠInv ite
Ġsoon er
ĠMatt hew
Ġsurpris ingly
Ġrepeal ing
Ġsusp ected
Ġelse where
Ġpred ecess
Ġlear ning
ez uel
Ġexpect ations
Ġcounsel or
ĠSent encing
Ġprevent ing
Ġarrest s
ĠPort man
Ġshoot er
Ġwealth iest
Ġadm its
ĠViol ate
Ġenc ounter
ĠHall s
ĠIgn or
Ġdisp roportion
Ġinj ury
Ġdemonst rated
Ġsuff er
Sec retary
ĠInterest ed
Ġdeter mined
Ġhor rible
ĠEng ine
Ġpan ic
Ġbomb ing
Ġoper atives
oul ter
ĠHun ting
Ġappoint ment
ĠComplain ts
leas hed
Ġill ust
ĠGl ass
Govern or
Und ocumented
Ġdesp air
Ġz ero
ĠLiberal s
Ġhero in
ĠRepresent ative
Ġexecut ion
Ph ot
Ġdro pping
Ġdram atically
Ġstrateg ic
ĠId aho
asc ism
ĠSol itary
Ġparticip ation
Ġca using
Ġer up
Ġorganiz ers
Rel ated
hic les
Ġdocument ary
ĠBer lin
Go ing
Ġwarning s
hib it
ĠLib rary
ĠAssoci ated
Leg isl
ĠRod ham
Christ ie
Ġ198 0
Cor porations
Ġimmedi ate
Ġhistor ically
ĠVo ices
Leak ed
Work ing
worth y
alm art
Ġspot light
ĠProb ing
Israel i
Ġslow ly
Co al
Ġinform ant
ĠMil waukee
ĠCust ody
ĠCust oms
ĠFel ony
Ġdestroy ed
ĠVac ancy
ĠCond itions
ĠClin ic
ertific ates
Ġoccup ation
Ġdevast ating
onc iliation
Ġlik el
Ġmanufact uring
Ġexperi enced
Ġloy alty
Ġskept ical
Ġscient ific
Ġinsult ed
Ġsharp ly
Ġtim ing
ĠTal iban
ĠUnc ertain
Med ia
ĠDri ver
ĠKirst en
lem ency
ĠQual ified
Medic are
Ġi Ph
Ġcaut ion
Ġcatastrop he
ĠJes us
ĠScient ist
anth a
Ġphil os
Ġbankrupt cy
ĠQuick ly
Ġsac red
Ġestab lished
respons ible
Lat ino
Louis iana
agh dad
emeter y
Ġleth al
" ?
A ut
B S
B an
B ipartisan
C ho
D esp
D angerous
E v
E arly
F lynn
F unded
G r
H ate
H old
I gn
J os
K asich
L E
L a
M ary
N D
O K
P S
P ast
P ark
R og
S elf
S even
T S
U M
V A
_ _
b ac
b ec
c ot
c omp
c ely
f ell
f ired
f eld
g reat
h igh
i ec
i very
j en
l im
m od
m other
m ongering
o qu
p ass
p olitical
s m
t hat
u h
v oy
w ealth
à ¦
Ġ Ġ
Ġ err
Ġ Âł
Ġt ou
Ġt ar
Ġt ur
Ġt ape
Ġt ackle
Ġt outed
Ġt emper
on ia
on ey
an ing
an ity
an ish
an ied
an king
ĠT able
ĠT rop
ĠT rap
en a
or us
or ough
ing ers
it o
it ize
ĠA th
ĠS ize
ĠS ucceed
ĠS OTU
is ely
is ible
ĠC ult
ĠC ards
ĠC urb
ĠC emetery
es ome
ic les
Ġw el
Ġw aging
Ġw ounds
Ġw aste
Ġs af
Ġs aving
Ġs ky
Ġs overeign
Ġc le
Ġc ul
Ġc riminals
Ġf ell
Ġf eds
ĠI ce
ĠP ear
ĠP ap
ĠP owers
ĠP OTUS
ĠP urge
ĠP ardons
ĠD iff
ĠD ilemma
ĠD arren
ĠD urbin
Ġb ot
Ġb ond
Ġb ump
Ġb right
ĠO vers
ĠO dds
ĠR igged
ĠR alph
ĠW ing
ĠW earing
ĠH at
ĠH our
ĠH ates
ĠH ails
ĠH eller
ĠH obby
ĠH omes
le en
ĠB rat
ĠB old
ĠB arely
ĠF et
ĠF ees
ĠF inger
Ġh o
Ġh al
Ġh air
Ġh int
Ġh iding
Ġh aunt
Ġh abit
Ġd rast
Ġm il
Ġm outh
Ġm aster
Ġm asks
Ġin quiry
ay or
ac ob
ig ation
ig are
Ġth in
Ġth ousand
et ed
et tlement
ĠG ig
ĠG all
ĠG reek
ĠG avin
ill a
ĠN ig
ĠN onsense
im a
ĠL ame
ad v
Ġl ongest
ĠE rupt
Ġre wr
Ġfor um
ir s
Ġe at
Ġe lev
oc ative
oc ah
ĠU lt
ter ror
Ġst amp
Ġst ops
Ġst range
Ġst ricter
Ġst ereotyp
Ġbe autiful
ĠJ ailed
ĠSt alls
ul ogy
un ked
un ction
ri pp
ri ots
ri eve
ri bery
ĠV ol
ĠV ision
ĠV ets
ain ted
est s
ĠCon c
ĠCon stituents
Ġcon nected
ch ief
ess ica
Ġv ia
Ġv igil
ost a
ost al
Ġas pir
ĠCh ances
ĠCh amber
ud e
ke ep
ĠY iann
iz za
Ġpro duce
Ġj ihad
ass ination
qu es
um a
um in
uc c
ĠSh a
ĠSh red
ip es
ap eg
Ġal ter
av al
av ored
Ġad vertising
ĠAl arm
ĠAn x
ĠUn f
ĠUn armed
ĠUn fortunately
ĠSp ying
Ġout lets
ĠAre a
Ġwh istleblower
Ġcl ients
to gether
ĠSc am
Ġup hill
ven ile
ran g
ĠCongress men
Ġcont ained
Ġcont rolled
ĠBl ake
In sp
Ġexp los
Ġacc use
Ġacc using
ĠUp holds
ĠFl oy
Ġru lings
Ġdec e
Ġdec isive
Ġsc ram
Ġtw eeting
Ġgovern ing
Ġrec over
Ġrec ount
Ġinc redible
ĠState ments
Ġme g
ug s
ĠAct s
ott a
Ġcons ervation
ĠDep orted
Ġdon ation
ĠAr riv
ĠDef ender
Ġbl aming
ĠBack ed
ĠComm encement
Ġar rog
vers ion
ĠAll ows
Ġnomin ating
ĠAb ility
ĠAb users
Ġam ounts
ĠPl aces
ĠExp los
Ġop erate
ĠAcc ounts
ĠAcc identally
Ch ange
ram s
esp ie
Ġse ize
Ġdef ined
Ġunder c
ĠBig otry
ath leen
ĠMan agement
ĠMan ufact
ĠApp rentice
ounc es
ĠInter vention
Ġind ef
ĠCons umers
Ġ3 4
Âł Âł
ĠBo asts
omet own
ĠTe le
Ġgood bye
Ġsign ing
Ġsign als
ĠInd ividual
Ġass ess
Ġass ured
ĠShe ldon
ĠCo hn
Ġ19 15
ĠWin ter
ĠConf inement
Ġwin ter
Ġadd ition
Ġref usal
ull ies
ĠSy ndrome
ĠRem ind
ĠRem oval
ĠCor ps
ĠMcC askill
She ldon
Ġconf usion
Ġthreat en
ĠDem onst
Ġche er
ĠInvestig ations
Ex clusive
ann els
ĠInt imid
Ġte ens
ĠRet weet
Ġset tlement
Ġob tain
Ġmin ing
Ġmin ister
Ġ200 4
ĠDen nis
ĠPre fer
for ced
Ġde leg
Ġel der
Ġprotest er
Ġsl avery
ĠThink ing
Ġtrans form
Ġsw ift
Ġaff ects
Ġbo asts
ĠReg ime
ĠReg ret
ĠSw orn
ĠSw eet
ont as
rupt ly
ĠSocial ist
ĠAdd s
Ġfind ings
sp ecially
ĠTravel ers
ĠDist ricts
ĠChallen ging
urb ed
aug hed
ki pping
ĠLo oming
Ġfeel ings
Ġsent enced
Ġsent encing
Ġsent iment
ĠEd wards
Ġmod er
ĠSee ing
run k
Ġdecl aration
Ġbas eless
Ġbas eball
Ġrepresent ing
Ġdirect ed
Ġhon ored
ĠWatch ing
Ġunf ortun
ĠLew insky
ĠShoot s
Ġinterview ed
ĠSub sid
ĠSub poenas
Ġlo an
ĠBillion aires
Ġfail ures
roll ing
Ġlow est
ĠDiv orce
Ġprosecut ion
ĠAddress es
ĠSusp ected
ĠSusp ended
Ġprovid ers
Ar t
iti que
Ġrev ive
iar ism
Ġextrem ists
Am ong
tern atives
ropri ately
ĠAw ful
Vot er
Ġjournal ism
Ġaccept able
ĠHall oween
lement ary
Ġdisp ute
Ġdemonst rate
Tom Dispatch
Ġfair ly
ĠNY T
Ġequ ival
Ġracial ly
Ġdev ices
ĠLie u
ĠRead ing
ĠChristian ity
rend er
ĠFind ing
ĠCy cle
Ġtown s
pect ive
Ġappoint ee
Ġfun ny
Ġroll ing
Miss issippi
Ġill ness
Ġfore ver
ĠBrief ly
Ġdiplom ats
Ġdesp erately
Ġmot iv
Em ails
win ning
Ġmother s
Min nesota
Ġsan ctuary
ĠMother s
Ne ither
ĠSol ve
ĠSad ly
Ġca uses
orrow ers
Ġsold ier
Ġcoll usion
Ġcond ition
ĠStrong er
Te achers
ĠFun ny
Rac ism
Ġliber ties
ĠSho p
eng ers
Ġleak s
Ġ202 2
Ġemer ge
arcer ated
ĠDog s
Ġpund it
ĠMist akes
Ġdomin ated
Remember ing
Ġcontract ors
Ġpredict able
Ġwitness es
ĠInvest ment
ĠWithdraw al
Ġappl aud
Ġabs urd
ĠCB S
ĠLos ers
ĠAc qu
Mex ican
Ġsect or
ĠPray er
Ġextra ordinary
Major ity
ali ation
ĠGill espie
Ġoverwhel ming
Ġut ter
Ġdri ver
Ġclin ics
ĠSuff er
ĠWond er
ĠMus ic
Ġneighbor hoods
Ġcas ino
ĠEsc al
ĠTraff ic
Ġexperi ences
Ġessential ly
Ġproced ural
ĠAdop t
Ġunw illing
ĠVers ion
Ġtraff ic
Alex andria
ĠTar iffs
Ġhack ers
ĠNort hern
Ġreven ue
ĠDetain ees
nest y
ĠBon kers
qualif ied
asket ball
Ã¡ n
Ġou sted
ĠProvid ers
icop ter
ĠPod cast
Ġmus ic
Ġconclud ed
agog ues
ĠPerform ance
Cub a
sec ret
Ġpharm aceutical
major ity
Ġconsist ently
Walk er
iou x
otom ayor
Ġneuros urgeon
ezuel a
Ġdisproportion ately
igare tt
ocah ontas
apeg o
ĠFloy d
1 30
7 00
A D
A g
B el
B ased
B usiness
B allot
B rian
C ut
C oming
C assidy
D emocracy
E ver
F P
F eed
F ran
F riend
F emale
F CC
G ive
G ard
G roup
H ur
H ope
H aving
H ouston
J u
L ed
L ove
L ock
M er
M il
M ad
M ove
M other
N ebraska
P R
P retty
R eb
S eat
S omething
S outhern
T erm
T illerson
T revor
V iolence
V ermont
Y eah
b ear
c end
c uff
d eep
h ot
i ros
i hood
i ably
k ind
n ic
p ut
p lan
r inking
s els
t here
u able
in ely
Ġt ries
on z
er ity
at isf
ĠT um
ĠT ired
ĠT rend
ĠT aunts
en h
st yle
ing u
ĠA P
ĠA BC
ĠA chieve
ĠA hmed
ĠS id
ĠS her
ĠS add
ĠS ioux
ĠS otomayor
is p
ĠC up
ĠC row
ĠC urt
ĠC amer
ĠC oulter
ar is
es ides
Ġs oul
Ġc rew
Ġc ars
Ġc ounts
Ġc urt
Ġp od
Ġp ause
Ġp ope
Ġf ed
il ateral
ĠI reland
ĠP R
ĠP ubl
ĠP ens
ĠP add
Ġo m
Ġo we
ĠD ear
ĠD iagn
ru b
id al
Ġb ully
Ġb irther
Ġb rave
Ġb ranch
Ġb lank
ĠO z
Ġto ler
ĠR ic
ĠR ahm
ĠW al
ĠW oes
ĠW ounded
ĠH ew
ĠH orse
ĠH iding
ĠH amilton
ĠB uck
ĠB urn
ĠB ias
ĠB rutality
ĠB har
ĠB abies
ĠB ogus
ĠF ort
ĠF ully
ĠF olks
ĠF arewell
ĠM ob
ĠM ocking
as p
as ive
Ġd est
Ġm at
Ġm ocked
Ġm useum
Ġm andatory
Ġin vent
Ġin struct
ac les
ve ling
ig hed
ĠG ain
ĠG rid
ĠG MO
Ġn ort
ĠN ails
am ir
im ulus
ĠL i
ĠL anguage
ut ch
ad ows
Ġl ib
Ġl ining
Ġl icenses
ep hy
ĠE ns
ĠE laine
ĠIn g
ĠIn ho
ĠIn augural
Ġg ang
Ġre op
Ġre actions
Ġre duced
ir ation
se at
ort g
ort ing
ct ional
ĠU C
Ġst able
Ġst udies
ĠJ ean
ĠJ ulian
ce ived
ĠSt ing
ĠSt uff
ĠSt eele
un icip
our ney
ĠOn es
ĠV andal
ĠV irus
Ġan g
ĠCl ash
ĠCl oses
ĠK ay
ĠK aren
Ġv en
Ġv ol
Ġv icious
th ird
end ors
iv able
ign s
Ġwith d
Trump care
eal ed
od ing
ĠTh wart
Ġnot orious
Ġr olls
Ġpro duced
Ġsh ares
Ġsh aping
ag en
ass y
ass ing
qu an
Ġch annel
Ġex ceed
Ġex changes
eop les
own s
ĠBe ats
ĠSh ock
ĠSh akes
ĠSh ared
ĠSh ots
Ġal arming
Ġsp ends
Ġad equ
ĠPro duct
ĠAl an
ĠUn w
ĠUn ite
ĠUn insured
ĠSp ect
ĠSp oke
Ġun ited
Ġun ique
Ġun comfortable
Ġout law
Ġout going
ens hip
ĠAd ults
Ġcl ock
Ġcl erk
ĠSc or
Th omas
itt al
ĠEx ec
ran king
ĠOver time
ĠOver dose
og a
Ġcont ext
Ġcont ribute
Ġcont empl
ĠBl asey
ĠWar ming
ĠBut ler
ĠSec rets
In vestig
min ent
ator ium
ĠWe iss
ren e
He art
Ġexp ense
red ict
Ġacc epting
ĠRes ort
ĠRes ist
Ġsc ale
Ġsc ript
Ġsc reen
Ġrec reational
Ġen act
Ġen acted
ood s
ĠAct ing
ĠAct ivism
vent h
Ġimp osed
Ġcons cience
Ġcomm em
anc ies
ĠDef amation
Ġbl at
Ġbl ocking
ĠCru el
Ġund ers
ĠHealth care
St at
St anding
St udy
Ġper mit
ins on
Ġwar n
ĠIm agine
Ġam azing
Ġrem oving
Ġpre vention
rug man
Ġdis regard
ĠRec all
ĠRec omm
ĠDec ade
ĠWor ries
An ton
An gry
ĠNational ists
onom ic
Ġins ults
ĠEn vironment
ĠEn force
rap h
az e
ĠCandid acy
ĠBr ady
Ġplan e
Ġplan ts
Ġman agement
ĠLeg itimacy
ĠOp rah
ĠDown plays
ĠBo ast
Ġ4 8
Ġdisc red
ĠImp er
Ġopp oses
Ġass umed
Ġra id
ĠCo ol
ĠDis rupt
Ġfin es
Ġfin ish
ĠPer haps
ĠConf idence
ĠIns ider
ĠIns ults
ĠTri umph
Ġfund amentally
ĠAdv isers
ĠSy mp
Ġ5 2
Ġ5 00
Ġreal ized
Ġfl ight
ĠZ eal
Ġcome back
rib al
ĠPar ad
Ġent itled
Ġchar ity
Ġsystem ic
Ġsub urb
ĠInt egrity
ĠMiss es
Ġset back
Ġhard est
let t
Ġmin ute
ĠDen ied
ĠPre v
Ġco ordin
Ġde emed
Ġext ent
Al so
ĠInc ident
Ġrest aurant
ĠSch olars
Ġalleg ation
Ġtrans fer
ĠPress es
yp se
ĠProp osals
Ġrequ irement
Ġtest ified
Ġed itor
Ġplay er
ĠSm oking
Ġden ounce
ĠSuper cut
Ġfoll owers
ĠBrown back
Un ited
Ġsuggest ion
ĠSe a
ĠDel aware
ĠGre itens
Ġev ident
Law yers
Ġest ablish
ĠMem ory
ĠRest aurant
aud is
Ġview ers
ield ing
ĠStand off
Ġhand ed
Ġopen ly
Ġmis information
go ers
work ing
ĠRed istricting
Ġhar assed
Ġdecl ining
ðŁ ¤Ķ
Ġris en
ribut ion
ĠArab s
Sp eaking
ne um
ne apolis
ĠDecl ared
ĠExplain ed
Ġevent ually
ĠUkra inian
Ġinterview s
Ġconv incing
Ġrally ing
ĠList ening
ĠBomb s
ĠSer ge
Ġcar rying
ĠGen er
Ġspec ific
Ġspec ulation
con f
Ġpar alle
Ġdevelop ed
Ġdoub led
ĠKh izr
ĠProf it
Ġsex ism
ĠPri or
Ġcre ation
Ġcre ates
En ough
Ġeng agement
ĠExc use
ĠExc ited
ĠColl usion
Ġdemonst rations
Ġemp athy
prof its
ĠRespond ers
solut e
iels en
Ġwond ered
ĠConv ince
ĠLas hes
ĠLim b
ĠEp ic
Ġinvest ments
Ġcrowd s
ĠPred iction
ĠPrep aring
Ġfun eral
ĠLa ura
ĠLa quan
ĠEnt ers
ĠOrgan izing
Ġflag s
Ġroll ed
Ġdiplom acy
ĠVis a
ĠDeep er
ĠReb uke
Ġz ones
Ġvers us
kin ny
ĠEmp ower
NY T
Ġemerg ing
arrass ed
Ġfriend ly
ĠDod d
Ġspread ing
Ġencour age
Ġcoll apse
Te am
Ġir ony
Ġpain ful
Ġlif etime
Ġconduct ed
Ġsched ule
ĠSun ni
Christ ian
ĠX i
UPDATE D
Never Trump
Ġperfect ly
Ġdog s
Work ers
Ġtyp ically
Ġcap acity
Ġac qu
Ġsat isf
Ġlands cape
Ġabs ent
ĠCre ates
ĠDiplom acy
ĠFoot age
Ġdiscrimin ate
Me Too
agger ing
Charl ie
ĠBall ots
ĠFlood ing
ĠWiret ap
ĠRevers al
Ġhospital ized
ĠVac ation
Ġclin ic
Ġsens itive
ĠPosit ions
Ġrenew able
Op en
ĠAut om
Ġaggressive ly
Ġow ned
Ġassoci ated
Ġenthus iast
Ġuncertain ty
iqu ely
Ġloy al
Ġproduct s
Fight ing
Journal ist
Ġpiv ot
Ġdeg ree
Ġscient ist
Ġperman ently
fe it
Ġcrack down
ĠInj ured
Rec ent
ĠGrow th
Ġprob es
Ġtraff icking
ĠBlank enship
ĠNort heast
Ġpregn ancy
ĠNav arro
ĠLam ar
Ġsomew hat
ĠConced es
ĠClar ke
Ġlog ic
ĠDisag ree
Candid ate
Ġslight ly
Ġacknowled ged
Ġfram ework
ĠGuarant ee
Capit ol
ĠAy otte
raf ting
Ã± a
ĠSched ule
ĠGarc ia
ĠSalv ador
mosp here
claim ed
Park land
bac co
ĠYiann opoulos
Friend ly
Seat tle
ĠBhar ara
ephy r
ĠInho fe
. :
1 50
2 4
8 0
8 4
? !
? )
? âĢĻ
B irther
B eyond
C I
C ent
C ops
C alled
C leveland
C DC
C ancer
D eep
D oct
F oreign
G rowing
H ack
H uman
I r
J ake
K en
L ive
L iz
L ooks
M o
M ichele
N ative
O range
P res
P eter
P oor
P rivate
P ocahontas
R est
R ather
R unning
T rou
T ough
T aking
T orture
T rey
T PP
T ammy
V ideo
W ord
W ait
W inning
a us
b al
b ing
b ar
b id
b el
d est
e ached
f ake
g s
g ame
h mer
h ape
i oc
l us
l aim
m e
m ade
n ame
n old
r ink
r ics
s aki
t w
t ick
t les
u y
u ition
w en
z ed
Ã Ń
Ġ =
Ġ âĢĻ
Ġ ice
Ġ urg
Ġt al
Ġt ack
Ġt rop
Ġt erritory
er ia
at o
ĠT ack
ĠT oll
ĠT ucker
ĠT uls
al well
Ġthe orist
Ġa chie
it rust
ed uct
ĠS aw
ĠC ave
ĠC art
ĠC hat
ĠC os
ĠC amera
ĠC alifornians
Ġw ishes
Ġw iret
Ġs oci
Ġs add
Ġs outhern
Ġc ouncil
Ġc ertificate
Ġp ages
Ġp apers
ion able
Ġf eed
Ġf ile
Ġf leeing
ĠP e
ĠP urch
Ġo kay
ĠD ict
ĠD ance
ĠD ucks
ĠD ereg
Ġb ureau
Ġb rutality
ĠR ide
ĠR age
ĠR ails
ĠW itch
ĠW ages
ĠW aste
ĠW endy
ĠH an
ĠH ire
ĠH oll
ĠB at
ĠB art
ĠB ust
ĠB ear
ĠB ey
ĠB ears
and ez
ĠF ought
ĠF amous
ĠF eminist
ĠM u
ĠM our
ĠM ax
ĠM ale
ĠM aster
ĠM oved
Ġh ij
Ġh urd
Ġh alls
ot ism
Ġd ire
Ġd irt
Ġd imin
Ġd ubious
Ġm iser
Ġm oms
Ġm unicip
Ġin box
ac on
ig s
ig ate
ig ibility
ol ves
Ġth rown
et ing
ĠG ran
ĠG rim
ĠG rant
ĠN iet
ĠN ielsen
ĠThe ft
ĠThe rapy
ĠL oc
ĠL ord
ĠL ights
ĠL inks
ĠL ocked
ĠL ongest
ut ral
ut ocrat
ad an
Ġl ately
Ġl amb
Ġl unch
Ġl ux
Ġl esb
ep otism
em s
ĠE S
ĠE ars
Ġg rop
Ġg aps
Ġg aining
Ġg rave
Ġg errymandering
Ġg lobe
Ġre ly
Ġre duction
Ġre ducing
Ġfor th
ur as
Ġe ve
Ġe greg
ĠU nt
ew are
Ġst ir
Ġst ress
Ġst unt
ican ts
Ġbe ings
ĠJ et
ĠJ ihad
ĠJ FK
ĠSt rict
ĠSt ars
ĠSt reets
all ied
ub stant
ul g
pp o
ra pped
ĠV e
Ġan sw
ĠCon cealed
Ġcon stitution
ĠK u
ĠK lan
ĠK ept
if ax
ess ional
Ġv ocal
th orn
end ar
os edly
rat ic
ee ing
ign ant
ĠCh ampion
ud dy
aw a
aw thorn
ĠY ale
Ġhas htag
ĠAnd erson
Ġr ant
Ġr anks
ry pt
Ġpro ved
Ġj oy
ans w
ag ogue
ure auc
ĠBe ij
ĠSh ocked
ide ast
ip h
ip ient
Ġwe ight
Ġwe ighed
Ġal t
Ġal ien
Ġal together
Ġsp y
ĠAl ternative
ern er
ern andez
ict ures
ĠSp ill
ĠSp anish
Ġun ite
Ġout comes
Ġout break
Ġout spoken
Ġk ing
ĠAd ministrator
ĠSc andals
ven ue
Ġrep ublic
Ġcont ains
Ġcont racts
ĠBl itz
ĠWar rant
ĠOff ering
ove l
ov a
app ointed
ang led
Ġexp ire
Ġexp ose
Ġexp anded
ĠDo zens
Ġacc urately
Ġpl ays
Ġapp reci
Ġdec ent
Ġsc am
Ġsc ared
Ġsc rap
Ġsc enario
Ġher itage
Ġrec all
Ġrec ording
Ġrec ession
Ġinc ons
ĠState house
Ġag rees
Ġqu oted
Con n
Con cern
ik ers
ib ilities
Ġcons istent
ĠOr rin
Ġdon ate
fer ing
Ġback ers
Ġnow here
ĠComm itment
St ar
ĠAll iance
ĠAb ed
be ing
ĠPl ug
ĠExp lo
ĠExp anded
Ġinter fere
ĠAm b
Ġdis abled
Ġab uses
For get
hip s
Ġdef initely
ĠUs ual
Ġins iders
yst op
az y
And y
ĠChar ter
ounc ing
Ġcare fully
ĠBr ad
Ġmed ication
ĠCons ult
Ġ3 2
Ġ3 7
Ġdown play
ider man
ĠDeal ing
Ġint eg
urs ing
Ġ4 4
Ġdisc overed
Ġass ets
Ġreg ional
Ġrun off
ĠGu ys
ĠDis ability
Ġshow down
less ly
Ġpres erve
ĠAss aulting
olog ist
olog ically
ĠIns pired
umb ling
ĠNomin ated
ĠSign ificant
Ġdep orted
ĠUnder c
ĠUnder standing
Ġconc ert
ract ed
Ġprom ising
Ġconf inement
rib ed
Congress woman
ĠPost p
Ġmar ried
Ġmar ched
Ġfar m
Ex xon
ann y
ĠElect ing
raud ed
Ġte aching
int ended
ĠSyri ans
Ġob st
ĠPay ment
Ġmin or
ĠTake over
Ġph rase
ĠPart ner
ĠPart icip
Ġsl ated
ĠPass age
Mar ijuana
Ġtop ic
Ġread s
ĠSch ne
ĠOpp osing
ĠEndors ing
ĠServ ing
ĠPublic ly
ĠAlleg es
Don ors
ĠShut ting
Ġfound ation
ocal ypse
ĠSl aughter
ĠDeb acle
ĠHead ing
ĠHead ed
Law yer
Ġpost s
ĠDist ance
ĠCivil ians
Ġemb old
Ġemb racing
ĠPr ide
Ġsocial ist
ĠBel ief
Ġdet ail
ĠCharl otte
ĠPal estine
ĠDr inking
ĠPrison er
Ġpr ide
ĠEl ijah
Ġgen u
room s
ĠTalk ed
Can ada
Ġemploy ment
ĠCut ting
lean ing
Who ops
off s
ĠStri king
ĠRev olt
Ġred istricting
Ġconv ictions
ĠPan ama
ĠInv asion
Ġlo ophole
aut hored
ĠKn ee
Ġcar ried
Ġendors ing
Ġendors ements
ĠCover ing
resp ect
Ġbar rier
Ġart ist
ĠSent ences
Ġsk ills
Ġfig ured
ĠWell s
Ġadm ission
Ġtri umph
ĠAw are
ĠCeleb rating
ĠViol ated
Act ually
ĠEmb arrassing
ĠEmb races
Ġpract ical
Ġfix ing
ĠBas ic
ĠBoy s
Ġmeet ings
Ġinj uries
lor ables
Ġnegoti ate
Ġemp ower
ĠMet hod
Ġdr one
Ġdr ink
Ġdev oted
add ow
Gun s
ĠCour age
ĠCy bersecurity
Ġmist aken
ĠJon athan
ĠEng land
Ġbomb s
Ġbomb shell
rep rene
ĠClear s
ĠPred ict
ĠWild life
Ġnar ciss
Ġaud it
ĠHun ter
Ġfun ction
Ġcirc le
ĠMos que
ĠBrief ings
ĠCred ibility
Elect ed
ĠCoal ition
Ġbrief ings
ĠMad ison
ĠExtrem ists
Ġdram a
Ġrequest s
Ġrelationship s
Ġparticip ated
Ġ196 0
per form
ĠPriv ilege
Ġlie utenant
ĠAngel a
ĠRequest s
Res idents
lig arch
ĠPotential ly
Go ogle
aur ants
ĠGard en
Ġneigh bors
Ed ward
Cor porate
ĠRad io
Ġ202 1
Ġ202 4
ĠSimp ly
Ġfe ud
Ġmer its
Ġmention ed
ĠTrad ing
Ġobs ervers
Ġabs ence
Ġphys ician
Ġcust omers
ĠMilit ia
Ġfeat ured
Ġdig ital
ĠUnp opular
ĠUnp recedented
ĠBoo ks
Ġwind ow
ĠBul ls
ĠBul let
ĠFel ons
Ġhur ricane
ĠKat ie
Mass achusetts
han ie
ĠSpec ulation
Ġimplement ing
ĠSurv ives
ĠSqu are
ĠPopul ism
ĠDer ail
Ġid eal
Ġcross ed
ĠCond ition
Ġrenew ed
Sm all
Sm art
ĠMus k
Ġimpro ved
Ġdevast ated
Ġneighbor hood
ĠWel comes
ĠBegin ning
tr ak
Ġachieve ment
ĠEar ned
ĠVer izon
ĠContribut ion
Ġskept icism
Ġpiv otal
ĠUnve il
Ġcomb ined
ĠSim ilar
ĠVacc ines
Ġunivers ities
oil er
Ġcal c
Ġmor ally
ĠContest ed
Ġprofessional s
ĠOlymp ic
step s
ĠOl iver
Fin ally
Ġoblig ation
Ġdispar ities
ĠExper ience
ĠDesc ribes
Ġsomew here
ĠBraz ile
ĠAdvoc ate
ĠElimin ate
iat ric
Ġprot ocol
ĠPiv ot
ĠRew rite
ĠHait i
Ġdiagn osed
ĠAnal ysis
Extrem e
Ġiron ic
Ġciv ic
ĠGrop ing
Ġunve iled
Ġdiscour se
Ġcircum stances
Jew ish
WI I
ĠVen ezuela
ĠProsp ect
ĠMcM aster
Power ful
ĠMat ernity
Af ghan
fight ers
ĠHers elf
ĠOverwhel mingly
Laws uit
Ġprim arily
ĠDylan n
ĠOsc ar
Ġath letes
ateg ory
Ġchap ter
ĠShrug s
Palestin ian
Ġtro op
Ġdial ogue
igen ous
Ġstaun ch
Ġmedic ine
Rog er
ĠPear l
Insp ired
Ġelder ly
Ġequival ent
FP B
Gard ner
ĠCamer on
Ġnort hern
ĠIng raham
ĠZeal and
neum onia
ĠLimb augh
ĠNiet o
ĠBeij ing
ĠSchne iderman
2 1
3 5
3 6
8 5
A E
A M
A riz
B est
C ambridge
D P
D am
D uck
D omestic
F O
F el
G ame
G raham
H O
H el
I C
I LL
K ids
K anye
L ow
L augh
L aur
L incoln
M oral
M obil
N L
O uts
P o
P un
P ass
R ay
R un
R alph
S l
S ally
S aving
T T
T ex
U s
V ER
W in
W ater
a a
b n
b ad
b urn
c ry
c les
d on
d el
d isc
d oses
e very
f oot
i ac
i ary
i ating
j ury
l ar
l air
l osing
m al
m inded
p e
p ublic
p oints
r ide
t own
v able
w hat
z ez
in i
in v
in ations
Ġt y
Ġt ie
Ġt rees
Ġt aste
Ġt itle
on ard
an i
re c
re z
re ally
ĠT ill
ĠT one
ĠT ask
ĠT iny
ĠT ouch
ĠT apes
ĠT emper
ĠT ouching
ĠT owards
ĠT amir
en ess
Ġthe ater
Ġa ver
it ement
ĠA st
ĠA wards
ĠS ons
ĠS way
ĠS uck
ĠS ky
ĠS TO
ĠS olutions
ĠS EC
ĠS audis
is d
is ement
is enh
ĠC oin
ĠC rist
ĠC asts
ĠC lemency
ĠC awthorn
ar n
ar ization
es que
ic ente
Ġw ire
Ġw reck
Ġs ons
Ġs ale
Ġs udden
Ġs lew
Ġc iting
Ġc ards
Ġc raft
Ġp op
Ġp osed
Ġp leased
Ġp arks
Ġp henomenon
Ġf eet
Ġf aster
Ġf iction
Ġf ores
Ġf atal
ĠI C
ĠI X
ĠP ill
ĠP upp
ĠP resent
ĠP saki
Ġo dd
ĠD im
ĠD rought
ĠD uty
ĠD obb
ĠD edic
ĠD irty
ĠD rones
ĠD ianne
Ġb in
Ġb ol
Ġb urn
Ġb unch
Ġb reach
ĠO ak
Ġto w
ĠR abb
ent le
ĠW alking
ĠW right
ĠW almart
ĠW WII
ĠH a
ĠH air
ĠH ired
ĠH aunt
ĠH idden
ĠH olidays
ĠH angs
ĠH ernandez
ĠB ry
ĠB ag
ĠB urned
ĠB ucks
ĠB ibi
ĠF elt
ĠF lying
ĠF DR
ĠM outh
ĠM iser
ĠM eltdown
ĠM ideast
ĠM addow
Ġh ates
Ġh ire
Ġh iring
Ġh ouses
Ġh olidays
Ġd ates
Ġd iver
Ġd irty
Ġd ysfun
Ġd aughters
Ġm ath
Ġm igrant
Ġm akers
Ġin ex
Ġin ner
Ġin stant
Ġin augural
Ġin evitable
ac ul
ol ff
ow itz
el a
el ong
ĠG rants
ĠG rip
ĠG riff
ĠG amb
ĠG otten
ĠG riev
Ġn ative
ec ure
ĠN one
ĠN asty
ĠN athan
am i
ĠL it
ĠL if
ĠL oved
ĠL ifts
ĠL icense
ut ter
Ġl ur
Ġl ab
Ġl av
Ġl oses
Ġl icense
em ark
em ics
ĠE at
ĠE vil
ĠE ss
ro oked
ĠIn ner
ĠIn quiry
ĠIn justice
Ġg reed
Ġg rip
Ġg ained
Ġre act
Ġre ward
ew s
Ġst ead
Ġst ars
Ġst iff
Ġst ability
Ġst alled
Ġst olen
Ġst rongest
ĠJ ake
ĠSt an
ĠSt ick
ĠSt akes
ĠSt eyer
ĠSt acey
ho de
ri ors
op hy
ore st
ĠV ance
ĠRep roductive
est a
rom ised
ĠCon do
ĠCon struction
ĠIs lands
ĠCl ock
ĠCl ark
ĠK lob
ĠK anye
ĠK rugman
if orm
if ference
ch ildren
ust in
Ġv ill
Ġv ague
th us
os en
rat itude
ab ling
Ġas pect
ĠCh illing
ĠCh icken
ĠCh annels
ud low
eal ous
Ġle ts
Ġnot es
Ġr anc
ie ge
Ġsh outing
Ġsh ifted
Ġj ails
qu ake
Ġch anted
ĠAs ide
ĠAs ians
ĠBe autiful
ĠBe vin
ĠSh ape
ĠSh ifts
ĠRe ass
ĠRe acts
ĠRe velations
ip ed
Ġsp ark
eral d
ĠAn onymous
ĠSp irit
ĠLe ah
Ġun st
Ġun rest
Ġun set
Ġun just
Ġun like
Ġun leashed
ens ible
ens itive
ĠAd ult
Ġcl osing
ĠSc ore
ĠSc ared
ĠSc rap
ĠSc outs
ĠSc reening
Th ird
eed ed
ĠEx clusion
ret e
Ġjust ification
ĠMar ines
Ġover dose
ĠSec recy
ning s
ond er
In vest
min es
ov ich
Ġatt ending
Rep orts
uch ar
Ġexp ed
Ġexp ects
Ġpl ag
Ġact ed
Ġsc ore
Ġsc ope
Ġsc rew
Ġsc athing
Ġinc ent
Ġinc arceration
Ġinc orrect
Ġno ise
ĠCar s
Ġen ormous
.. ."
Ġany time
Ġcomp ly
Con stituents
ik etty
Ġmon it
Ġimp risoned
ĠMc Donnell
ĠMay ors
ĠMay oral
ĠPlan ts
Ġcomm and
ĠReport ing
vel ation
Ġbl owing
Ġbl unt
Ġback s
ĠCare ful
Ġar c
Ġar my
ult ane
St udent
St even
eg u
ĠCont enders
uck le
ĠAb rams
ĠPl us
ĠExp ands
Ġrem inds
ĠAm bitious
ĠAm trak
Ġbet ting
How ard
ĠQu ist
ĠGo al
ĠRec over
ĠRec ession
ĠDec line
ĠDec isions
ĠNow here
Ġdef er
Ġdef ine
rid es
ath on
Ġins pire
ĠApp ly
rap hic
ĠBr zez
ĠAg gressive
ĠAg riculture
ĠCons pir
ĠCons ervation
ĠCol omb
Ġadv ised
ev it
ĠComp lete
ĠOp eration
ĠBo om
ĠHar sh
Ġint ens
Ġint roduce
urs es
Ġ4 9
eth al
ĠImp ortance
ĠImp lies
Ġsign aled
Ġrel entless
Ġra ids
Ġra pper
ash a
ĠCo ordin
uth ors
olog ists
Ġnational ists
Ġcol on
Ġdep ends
ĠSy mbol
ĠRem oving
Ġ9 4
Ġ9 5
loy d
ĠZ immer
ĠRac ists
Ġfight ers
ĠFund ed
ring e
Ġquestion able
Ġfar mers
ĠRo ots
Ex cept
Ġsub sequ
Ġsub mitted
Ġret ire
ĠRet iring
Ġset tled
Sc ientists
ĠGr ills
Ġ200 2
Ġel ites
Ġsl ip
Ġhead quarters
Ġext ending
Al t
Al ong
Al aska
Ġrest oring
ĠAny where
ĠTru ly
not e
ĠPick ing
ĠEvery body
ĠHapp ening
ĠOther wise
Ġsm ear
Ġsm oke
inc lair
Re agan
ray al
ĠCritic ized
ĠLegal izing
aps es
Sh ow
Sh ut
ĠJeff rey
ĠSe ize
empt ion
ĠSet ting
ĠSet back
Ġev ac
ĠPoll ster
Ġ8 00
cl osure
ĠIss a
ĠChe er
ĠChe ap
ĠRest oring
aud s
Ġview ed
het ical
Ġdeb ating
ĠEd ward
Ġprof ile
ĠSecret ly
Ġregul ate
ĠTur moil
ĠSuggest ed
ĠMur ray
Ġeffect iveness
Ġwater boarding
Ġdecl aring
ĠOb st
Sp eaker
ĠExt ra
Ġteam s
Im migrants
ĠRev ives
Ġresign ing
Ġlim bo
ĠDiv isive
Ġprosecut e
net t
ĠTer min
ĠHost age
rad ing
ĠFail ures
Ġpred icted
Ġair line
Ġair ports
Ġspec ies
ĠSeat s
ĠMid west
ĠMen endez
Ġsmall er
Ar my
ograp hed
ĠHaw ley
Ġmid night
Ġaw ful
ĠKoch s
ropri ations
ĠPra ising
Ġform al
Bar bara
ĠAuthor ities
lin ers
ĠLear ning
ebs ites
Ġfreedom s
rog ates
Ġeng ine
Ġtravel ed
Ġfall s
Ġdeliver ing
ĠBas hes
Ġrepeat ing
ĠPhil ipp
Ġdemonst rates
lor able
Ġpun ished
Ġcomplain ing
ĠMess ages
ĠEr ror
Ġhot els
CC C
Dem onst
ĠRead ies
Ġsol itary
ĠRi pped
ĠConv inced
Ġ199 8
ĠInterest s
Ġinf amous
ĠSn itch
ĠPun ished
Ġcontest s
ĠFil m
roduc ing
Ġwilling ness
Ġopt imism
Ġvis a
Ġvis ible
Ġbrief ing
Ġep isode
ĠEmp ty
Ġvac ancy
Tr ade
ĠDod ge
Ġer ad
Ġrefer endum
Ġencour aging
uic ides
ĠRoll back
Pat riot
Ġattend ees
Ġir responsible
ĠDie go
ĠHam mer
Ġsepar ation
Ġindic ate
ĠRoad s
Ġaffect ing
Ġwonder ful
Ġmilit ants
ĠTransp arent
Ġdomin ance
Ġcap able
Ġmer ely
ih il
ĠLar ge
ĠHig hest
ĠFeel ing
Ġprem ise
Ġprem iums
ĠDiplom at
ĠAmaz ing
Ġrare ly
ĠAc osta
Ġinform ed
ĠSpread ing
ĠCancel ed
Ġexcept ions
Ġreveal ing
ĠProfess ors
Ġbreat he
ĠMil o
Ġmount ain
Ġadop ted
Ġapolog ize
Imp ort
ĠAud io
Ġloc ation
ĠSpec ies
Ġdepart ure
ari ety
ĠAbs ent
Ġid eals
ĠDestroy ed
Ġhom ic
udd ies
ĠExcept ional
ĠNar row
onc Ã©
ĠEsc ape
gu ided
Ġsearch ing
Ġfier y
Ġfier cely
Ġproced ures
ĠOpin ions
ĠCapital ism
Journal ists
Ġtoug hest
Ġcop y
ĠObs ession
ĠPunish ment
Ġcult ural
ĠPack age
ĠVers us
Ġsymp t
Ġbathroom s
ĠBuff alo
ĠForg ot
ĠChap lain
ĠOpt ions
ĠTeach out
Den ying
ĠCorn yn
Ġlaugh ing
ĠCas ino
Ġfrust rated
ĠDram a
ĠKirst jen
ĠKurd s
ĠSens itive
dis g
Ġwithdraw al
ĠAdvoc acy
Ġpurch ase
ĠSton eman
Ġconstant ly
Ġevangelical s
Ġaccomplish ments
Sand y
ĠRican s
eopard y
ĠOuts ider
Sam antha
ĠKiss inger
ĠFlo ats
Ġanticip ated
Mem o
ĠSacrif ice
Ġanx ious
Ġconsult ant
Ġunderst ands
ĠPit tsburgh
ĠBot ched
Ġproceed ings
Ġinspect or
Ġintention ally
Ġintellect ual
Il legal
ĠPur p
ĠHilar iously
Ġpersu ade
ĠSant a
Ġrelative ly
ĠCoff man
Ġdemograp hic
Ġxen ophobia
ĠToug her
Ġfrank ly
ĠBrus sels
Ġdism al
Ġleng thy
Ġfulf ill
ĠMand ates
Ġdyn am
ĠColumn ist
Ġpredecess or
ĠIgnor ance
Ġlikel ihood
ĠiPh one
Ġtur moil
Ġsovereign ty
ĠSha ub
ĠArriv als
igarett es
ĠExec s
Stat eline
ĠPe Ã±a
ĠES PN
Ġegreg ious
ĠAbed in
isenh ower
ĠDobb s
ĠKlob uchar
ĠBrzez inski
! !
! )
" ,
3 1
A A
A rab
B r
B ring
B omb
B oston
C razy
D S
D ays
D ark
E D
E st
E mp
E ither
F ort
F ather
F EMA
G E
G eneral
H or
H our
H int
I ON
I VE
J ul
K at
K ill
K aren
K arl
L ives
L eft
L EC
M en
M is
M ist
M iddle
M errick
N on
N ation
N ight
N ixon
P arents
R ights
R ev
R EA
S um
S ame
S imp
S ham
S usp
S ources
T ra
T est
T OP
T rying
T alking
T ouch
T ube
U N
U h
V accine
W on
W rong
W itch
Y esterday
a qu
c ol
c hen
c hest
c ionable
d id
d am
d ro
d eath
e ering
f ood
f ounder
h al
h it
h ab
h anced
h ima
i ation
l og
l ocked
m m
p r
p lex
p apers
r ays
s an
s it
s ub
u a
u ep
u ered
v ation
w agen
Ġ *
Ġ .
Ġ rip
in itive
Ġt ap
Ġt ribute
he er
he ists
on ian
on ely
on nect
re ll
ĠT H
ĠT ub
ĠT ho
ĠT ip
ĠT ap
ĠT ony
ĠT ips
ĠT reated
ĠT HE
or a
al van
st ates
Ġthe ft
Ġa in
it ual
it ched
ĠA z
ĠA irstrikes
ĠA HCA
ed ing
ĠS ov
ĠS af
ĠS ister
ĠS ector
ĠS ikh
ĠC ox
ĠC ares
ĠC eremony
ĠC assidy
ĠC ambridge
ĠC ertificates
ĠC ripp
ĠC FPB
ar ized
es y
ic ion
ic ians
Ġw itch
Ġs hed
Ġs ug
Ġs inc
Ġs occer
Ġs egment
Ġc hat
Ġp ose
Ġp rol
Ġp oses
Ġp ension
Ġp ocket
Ġp ardons
Ġp eoples
mp son
Ġf ur
Ġf lam
Ġf ires
Ġf antasy
Ġf etal
Ġf abric
ĠP op
ĠP ose
ĠP ipe
ĠP apers
ĠD O
ĠD or
ĠD estruct
ĠD ysfun
ĠD ossier
id i
Ġb on
Ġb atter
Ġb oo
Ġb urning
Ġb orders
Ġb ipartisanship
ĠO m
ĠR ely
ĠR eth
ent any
ĠW ynn
ĠH av
ĠH ires
ĠH itting
ĠH atred
ĠH iros
le ine
ĠB it
ĠB one
ĠB ranch
ĠB aghdad
and y
ĠF o
ĠF re
ĠF ly
ĠF eed
ĠF right
ĠF oster
ĠM S
ĠM oin
ĠM atch
ĠM iles
ĠM ovie
ĠM ultiple
ĠM igrants
ĠM ethane
Ġh ailed
Ġd rones
Ġd uties
Ġd angers
Ġd estroying
Ġm ax
Ġm ock
Ġm ach
Ġm ood
Ġm ix
Ġin stitutional
Ġin action
ac he
ac res
ac erb
ig ration
ol a
ĠTrump ism
Ġth ro
et ch
ĠG a
ĠG ear
ĠG aining
ĠG onna
ĠG abb
ĠG errymandered
ĠG DP
Ġn iece
Ġn asty
ĠTo ol
ĠN ic
ĠN OT
ĠN CA
ĠN atural
am m
am ine
im at
im ents
ĠL ake
ĠL unch
ĠL ifting
ĠL uis
ut ures
ad onor
Ġl a
Ġl inks
ĠE lephant
ĠE isenhower
ĠIn itial
ĠIn jection
Ġg od
Ġg earing
Ġre ass
ur ring
ĠU AE
Ġhe d
Ġst ud
Ġst ated
Ġst rict
Ġbe leag
ĠJ in
ĠJ ab
ĠJ ennifer
ĠSt ood
ĠSt uck
ĠSt ev
ĠSt raw
ĠSt udies
all ow
ub ble
ul kin
ho le
ri que
ri anna
igh th
ĠV s
ĠRep air
est one
art ing
art ial
ĠCl ient
ĠCl ashes
ĠCl imb
Ġcon cent
Ġcon cealed
ĠK l
ĠK al
ĠK ong
Ġv ent
Ġv andal
Ġv ariety
th is
th ur
th ia
th rough
rat s
ĠCh urches
aw n
od a
ĠTh iel
Ġle verage
ĠY az
Ġr ig
iz ure
iz ations
Ġsh ip
Ġsh ifting
Ġsh adow
ans om
ard less
ĠNew man
ous ed
ag el
ex istent
ass an
Ġch orus
Ġex amples
eb an
um ble
ors es
own ers
ĠBe ating
ĠSh aping
ĠWh ites
ĠWh atever
ĠRe un
ĠRe ich
ip ment
Ġdo om
Ġal arm
Ġal ternatives
Ġsp ar
Ġad just
Ġad minist
ok esp
ĠPro mp
ĠAn imal
ĠAn chor
Ġnew est
ĠUn ravel
ĠSp rings
omm od
Ġun known
Ġun happy
Ġout let
Ġk idding
Ġoff ense
Ġcl ick
Ġcl ient
Ġcl oud
ĠSc out
ĠSc ores
ĠSc enes
Ġup d
ĠEx ample
ran ny
erv ice
Ġor al
Ġrep lied
Ġcont act
Ġcont rary
Ġcont raception
ĠBl amed
ĠBl ument
ĠBl istering
Ġour s
Ġres idence
ĠOff ense
ĠMar qu
ond isc
In v
In frastructure
Ġatt itude
Wh atever
ĠWe aken
ĠDo le
Ġacc epts
ĠOut raged
ĠUp s
ĠFl at
Ġapp lication
Ġsc ar
Ġsc enes
Ġtw ist
Ġrec onsider
Ġinc redibly
ĠCar los
Ġag reements
Ġen able
Ġen vision
Ġen forcing
Ġcount ed
ling ton
ĠAct ivity
so lete
Con nect
Ġimp ose
Ġimp unity
Ġimp each
Ġimp acts
Ġimp licit
Ġcons ent
ĠBan king
ĠDep ends
ĠDep ression
ĠOr d
ĠOr t
ĠOr igin
ĠDef enders
Ġbl ames
ĠTr ashes
ĠComm and
ĠComm em
amil iar
ĠGovern ments
St aff
eg ree
ĠMon opoly
ĠCont act
Ġper il
ĠIm ag
ĠAb uses
ĠAb raham
ĠAb usive
Ġtr acking
ĠDon ate
ĠDon na
ept ive
ext rem
ĠAcc using
Ch anging
Ġdis rupt
Ġdis array
ĠQu ote
ĠQu arter
au x
ĠRec ipients
ĠRec reational
ĠRec onsider
Ġdef ender
Ġdef enders
ron ting
ĠNational ism
New ly
ilit ate
ĠEn emies
ĠEn forcing
ĠEn voy
ĠEn rique
ĠHel m
ĠChar acter
ĠInter rogation
Ġadv ances
ĠChrist ine
ĠComp rehensive
cess ion
Ġ3 3
fl icted
stitut es
Ġint rus
Ġtake over
Ġdisc over
ĠImp ressed
Ġsign atures
Ġelect ing
ĠShe ll
Ġrel ax
lud es
Ġra ge
rate ful
ĠDis asters
Ġown ership
Ġtra ils
Ġpres cription
ĠAss istant
ĠWin ners
Cl aire
Cl arence
ĠConf used
ĠConf using
ĠConf ronts
ĠIns urers
Ġem otion
Ġmove ments
Ġref lection
Ġ6 1
Ġprop ose
Ġfac ility
Ġant hem
umb les
ER S
ĠAdv ance
ull ied
ĠSign als
Ġdeal ings
ĠWall s
Ġ5 8
Ġfl o
Ġfl awed
Ġgu idance
rib ly
ĠDem anding
ĠPar ts
ential s
Ġkill er
Ġchar ging
ĠYour self
Ġche aper
ĠGeneral s
Ex pl
Ġsub stant
ĠElect ric
aun ted
ham mad
Ġdem on
Ġcongress men
Ġclear ance
ĠPre et
Ġcho oses
Ġdist rust
urre ct
Ġsl ash
Ġsl ashing
de legates
Ġlegal ized
ĠJan et
Ġsw itch
yn thia
Ġinv itation
Ġsm oking
ĠSw ipe
ĠSlam ming
rac onian
ĠAff ect
Ġ7 3
Ġ7 4
ĠHur d
ĠSe ven
Ġdel ays
ĠStep ping
ĠAdd itional
ĠProm oting
ĠDet ail
ĠEconom ics
ific ations
sp onsored
ĠSl ip
ĠSl aps
ĠPoll ution
Ġben ch
Ġest imate
Ġest imates
cl ub
ĠRally ing
Ġfact or
.) ,
ĠLo ophole
Ġdeb ts
ĠMark ets
Ġpr int
ĠBro ck
ĠEd itor
Ġfil es
pro mp
Ġprof ession
Ġprof iling
Ġmod est
Ġpoll ution
Ġblack s
work ers
Ġcost ly
ĠFound er
ĠFound ing
run ning
ĠBre ach
Ġmark ing
Watch dog
ipl ined
ĠDes ign
ribut ed
ĠExt ends
ĠHack s
Ġsupp osedly
Ġceleb rities
Ġmet aphor
ĠHand cuff
ĠHon ored
los ures
Ġhate ful
agon ia
ĠDiv isions
ĠTer ms
ĠCho ices
Ġmain tained
Ġbar riers
Ġassault ed
Ġart icles
hold ing
Ġpar ade
Ġdevelop ments
Ġrev ised
ograp h
Ġexplain ing
ĠHaw ks
ĠLegisl ators
ĠIll ust
Ġreject ing
istic ated
Am azing
Ġsit uations
Ġsex ist
ĠPort rait
tern ate
Ġshoot ers
Ġform ally
ĠJail house
wh ich
Ġadm on
Ġtrad ing
Ġtri be
ĠAuthor itarian
ĠCeleb rities
ĠViol ating
Ġchild hood
ĠInf ant
imin ary
ĠIgn ored
Ġstat ute
Ġfair ness
apt op
Politic s
Ġsuff icient
Ġstri king
Ġequ ity
Ġequ ally
ĠDam n
ĠView ers
Ġwond ering
Ġsim ultane
Ġpopul ations
ĠArg ues
Ġpen alties
ĠEp isode
ĠMemo ir
Ġbroad cast
ĠSn ub
Ġinvest ing
Ġoper ative
olks wagen
rep ared
Ġsil ver
ĠWild fires
ĠPrep ared
Def amation
Or gan
Rem inder
Ġappoint ees
Ġcapital ism
Poll sters
ĠRis ks
ĠPersonal ly
Ġfore most
ĠDoct rine
ĠVis as
Ġdisg usting
Ġcheck ed
ĠCred its
ĠDeep ly
ĠReb ukes
ĠVet ting
Ġsecret ly
Ġdescrib es
Ġz one
Ġmot or
Ġlaun ching
Ind epend
Ġcontribut ing
Ġcontribut ion
Ġcondem ning
Ġaim ing
Ġpers ist
Ġstrateg ies
ili ating
ĠId iot
ĠTrust ed
ĠSol ar
ĠFe els
Ġcreat ive
ĠPriv at
Ġdismiss al
ĠEqu ity
ĠPul led
Ġrefer ring
Ġorganiz er
ĠRoll ing
Res istance
ĠFred er
ĠLand mark
ĠRece ived
ĠSuccess or
Ġlif ting
Ġconduct ing
Ġindic ation
Comp anies
Ġear n
Ġboy s
ĠWr ites
ĠDisp ar
Acc ess
hod ox
oph oles
oph isticated
Dep ortation
Ġdisapp ointed
istlebl owers
bur st
Ġwitness ed
Ġhonest ly
Ġqualif y
Wor st
ĠMilit ants
Me ghan
mon ey
ĠAc ad
Ġovert urned
Bet o
ĠHor ror
ĠHum a
ĠBay h
Ġadop t
De Vos
ĠBeat en
Ġsymbol s
Ġsymbol ic
ĠAud it
ĠAud ience
Ġloc ations
ĠDelay ed
abot aging
Ġuns ubstant
ĠInclud es
Int elligence
ĠSit uation
Ġsens ible
Ġvast ly
Ġprosp ect
ĠDefund ing
Ġelimin ating
ĠPers ky
Ġspecif ics
Ġsever ely
Ġlik ed
School s
ĠBrag s
ĠDisapp ointed
Har vard
ĠSpot light
ĠContribut ions
Ġdeport ations
Ġcondemn ation
Ġcapt ured
Ġdeg rees
Ġmad ness
ĠBeg s
Ġcolumn ist
Ġflood ing
Check ing
Ġgl ass
Inc luding
ĠAdvis or
Ġpret end
ĠLock down
ĠForg otten
Ġpregn ant
ĠTor ches
ĠCa used
ĠWid ow
ĠContrad icts
Sur prise
ĠTro op
Ġfrust ration
ĠDram atic
ĠWeb b
ĠFig ure
ĠFig ures
ĠSpokes woman
Car son
ĠFeat ures
ĠToss es
rapp y
Ġvolunt eer
Ġver ge
ĠConced e
ĠUns ure
Ġcompet itive
ĠFrust ration
Ġabandon ed
ĠSkept ical
Ġcoin c
ĠRu in
Ġinfect ious
ĠOutrage ous
ĠQue en
Ġacad emic
Ġrevers al
ĠAlb right
Islam ic
ĠHay es
Ġnorm ally
Ġdetain ees
ĠDiss ent
ĠMall oy
Ġmill ennials
ĠLoy al
Ġspect rum
Ġfundra iser
ĠBuzz Feed
Protect ing
ĠReop en
Ġdismant le
Ġmos que
Ġunanim ously
Ġcasual ties
Brit ish
Meg yn
Ġcur rency
ĠPep per
ĠMent ally
Ġclot hing
ĠReck oning
Ġcorrespond ent
Ġprofound ly
RI ES
ĠBal ance
ĠDepart ure
ĠCoop erate
Ġble ak
ĠFried man
ĠGaff e
ĠCong ratul
ĠEngine ers
Phot os
Ġphilos ophy
lim ited
Ġtou ched
ĠDiff icult
Ġrewr ite
ĠUlt imate
ĠAnx iety
ĠManufact uring
Hur ricane
ĠPadd ock
ĠDiagn osis
Ġtoler ance
Ġwithd rew
redict able
CI O
hmer t
Ġurg ency
Ġmunicip al
ĠAware ness
bn b
ĠSTO RIES
Ġsubsequ ent
uep rint
ĠTho mpson
entany l
ĠHiros hima
ĠMoin es
ĠGabb ard
ĠNCA A
Ġbeleag uered
ĠBlument hal
Connect icut
Ġunsubstant iated
2 2
8 00
B ody
B athroom
B reaking
C ec
C lear
C urrent
C alling
D ying
D EA
D ES
E p
E le
F ood
F ix
G re
G ab
G iven
G reen
H istor
J oy
K in
K ing
K now
K illing
K ushner
L ate
L ittle
L ocal
L oretta
M ultiple
N one
O M
O il
O wn
O ops
P ot
P aid
P ray
P otential
R a
R idiculous
S J
S e
S k
S on
S lam
S NL
T ens
T urns
V ladimir
W is
W age
W AT
W endy
b b
b ul
b ell
b roken
c asts
d ep
d ist
f in
f aced
g lobal
h ran
i enced
j i
k ill
l ie
l ined
m or
m is
m ares
m oon
m bling
n ever
o pp
p ires
p arents
r ame
r ites
r anded
s es
s ign
s ense
s uper
t es
t ake
t ax
u um
v is
w ho
y g
y eb
Ġ upp
Ġ Â¯\_(
Ġt ear
Ġt rap
Ġt une
Ġt reas
Ġt iny
Ġt emporarily
Ġt ribal
he nt
on ed
on ce
on struction
er ks
at ab
at hetic
ĠT O
ĠT s
ĠT as
ĠT ort
ĠT apped
ĠT erritory
or i
or is
al and
al ian
st al
st age
st ock
st akes
ing old
Ġa uthors
ou red
it ate
it ect
it ans
ĠA ver
ĠA vert
ĠA kin
ĠA UM
ed er
ed en
ĠS ou
ĠS out
ĠS ore
ĠS ight
ĠS ink
ĠS hed
ĠS ites
ĠS afer
ĠS kipping
ĠC able
ĠC rap
ĠC riminals
ic ist
Ġw he
Ġw ors
Ġw oke
Ġs and
Ġs av
Ġs ink
Ġs way
Ġs ends
Ġs lain
Ġs ister
Ġs inger
Ġs ustainable
Ġs aga
Ġc at
Ġc ert
Ġc ease
Ġp our
Ġp ays
Ġp ure
Ġp ile
Ġp ark
Ġp ending
Ġp leas
ion ate
Ġf its
Ġf amed
Ġf ighter
Ġf ascist
il ess
ĠI T
ĠI rish
ĠP y
ĠP ic
ĠP rim
ĠP ric
ĠD i
ĠD ire
ĠD irt
ĠD angers
ĠD aughters
ĠD ivest
ru e
id as
Ġb ru
Ġb are
Ġb ag
Ġb other
Ġb reed
Ġb lew
Ġb abies
Ġb ridges
Ġb asketball
Ġb ureauc
ĠO h
Ġto bacco
ĠR ants
ĠR oth
ĠR ikers
ĠR hode
ent ative
ĠW ik
ĠW ray
ĠW reck
ĠW eather
ĠH ub
ĠH od
ĠH iron
ĠH yp
ĠH icks
ĠH ypoc
ĠH edge
ĠB i
ĠB ird
ĠB odies
ĠB ribery
om er
ĠF oes
ĠF urious
ĠF etal
ĠF EMA
ĠF alwell
ĠM ans
ĠM ath
ĠM ull
ĠM arth
ĠM alia
ĠM ika
Ġh at
Ġh ip
Ġh av
Ġh ang
Ġh ug
Ġh ikes
ot ions
Ġd ear
Ġd rove
Ġd rives
Ġm ere
Ġm igrants
Ġin flict
Ġin mate
ac ious
ig ure
ol uments
ol ishing
ĠTrump ian
Ġth rilled
et ary
ĠG ays
ĠG ross
ĠG ifts
ĠG host
ĠG onz
Ġn ovel
ĠN at
ĠN ich
ĠN uts
ĠN ature
ĠN eck
ĠN ukes
ĠN ader
ĠN eglect
ĠN ondisc
The n
am y
ĠL ect
ĠL uc
ĠL ots
ĠL ane
ĠL OL
ĠL ethal
ad ies
ad vert
ad opoulos
us ional
ĠE ase
ĠE van
ĠE ager
ĠE lementary
ĠIn appropriate
Ġg eop
Ġg ross
Ġg ratitude
Ġre ins
Ġre iter
ir ical
Ġe ating
oc aine
ew ed
ew ild
Ġhe sit
Ġst ore
Ġst ag
Ġst ocks
Ġst icking
Ġst ealing
Ġst roke
Ġbe g
Ġbe ach
ĠJ ul
ĠJ essica
ĠSt ays
ĠSt unt
ĠSt ruck
ul ow
un es
un ge
ho b
our cing
pp ers
ri k
ri or
ri el
ĠV ar
ĠV ill
ĠV itter
ĠV ague
ĠV icious
rom ance
ĠCon n
ĠCl apper
ĠCl arence
ĠCl ueless
ĠK y
ĠK ent
ĠK athleen
ĠK udlow
ch ild
ear ches
Ġv ig
th row
rat ives
ays on
Ġas hamed
ight ing
ĠCh annel
ĠCh ao
Ġat mosphere
Ġr am
Ġr iders
Ġr allied
iz ers
ell ate
Ġsh rug
Ġsh outed
Ġj un
Ġj ourney
ĠNew est
ĠNew ark
Ġch ampions
Ġex isted
Ġex agger
Ġex cessive
uc ceeds
ĠAs hamed
ĠSh ade
ĠWh ip
ĠRe author
ĠRe leasing
Ġsp ell
Ġsp ying
Ġsp ots
ĠHe avy
ĠHe avily
ĠIt alian
ĠPro ved
ĠAl ter
ĠAl ert
ĠAl arming
ern al
ern aut
ict ments
ĠUn it
ĠUn usual
ĠSp ar
ĠSp ark
ris e
ĠLe onard
Ġun equal
Ġun hinged
Ġun iform
Ġout raged
Ġoff shore
Ġcl ip
Ġup held
Th reat
Th rough
ĠEx agger
ven ge
Ġor ient
ĠNot iced
ĠBl og
ĠBl ows
ĠBl unt
act ers
oll ing
Ġres on
ĠOff enders
ĠMar io
Ġover look
Ġthan ked
ĠSec ure
In come
ĠJust ify
imp se
ĠWe ight
ock out
He ad
app ropriately
Ġexp licit
ĠJo y
ĠJo aqu
Ġacc uses
Ġpl ain
Ġpl ague
ĠUp on
ĠFl ights
ĠFl orid
ĠYou Tube
Ġdec iding
Ġsc are
Ġrec ounts
Ġinc arcerated
Ġag gression
get own
Ġso il
Ġcount less
so ft
Ġcomp elling
Con vention
Ġimp ression
ĠMc Cl
Ġcom fortable
ĠCampaign ing
Ġwhen ever
ĠAr lington
fer ences
ĠDef ault
ĠDef iant
ĠDef initely
Ġbl ocks
ĠBack ped
Ġback wards
ĠComm ander
Ġsen ate
Ġar bit
eg ger
ĠCont ain
ĠCont ext
ĠCont acts
ĠCont racts
Ġwar fare
Sen ior
ĠEnd less
Ġnomin ate
ĠAb ruptly
ĠPl enty
att acks
ĠDon ation
ĠSupport ed
Ġrem edy
ĠGun man
Ġpre jud
rist ol
Ch inese
Ġdis placed
Ġbel oved
emb les
emb rance
Ġse ized
Ġse venth
ĠGo hmert
ĠRec ording
ĠRec onciliation
Ġdef ault
Ġmy ster
Ġunder cut
Ġunder mining
Ġins urers
ĠEn joy
ĠEn thus
ĠApp arent
emp loyed
ĠHel icopter
And erson
ĠBr ace
ĠCol lection
Ġresp ects
ĠComp aring
ĠComp romise
ĠComp ete
ĠLeg ally
ĠDown play
ĠBo ot
ĠHar bor
Ġint end
ject ed
ĠImp ose
Ġelect ric
Ġelect ronic
Ġopp ression
Ġass et
Ġass aulting
Ġass aults
Ġrel uctant
Ġworld wide
Ġra il
ĠGu ess
ĠGu ards
Ġpolicy makers
Ġfin ancing
ĠBar red
Ġro ot
Ġtra veling
ĠAss istance
Ġinvestig ative
ĠIns ane
ĠIns pect
itiz ing
ĠSur gery
Ġref uge
Ġ6 2
Ġ6 4
Ġ6 5
Ġ6 6
Ġ6 7
Ġprop erties
ĠFin ances
Ġant ics
umb s
Ġec lipse
Ġcor poration
ump ed
Ġdep loyment
ĠRem embers
Ġ9 1
Ġ9 2
Ġ9 8
Ġ9 11
Ġprotect ive
Ġconc ede
Ġreal ities
ĠLet ters
ĠZ one
ĠZ ones
Ġprom otes
Ġconf using
Ġlet ters
ĠResp ects
20 20
20 15
ĠMo och
Ġche ering
ĠIraq is
Ġsub tle
Ġsub poenas
Ġret iring
ĠMiss p
Ġhigh way
Ġhigh lights
ĠMe ghan
ĠVict ories
Tw enty
Ġdes k
Ġdes ire
Sc ar
Sc andal
ĠGr ill
ĠGr ayson
Ġdist inct
Ġgeneral s
Ġel igibility
Ġext ensive
ĠBet o
Mar jorie
Ġrest aurants
ĠSch war
Some body
ĠPress ured
Ġsw eep
ĠDisc losure
Ġaff l
ĠUnion ize
Ġsm ile
Re id
raw ling
ĠSm oke
ĠEc ho
ĠLegal ize
Ġconcern ing
the less
Ġden ier
rican es
Ġappro aches
ĠAlleg ation
Ġimportant ly
iff any
Un iversity
Un fortunately
Ġwrong doing
ĠNe oc
,' "
ĠProm otes
ĠDel ta
sp in
Ġve hicles
Ġfound ed
Ġproblem atic
Fl a
Ġ8 7
cl us
ĠMem os
ĠUr ging
Ġcent uries
Ġfact ory
Ġprov ing
Ġprov ocative
enn y
Ġhost ility
ĠCivil ian
ĠDead liest
So on
read ing
IN ES
ĠPres erve
ĠPres chool
ĠPal m
Ġhuman e
ĠLo ose
Ġdeb ated
Ġhand gun
ĠLou d
ĠGive away
val id
pro ductive
ĠRich ards
Ġunc ons
ĠEl ites
Ġgen ius
Ġmis ogyny
ĠGar bage
Ġdiv ides
work er
ĠSuggest ion
Ġold est
sc ale
sc ribe
Ġsure ly
Ġeduc ators
Ġexc uses
Ġexc ellent
Ġter min
Ġter rifying
ĠLat ina
Ġclose st
ĠAssault ed
Dis ability
ĠOb struct
ĠQuestion able
ĠHack er
Ġunf olded
ĠLew d
ĠRev ised
Bl oomberg
ĠPlay book
ĠInv ites
ĠInv olve
Ġlo ose
Ġlo aded
Ġlim iting
Ġsusp icious
Ġcred its
Ġtreat ing
ĠTer rifying
ction ed
ĠHost ed
ĠGold berg
Ġbar gaining
ĠSk ills
ĠAdm itted
urd ers
ĠProsecut ed
Ġpar ano
ĠHuman ity
ĠBu ilt
Ġdoub ts
ĠCrime a
ĠRequ ires
ĠHaw ai
uster ity
ĠProf its
ĠProf iling
Ġmem ories
Ġreject ion
Am mon
ias co
Ġpoor ly
ĠPri orities
lo ad
rage ous
Ġappear ances
Ġbr own
Ġbr illiant
irt ually
ĠCeleb ration
Ġdam ning
Ġdam aged
ĠViol ations
Act ivist
ĠCamp s
ĠInf amous
Ġstat istics
ĠVal ue
Ġinj unction
App rentice
obb ied
ĠSum s
bo ards
Ġpriv at
Ġpriv ately
Ġunderstand able
ĠConv ictions
Ġ199 6
Ġconflict ing
Ġdefeat ing
Ġoper ating
Ġcrowd ed
ĠCast ile
ĠClear ly
aly zed
Ġcomment ary
Col in
Poll ing
Ġadvoc ated
Ġtechn ical
Ġcirc us
arre ll
Ġdisg race
Ġdisg raced
Ġreb uild
Ġdescrib ing
Elect ions
ĠMor atorium
Ġtransp arent
Ġbrief ly
Ġep ic
Ġworth y
NY PD
ili ated
ĠBow e
ĠAccount able
ĠFe ingold
Ġdark ness
Ġ196 5
ĠPriv ately
ĠEqu ifax
ĠChurch ill
Ġperform ed
Ġmarket ing
ĠMag n
Ġencour ages
ĠCr ashes
Ġwild ly
Ġinn ovation
Ġteen agers
ĠInflu ential
Ġappeal ing
Ġess ay
Ġess ence
ĠFore st
ĠFore cast
Ġsubject ed
ĠWr iting
Ġexist ential
zen egger
ĠSupp osed
Ġproud ly
ĠMeg a
Ġcollect ively
Ġhonor able
Ġmemo ir
ĠAim ed
Cont roversial
Cont rary
Dep artment
Ġcap abilities
Ġconnect ions
Ġdisapp ointing
Ġhum or
Ġhum ans
ĠLar gely
Ġlands lide
ĠMul ls
Ġconfront ed
Pl ay
ĠDiplom atic
ĠDiplom ats
ĠIncre ases
Ġprec isely
ĠRevolution ary
ĠCur ry
ĠHor rible
Ġadop ting
Ġadop tion
ĠDeliver ed
Ser ious
cript ions
ĠBul lets
Ġhur ting
ĠForm ally
Ġexpress ing
Ġpurp oses
Mass ive
Ġstorm s
ĠSqu ad
ĠDirect ion
Ġforg ot
wr iter
ĠSuff ers
Ġcross ing
Ġfel ons
Ġfamous ly
ĠWy den
ĠMain stream
Ġprosp erity
ĠAut o
ĠNar rative
Ġrecomm ended
Ġimper ative
Ġsurviv or
Ġescal ating
Attorney s
Ġow es
Ġjump ing
Ġhighlight ing
Environmental ists
iqu es
Ġfier ce
ĠMer ch
ĠMot ivated
Ġdict ator
Ġdict ators
ĠAli en
Ġobject ive
Matt hew
ĠWa iver
ĠMyst erious
Ġexerc ising
End ing
ĠPregn ancy
ĠVacc ination
Ġprohib its
Ġguarant ees
Ġdelay ed
Ġpatriot ic
Ġcal endar
ĠCrus ade
Ġselect ed
ĠDri vers
ĠOlymp ics
ĠBuff ett
ĠRepeat edly
ĠChap ter
ĠTact ic
ĠWid espread
leph ants
Ġrout e
Ġrout ine
Ġresc ind
Prosecut or
Famil ies
Ġbi ased
ĠLam ents
ĠKurd ish
Celeb rating
Ob viously
Ġconvent ions
Ġintimid ate
Ġintimid ation
ĠDisg race
Ġexplo ited
AR P
ĠTechn ology
ĠRam adan
ĠFrust rated
Ġmir ror
ĠSton ew
char ged
char acter
Ġtruck ers
Ġobsc ure
ĠSkept icism
Jan et
Sy ria
ĠDun can
Ġbrag ged
ĠRum ors
ĠQue ens
Ġvet ted
ĠEvangelical s
ĠPoison ed
Ġhomeless ness
ĠDeter mine
ĠWhe eler
ĠScram ble
ĠScram bles
ĠHistor ical
Ġfort une
Ġste ady
Ġjur ors
Ġcompl iance
ĠPlag iarism
Ġcruel ty
ĠOccup ation
Ġfright ening
Ġdele ted
ĠComplic ated
ĠPerman ent
ĠPerman ently
ĠUnivers ities
ugg ernaut
Id aho
Made leine
Rad ical
View s
ĠAle ppo
ĠGab riel
Ġincompet ent
Ġentertain ment
Tur key
ĠAcknow ledge
ĠProt ects
ĠMO INES
ĠQuarant ine
ĠCompet itive
Ġmaint ains
ĠRout e
ĠIntern ment
Ġtransl ate
Ġerup ted
ĠUncertain ty
Cho ice
iec es
Ġtar iffs
ĠAth letes
ĠPap adopoulos
Ġho ax
Ġhal ted
Ġdrast ically
ĠGall up
ĠNig er
terror ism
Ġstereotyp es
Ġvigil ant
Ġaspir ations
Ġdeleg ation
Ġdest abil
Doct ors
ĠBey oncÃ©
ĠGran ite
Ġlamb asted
Ġappreci ate
ĠBelief s
reprene urs
Afghan istan
Laur a
acul arly
ĠZimmer man
Demonst rators
Est ablishment
ĠSov iet
ĠJin ping
ĠKl ux
ĠCongratul ates
ĠAUM F
ĠHiron o
ĠMarth a
ĠNich ol
2 6
2 8
4 5
5 7
7 6
A ide
B G
B as
B ow
B ump
C ust
C ap
C ensus
D raft
E duc
E vidence
E urop
E bola
F ast
F ail
F arm
F ocus
F riends
F usion
F DA
F iorina
F acts
F aced
F auci
F eeling
F ifty
F ounder
G l
G en
H ol
H uge
H onest
I H
I ts
I RS
J es
J ud
K ay
K ind
L ar
L and
L iving
L oving
L ondon
L isa
M ill
M ax
M nuchin
N SA
O S
O bamas
P rom
P ity
P iv
P oint
P erson
P rison
P eace
R od
R ahm
S ton
S ick
S now
S ept
S exual
S earch
S erving
S kinny
T F
T a
T rust
T rick
T otal
T otally
T HE
U ns
W il
W alter
Z ephyr
b s
b as
b est
b omb
b oring
b rand
c ore
c itizens
c rip
d ig
d ul
d ain
d led
d angerous
d och
d ollar
f ive
f unding
f izer
g ue
g rowing
j ory
j oin
k ulow
l ier
l isted
l iminary
m ay
m outh
m ys
m itting
n ap
n age
n ormal
o oth
p ts
p rotest
p arts
r as
s burg
t ail
t edly
t arians
u ro
u ity
u ated
v a
v ass
x ide
x ual
x imately
y ou
y ang
Ġ 0
Ġ ing
į ķ
in z
in er
in em
in ction
Ġt as
Ġt un
Ġt ant
Ġt ex
Ġt ide
Ġt eet
Ġt ree
Ġt emp
Ġt ank
Ġt ension
Ġt apes
Ġt ickets
he ar
he im
he less
on ial
er d
an es
an ic
re f
re ep
re ase
re ls
re ctions
re aching
at i
at too
ĠT ir
ĠT ens
ĠT ib
ĠT ank
ĠT anks
ĠT aunt
ĠT reason
ĠT ensions
en ch
or os
or gan
al ized
st an
st rong
ing e
ou der
it lement
ĠA mp
ed ed
ed uction
ĠS ar
ĠS hat
ĠS ever
ĠS aving
ĠS acc
ĠS tern
ĠS inking
ĠS inger
ĠS egregation
ĠS ustainable
ĠS inclair
is iveness
ĠC H
ĠC le
ĠC her
ĠC iv
ĠC ock
ĠC amb
ĠC ounts
ĠC obb
ĠC NBC
ĠC alm
ĠC ease
ĠC reek
ĠC ertificate
ar o
ic iously
Ġw rest
Ġw asting
Ġw ebsites
Ġs id
Ġs ust
Ġs yn
Ġs abotage
Ġs egregation
Ġs idelines
Ġs ealed
Ġc ave
Ġc ure
Ġc ook
Ġc rying
Ġc ites
Ġc ensus
Ġc odes
Ġc eiling
Ġc ynical
Ġp et
Ġp act
Ġp ond
Ġp eak
Ġp ortion
Ġp ont
Ġp arl
Ġp raising
Ġp ointing
Ġp etty
Ġp ictures
Ġf re
Ġf ict
Ġf ish
Ġf reed
Ġf reak
Ġf lew
Ġf alsely
Ġf arewell
Ġf ragile
Ġf ashion
Ġf ingers
il ience
ĠP M
ĠP i
ĠP ok
ĠP ortion
ĠP estic
ĠP ool
ĠP ension
ĠP OW
ĠP ilot
ĠP iketty
Ġo h
ĠD isl
ĠD rain
ĠD ishonest
ĠD CCC
ru it
id ote
Ġb es
Ġb ow
Ġb ra
Ġb ike
Ġb ran
Ġb uff
Ġb ounce
Ġb ridge
Ġb ullying
ĠO t
ĠO ust
ĠO uster
ĠO tt
ĠR idicul
ĠW als
ĠW atched
ĠW olff
ĠH eal
ĠH ey
ĠH ong
ĠH og
ĠH ug
ĠH ikes
ĠH aters
ĠH abit
ĠH ometown
ĠH assan
le es
le igh
ĠB ir
ĠB ang
ĠB obby
ĠB urning
ĠB lew
ĠB ipartisanship
ĠB ridges
and o
and ering
ĠF it
ĠF ur
ĠF ines
ĠF reed
ĠF ocused
ĠF EC
ĠF iscal
ĠF ocuses
ĠM it
ĠM anc
ĠM ult
ĠM au
ĠM ix
ĠM aps
ĠM aterial
ĠM andatory
ĠM ichele
Ġh ill
Ġh orn
Ġh orse
Ġh anging
Ġh idden
Ġd ust
Ġd ise
Ġd ish
Ġd uck
Ġd itch
Ġd ilemma
Ġd ereg
Ġd arn
Ġd raconian
Ġm ob
Ġm eat
Ġm ech
Ġm ortg
Ġm urders
Ġin jection
Ġin evit
ol k
Ġth orough
ow boy
el igible
et ic
et heless
ĠG ork
ĠG ord
ĠG ames
ĠG rimes
ĠG rave
ĠG ranted
ĠG rapp
ĠG wen
Ġn eck
Ġn ervous
ec onomic
ĠN od
ĠN ass
ĠN ina
ĠN ix
ĠN aming
ĠN abs
ĠN EW
ĠN ostal
im ize
ĠThe ater
ĠThe orist
ĠL oving
ut t
ut ing
Ġl oot
Ġl ucky
Ġl aying
ĠE ight
ĠE leg
ĠE state
ĠE gg
ĠE ulogy
ĠE specially
ro ar
ro le
ĠIn vent
ĠIn fect
ĠIn evitable
ĠIn valid
Ġg all
Ġg rim
Ġg rid
Ġg aff
Ġg rants
Ġg amb
Ġg otta
Ġre velation
ur pris
ir ts
Ġe lements
oc ation
ort hodox
ist ry
ter ing
ak a
ak s
ak ened
Ġhe aling
Ġst ation
Ġst un
ĠJ ur
ĠJ un
ĠJ ails
ĠJ ets
ĠJ acob
ĠSt e
ĠSt al
ĠSt ation
ĠSt alled
ĠSt icking
ĠSt ricter
ĠSt olen
ĠSt roke
ĠSt unned
ul ent
ul ations
un ny
ĠV ast
ĠV icente
ack et
ĠRep s
ĠRep arations
ef e
Ġan onymous
Ġan cest
est ep
est ablishment
art en
ĠCon ey
Ġy elled
ĠCl ay
ĠCl ip
Ġcon sequ
ĠK ar
ĠK emp
ĠK arl
ĠK ane
if ferent
ch allen
ch anging
ess on
Ġv ou
Ġv ow
th rop
iv an
ee ze
up erv
ab ul
ĠCh anc
ĠCh ides
ĠCh ampions
aw ning
Ġat roc
ant as
ast ika
ĠTh rones
Ġle an
Ġnot or
Ġnot iced
Ġr het
Ġr ank
Ġr oles
iz able
ell or
ell ar
Ġsh all
Ġsh ining
Ġsh ifts
Ġj u
ass er
Ġch aotic
Ġex it
Ġex clusion
Ġex haust
Ġex acerb
und rum
uc ing
uc ed
ong yang
ĠSh ip
ĠSh ield
ĠSh aring
ĠSh ifting
ĠSh ameful
ĠSh aria
ĠSh ulkin
ĠRe ached
ĠRe illy
ĠRe actions
ip er
Ġ1 20
Ġsp otted
Ġsp okesp
ĠHe ats
ĠPro vision
ĠAl armed
ian ces
ict ory
ĠUn anim
ĠSp ell
ĠSp ike
ĠSp ends
ĠPol and
ount ed
ich Ã©
ĠLe v
Ġun m
Ġun aff
Ġun ified
Ġun law
Ġout reach
Ġout dated
Ġout cry
Ġk ick
Ġk iss
Ġk issed
omp anied
Ġoff ended
Ġoff enses
ĠAd orable
ĠAre as
Ġwh ip
Ġwh ites
ĠSc ary
ĠSc are
itt ers
ĠEx erc
ven e
orm on
uss y
ĠâĢ ¦
ĠNot ice
Ġrep air
Ġlaw ful
og atory
og gle
Ġcont end
ose xual
ĠBl ind
Ġjust ified
ĠLaw rence
Ġres ent
Ġres ist
Ġres ource
Ġres ume
Ġres earchers
ĠOff ices
Ġover ru
ond oggle
io xide
Ġus eful
Ġus eless
Ġexp osure
ĠJo el
ĠDo om
Ġacc ommod
ĠOut reach
Ġpl ug
Ġpl utocrat
ĠRes umes
Ġru s
Ġru in
ĠAtt ending
uff icient
Ġsc ream
Ġsc rut
Ġsc rapping
leg itimate
ty sburg
Ġinc lusion
ĠEm ma
ĠCar men
ĠCar avan
Ġwork force
ĠGet tysburg
Ġcomp uters
ish and
Ġimp ending
Ġimp lied
Ġcons cious
ĠMc En
ĠMc Daniel
ĠAr men
Ġbl asts
Ġbl istering
Ġwor rying
ĠTr igger
Ġleg s
Ġleg end
Ġleg itimacy
Ġsen iors
ecut ed
Ġund ecided
Ġar ray
St akes
eg lig
ĠCont raception
ritic al
ins ula
ĠAb ove
ĠAb olish
Ġwant ing
Ġam b
Ġend ure
Ġend uring
ĠExp ose
ĠExp ects
ĠExp lanation
Ġrem embers
Ġinter im
Ġinter ior
Ġinter rogation
ĠAm mo
Ġop ens
ĠAcc epting
Ġpre liminary
On line
Ġdis ability
Ġdis asters
Ġdis adv
rop s
rop er
rop ol
Ġab used
Ġab using
Ġab users
au er
ĠDec riminal
Ġdef y
Ġdef icits
ĠWor rying
Ġunder lying
Ġpublic ation
An g
ron ics
ĠHer b
Ġins ider
Ġins ane
Ġins urgent
Ġins piring
ĠMan ip
ĠApp ointed
oint ment
az ed
az ines
ĠInter nal
ĠBr ink
ĠAg reed
Ġplan es
ev ast
ĠComp assion
fl ation
AC K
ĠTe aching
Ġdisc losed
co hol
ĠImp l
ĠImp lement
ĠInd ef
Ġass ist
Ġass umption
Ġreg rets
Ġsur ging
Ġsur render
ĠGu idance
uct ance
Ġ19 50
ĠDis av
ĠDis play
ĠDis astrous
ĠDis abled
Ġfin ished
ĠBar rett
Ġro se
Ġro oted
Ġro gue
Ġtra ined
Ġtra iling
Ġcritic izes
ĠAss assination
sh oring
by n
Ġnational ism
ather ine
ĠIns ist
ĠIns pires
ĠCount ies
ĠIran ians
pt ic
ĠSur ges
Ġ6 00
ĠBlack s
Ġban king
Ġprop er
ĠPh ase
ĠPh illy
Ġfac ilitate
Ġant itrust
umb led
ump ing
ĠNomin ating
ĠSign al
Ġdep loyed
Ġ9 3
Ġconc rete
Ġ5 1
Ġ5 3
ĠMin ers
ĠMin neapolis
Ġfl aws
Ġgu est
Ġgu idelines
ĠPar ody
Ġent ities
Ġkill ings
20 14
Ġchar ter
ĠMo on
ĠMo ham
ĠMo hamed
ĠPost al
ĠPost ed
Ġmar gins
head ing
ĠTrans cript
Ġret reat
Ġret aliation
ĠRet ired
ĠTweet ers
ĠMe ant
ĠDen ver
Ġpress ed
Ġpress ured
ĠAnn ual
for g
Ġco ff
Ġdist ancing
Ġdist urbed
Ġdist ingu
ĠTake aways
Ġph ase
Ġph ony
ĠPart ial
Ġprotest ed
Ġsl ap
Ġsl aughter
Ġsl apped
Al ternative
Mar c
rovers ies
ĠInc hes
ĠAp ocalypse
Ġread ers
ĠPen alties
ertain ly
ĠDav os
ĠProp aganda
ĠProp erties
yn icism
ĠDisc our
ĠEvery where
inc es
ĠReg arding
acc ompanied
ĠJob less
ĠEndors ements
raw l
ĠHigh light
ĠSm ear
pl us
rupt ed
ĠMedic ine
Ġappro ving
Ġappro aching
Sh ot
ĠPat ient
Un ions
Ġgr ade
ĠSe kulow
Ġdel ivery
ĠStep hanie
sp eak
Ġconsider able
cer pts
oub tedly
ĠSl ur
Pol icy
Ġ8 1
His panic
ĠIss ued
ĠDist ract
ĠChallen ged
ĠUr gent
Ġprov isions
Ġemb arrassment
Ġemb assy
ĠLong time
ĠResign ed
ĠBel ong
com ed
com ings
ĠPres cription
Do ing
Do esn
ĠLo is
Cons umer
Cons piracy
Ġaddress es
ĠBlock ade
ĠMark le
Ġhand led
Ġclass ic
Ġlist ed
iction ary
Ġauthor ized
pro ven
ĠContin uing
Ġunc ont
Ġunc overed
Ġmod e
ĠEl ite
Ġgen erate
ĠSecret ive
Ġprev ail
ĠTeam s
Ġmis led
Ġmis under
Ġmis represent
ĠClaim ed
Ġsimp l
Ġval uable
ĠMur doch
Ġfree zing
run ners
Ġhar med
Ġeduc ate
Ġsuccess es
ĠDream s
Ġexc iting
ðŁ įķ
ĠCost ly
Ġfear ful
ĠOb ject
ĠQuestion ed
Mon th
Mon ica
Sp eak
Ġsupp ress
Ġunf olding
Ġunf amiliar
ĠSil icon
ĠRev ive
Bl ue
ĠShoot ers
Ġbuild ings
ĠPan els
ĠInv ited
ĠEth nic
ĠSub way
Ġthought ful
ĠKn ife
Musl ims
Ġprison er
opho be
Ġrespond s
Ġrespond ers
kl in
Ġcred entials
ĠCho osing
Ġmiss iles
Ġbar ring
Ġpred iction
Ġair port
ĠConsider ation
May ors
hold ers
Ġur ge
Ġexpect ing
Ġdoub ling
Report ers
Ġprevent ed
ĠInterview s
ĠHop ing
Ġtruth ful
Off icer
Off enders
Ġsum m
Ġsum s
Ġaw aiting
ĠSon ia
Ġsk ill
Ġform at
ĠLaun ched
Ġlack s
Ġlack ing
Ġtrad ed
ĠAw ait
Ġcre ep
Ġdam n
Ġdam ages
ĠViol ates
bl ack
ĠPark er
Ġeng aging
ĠMod est
ĠEmb attled
ĠEv iction
ĠMis information
Ġdisp utes
Ġfall out
ĠBank ers
Ġcy cles
ĠBas hing
ĠPhil ando
Ġnegoti ated
ĠJack ie
Ġrestrict ive
Ġdev ice
ĠEmer ges
Ġ14 0
Ġwond ers
Ġpopul ism
ĠRi ots
ĠArg ue
Ġ199 3
Be autiful
ĠNon profits
Ġstay ed
ĠStay ing
ĠEmploy ment
Ġindepend ents
Ġhor rifying
Ġinf lam
ĠLim ited
Ġinvest or
ĠSurpris ed
ĠSurpris es
ĠSurpris ingly
SA N
Ġfriends hip
ĠDoub ts
Ġphot ographed
Or rin
Ġreview s
Ġadvoc ating
che ll
Ġident ities
Ġident ify
ĠMill ennial
Ġroll out
Miss ing
Ġdiplom at
Ġmult i
ĠVis iting
Ġresult ed
Ġdisg ust
Ġreflect s
Ġreflect ed
ĠReb els
Ġreb u
ĠMor ris
ĠMexican s
ĠNun n
Ġvis its
Ġsn eak
ĠExtrem ist
Ph il
Ġvac ant
Ġvac uum
ĠRegul ar
ĠRegul ator
Protest s
Ġrap ed
Ġenvironmental ists
Ġcommission er
Ġ196 4
Ġ196 8
Ġ196 9
Ġcreat or
ĠFriends hip
Ġcomplic it
ĠSal man
ĠSal ute
ĠCore tta
ĠWil more
ĠWil bur
ĠMag ic
ĠEll en
icit or
ĠReject ion
Inter est
Ġult ra
Ġwild fires
Ġwild life
Ġmurder ed
Ġir re
Ġinn ov
Ġaccus ation
Rac ial
ĠBur well
Ġ198 9
ped o
ĠFore closure
ĠSho pping
ĠWr it
ĠDisp utes
ĠSmall er
Ġhistor ians
war f
ĠFalse hoods
Ġmilit ia
ĠLoss es
ĠSoon er
ĠMist aken
Ġdraw s
Iran ian
cont rol
Ġdisapp rove
Ġcorrect ness
ĠCirc le
Ġsat ire
Ġappl ies
Ġappl ied
Ġappl icants
Ġphys ically
Ġhonest y
Ġqualif ications
Ġroad s
Ġconfront ation
OR N
ĠPopular ity
ĠOs ama
Ġprec ious
Support ing
Ġtrend s
Ġfeat ure
Ġfeat uring
Ġfuel ed
ĠSpread s
Ġ197 3
Ġriot ers
Ġsect ors
ĠHum ans
ĠDeliver ing
Ġsom ber
Ġsho pping
Ġweak ness
Ġimplement ed
Ġimplement ation
wr iting
ĠSuff ering
Ġsens eless
udd led
Ġprosp ects
Ġunn amed
ĠRenew s
ĠRenew able
ĠBatt les
Ġsurviv al
Ġunfair ly
Ġescal ate
ht aking
sen al
tr ans
ĠDig ital
ĠBrag ged
Ġmanufact urers
ĠDisapp ear
ĠHomeless ness
reason able
ĠEar n
ĠVer ge
ĠRecogn ition
Ġenter prise
Matt is
Ġcr ash
Ġcr itique
Ġcapt ure
ĠPract ices
Ġunw anted
Any one
ĠObs essed
ĠDumb est
Ġder ail
Ġprohib ition
ogyn istic
Ġsymp ath
onor able
Ġpret ending
ĠWhit man
Ġweigh ing
ĠUnc lear
Ġperpet ual
Med ical
ĠTar iff
ĠGian ts
Ġvacc ination
Ġexam ine
Ġreplac ing
ĠOpt imism
ĠDevast ating
Ġwa ited
Ġsleep ing
Ġfool ish
Ġbul lets
ĠLands lide
Ġresc ue
ocrat ic
Celeb rity
Ref lect
Ġtight en
ĠRamp s
ĠContract ors
ĠExper iment
Ġaware ness
Ġrecommend ations
Medic aid
rig ue
ĠSepar ate
Ġfat ally
ĠHom ic
ĠBraz il
Ġdrag ging
Ġspons or
ĠLevel s
ervers e
heart ed
Ġcatastrop hic
Ġprot ects
Ġpurch ases
ĠPod esta
Ġovers ee
ĠDele tes
ĠKrist ol
Ġdepend ent
Det roit
Sand ra
Ġpill ar
ĠOw es
ĠLy ft
ĠLog ic
ĠTrick le
ĠGrad uates
Ġvet ting
Ġanalyst s
Candid ates
Ġbound aries
Ġment ally
ĠGrop ed
Ġlit igation
ĠReplac ing
Ġcontrad icts
Ġtroll ing
ĠPhys ician
ĠEncour ages
gr ade
human e
ĠPurs ue
ĠHay den
ĠBash ar
ĠBridge gate
Ġrent al
Ġanx iety
Ġjur isd
Ġunb iased
Ġconsult ants
ĠOccup y
Dead ly
Prop osed
comm ittee
jo ice
ĠLoy alty
Ġsole ly
Ġecho ed
ĠSettle ments
Ġmethod s
ĠTyp o
Ġmaterial s
ĠSkew er
Liberal s
ĠHond uras
ĠFest ival
Ġlabel ed
Ġstruct ural
Ġassert ion
irming ham
ĠRequire ments
Bre itbart
Dist urbing
Seek ers
eu ver
ugh t
Ġfrequ ently
ĠPund it
ĠPund its
ĠBrew er
Ġgar bage
Ġisol ation
ĠRefer endum
ĠImmedi ate
ĠImmedi ately
ĠNeighbor hood
Ukra ine
ĠCaut ious
ĠFier y
Ġham mer
Ġmour n
ĠLind a
Ġli ability
ĠStreng th
Ġrational e
Legisl ators
Desp erate
La uren
Past or
cot ting
Ġerr ors
Ġhint ed
umin um
ĠShred s
Ġarrog ance
ĠRetweet s
Ġunfortun ately
Fran ken
ĠTrend s
Ġpod cast
ĠHew lett
Ġinvent ed
ĠGrid lock
Ġreop en
ĠVandal ized
ĠProduct s
ĠSpect acularly
Ġcommem oration
Ġblat ant
Anton in
Ġdiscred it
Ġabsent ee
Ġenthusiast ic
feit ure
Mo ore
tw o
Ġtal ent
Ġachie ved
ĠCos by
ĠDict ators
ĠMu hammad
Ġhurd les
Ġlux ury
Ġlesb ian
Ġstir ring
rypt ion
answ ered
ĠIC U
ĠOak land
Ġlav ish
Ġunst able
ĠConspir acies
ĠColomb ia
ĠPhilipp ines
plex ed
Ġsinc ere
Ġflam es
ĠDysfun ction
ĠReth ink
Ġmax imum
Ġhed ge
ĠStev ens
Ġemotion ally
promp ter
Ele ven
sign ificant
Ġupp er
hent ic
atab ase
iless ly
idas Touch
Ġgeop olitical
ĠJoaqu in
ĠEnthus iasm
ĠSchwar zenegger
Gl enn
crip ts
ĠTib et
ĠSacc one
ĠCamb od
Ġbran ches
ĠWals h
ĠGork a
ĠNass ar
ĠChanc ellor
Ġrhet or
Ġscrut in
ĠMcEn any
ĠMoham med
! âĢĻ
2 7
3 7
? ?
A h
A nt
A ff
A ug
A ction
A aron
A hmed
B O
B ur
B eg
B ully
B lank
B usting
B rown
B uilding
C ond
C iting
C oward
C heney
C atholic
C ynthia
D ump
D iversity
D ata
D ollar
D allas
D arrell
E ast
E ff
E van
E mploy
E sc
E gypt
F ed
F ly
F ace
F ind
F ired
F alse
F inding
G round
G erman
G orsuch
H C
H and
H uckabee
I R
J en
J ay
J oin
J ulian
J ane
L o
L as
L ack
L os
L atest
L osing
L obby
L iterally
M B
M a
M os
M atter
M erry
M IL
M iami
N ic
N FL
N avy
N athan
O mar
P a
P ort
P riv
P ruitt
P ushing
P overty
R ace
R ough
R ock
R ele
R ural
R anking
S W
S ub
S afe
T ry
T een
T ech
T imes
T enn
T US
U C
U L
V an
V iolent
W ay
W ow
W ife
W aiting
W ikiLeaks
a hn
a oil
a jo
b ally
b one
b ier
b rain
b uster
c or
c ho
c ase
c lear
c lam
c aster
c Ã©
c eption
d ing
d es
d all
d egree
e ier
e asy
e aching
f ly
f old
f red
f amil
f iring
f elt
f illed
g ary
g ie
g rim
g rad
h l
h r
h ad
h ake
h yp
i ru
i ott
i ots
i Ã©
j an
l iness
l inked
l ishing
l iked
m ust
m ake
m ax
m ove
m atic
m atory
n ant
n ames
o h
o at
p in
p ard
p rison
p opul
p olitic
p assed
r rez
s erving
t ly
t age
t ough
t otally
u ably
v on
w a
w ord
w age
w ind
w rong
z heim
Ġ rips
in j
in ity
in os
in ions
in ite
in ating
Ġt all
Ġt ab
Ġt um
Ġt ip
Ġt ense
Ġt ighter
Ġt ouching
Ġt issue
Ġt uition
on ious
er ver
er ra
an ey
an ism
at itudes
ĠT on
ĠT ol
ĠT ear
ĠT ie
ĠT orn
ĠT emp
ĠT olerance
ĠT ickets
or ists
al id
al ox
st op
st rom
st ated
ing es
Ġa iring
Ġa wards
it ew
ĠA h
ĠA ided
ĠS is
ĠS eth
ĠS ull
ĠS ought
ĠS ometimes
ĠS egment
ĠS uicides
ĠS oda
ĠS abotaging
is hn
ĠC A
ĠC ec
ĠC alif
ĠC ries
ĠC atastrop
es ch
ic em
ic ule
ic rous
Ġw ore
Ġw ise
Ġw iden
Ġw inds
Ġw asted
Ġw aters
Ġs its
Ġs illy
Ġs ustain
Ġs isters
Ġs iege
Ġc her
Ġc ite
Ġc ens
Ġc ream
Ġc raz
Ġc urious
Ġc rappy
Ġp in
Ġp it
Ġp il
Ġp ess
Ġp ie
Ġp erv
Ġp ron
Ġp ump
Ġp acked
Ġp ushes
Ġp uzz
Ġp ilot
Ġf ence
Ġf ract
Ġf lex
Ġf lying
Ġf asc
Ġf oster
Ġf avored
Ġf rame
il a
il et
il ater
ĠI ow
ĠI con
ĠI rony
ĠP il
ĠP as
ĠP ew
ĠP ax
ĠP ages
ĠP iece
ĠP eaceful
ĠP izza
ĠP fizer
Ġo cean
ĠD ing
ĠD ut
ĠD ur
ĠD ress
ĠD up
ĠD ism
ĠD ings
ĠD rove
ĠD umps
ĠD ystop
ru ms
Ġb ind
Ġb ang
Ġb urd
Ġb orrowers
ĠO cean
ĠR ou
ĠR ust
ĠR ud
ĠR uff
ĠR ah
ĠR ash
ĠR ift
ĠR ushing
ent ine
ĠW ors
ĠW ears
ĠH us
ĠH ans
ĠH ole
ĠH utch
ĠH agel
ĠH orses
ĠB a
ĠB ak
ĠB ound
ĠB ows
ĠB itch
ĠB ury
ĠB ought
ĠB run
ĠB ully
ĠB ullying
ĠB orrowers
ĠB eware
ĠB irmingham
om ic
ĠF old
ĠF ram
ĠF usion
ĠF iled
ĠF idel
ĠF avors
ĠF iasco
ĠM es
ĠM ort
ĠM art
ĠM ey
ĠM arty
as ho
as ions
as quer
Ġh aul
Ġh ated
Ġh ypoc
Ġh acked
ot hetical
Ġd ress
Ġd ies
Ġd ressed
Ġd educt
Ġd ioxide
Ġm alf
Ġm aker
Ġm eltdown
Ġm igration
Ġin her
Ġin advert
ig ins
ol ation
res hold
Ġth us
Ġth rive
et ies
et ting
et tle
ĠG al
ĠG ra
ĠG est
ĠG ret
ĠG ang
ĠG ram
ĠG rief
ĠG reed
ĠG ottes
ĠG IF
Ġn od
Ġn av
Ġn urse
Ġn eglect
Ġn eglig
ĠN ope
ĠN ecessary
ĠN urse
ĠN ervous
ĠN urses
am s
am ble
im migration
ĠL ay
ĠL aid
ĠL av
ĠL ik
ĠL ift
ĠL emon
ĠL aughed
ĠL erner
ĠL loyd
ut ations
ad ler
Ġl ap
Ġl one
Ġl ights
Ġl ined
Ġl enders
Ġl angu
Ġl ouder
us ually
em ia
em ble
ĠE ating
ĠE arlier
ĠE lev
ro duction
ĠIn action
ĠIn itiatives
Ġg ru
Ġg ra
Ġg ear
Ġg ifts
Ġg errymandered
Ġg rateful
Ġre ver
Ġfor med
Ġfor bid
ur ry
ur ally
se in
Ġe ase
ĠU dall
ter man
ter nal
Ġhe al
Ġst one
Ġst raw
Ġst aring
Ġst ores
Ġst retch
Ġst imulus
Ġbe er
ĠJ oking
ĠJ abs
ĠSt un
ĠSt ages
ĠSt icks
ĠSt oking
ĠSt yle
ĠSt resses
ĠSt retch
ub s
ident al
ho g
ri e
ri ages
ri eu
ĠFor cing
op ol
ra ordinary
ĠV in
ĠV ent
ĠV ital
ĠV igil
ĠV ulg
ĠV olkswagen
ĠRep ay
ef ish
ef fl
Ġan cient
ain es
ĠCon versations
ĠCon version
Ġy ield
ĠCl ap
ĠCl ue
ĠCl iven
Ġcon st
Ġcon ce
Ġcon struct
ĠK il
if a
if est
ch air
Ġv an
Ġv ary
iv ia
iv ision
os h
ab solutely
Ġwith hold
ĠCh art
ĠCh ast
ĠCh ase
ĠCh aotic
ud ed
ud icrous
aw ned
od ed
ĠTh rew
ĠTh rown
ĠTh rilled
Ġle ague
ĠY oun
ĠY esterday
Ġnot able
Ġnot ably
ĠAnd y
Ġr ises
Ġpro duc
Ġsh ine
Ġsh aking
Ġsh ots
Ġj ab
Ġj oking
Ġj unk
Ġj eopard
ard en
ex ist
ex pl
qu it
qu est
Ġch ain
Ġch ains
Ġch icken
Ġch urches
Ġex act
Ġex clus
ire z
um s
und ering
uc ous
ĠBe gun
ong ue
ĠSh irt
ĠSh aming
ĠSh ameless
ob ering
ĠRe venge
ip line
Ġal armed
Ġsp ur
Ġsp ite
Ġsp ared
Ġsp ray
ĠHe ather
av o
av ens
av ier
ĠPro jects
ĠAl ton
ĠAl ternate
ĠAl zheim
ian cÃ©
rot esque
ĠUn lo
ĠUn like
ĠUn fit
ĠUn happy
ĠSp ons
ĠSp urs
ĠSp iral
ĠSp ells
ĠSp eier
Ġbut ton
ris p
Ġun se
Ġun iting
Ġun related
Ġun iquely
Ġun usually
Ġout right
Ġout look
Ġoff enders
ens ation
ens ely
ens ical
ens ky
ĠAd min
Ġwh istle
ĠHis pan
Ġcl ashes
Ġcl ichÃ©
ĠSc heer
Ġup s
Th irds
ĠEx ists
ĠEx empt
ran ging
erv ations
uss ions
ĠOver come
ĠOver night
ism an
Ġcont aining
ĠBl asted
ĠWar ms
ĠWar rants
oll ah
Ġres olutions
Ġres ulting
ons ensical
ĠMar ried
ĠSec ures
min ous
ĠJust ification
Rep eal
Rep ealing
ĠWe aver
ren ched
ren zy
ile aks
ĠDo omed
Ġacc identally
ĠOut come
ĠOut break
We ak
ĠRes ult
ĠRes urrect
ĠFl ames
ĠFl ash
Ġapp lications
Ġapp ellate
Ġru b
Ġact ively
Ġact ivism
Ġdec or
Ġdec ried
uff le
Ġsc orn
Ġsc apego
oy ing
Ġrec ess
Ġrec alled
Ġinc umb
Ġinc lusive
ĠEm oluments
Ġen h
Ġen erg
Ġen list
Ġen forced
ĠAct ive
vent ional
ott est
Ġcomp lac
Con stitutional
Ġsec recy
ib ust
Ġmon opoly
Ġmon tage
Ġimp ort
Ġimp ressed
Ġimp uls
ĠPlan es
Ġcom merce
ĠBan ner
ĠDep uties
ĠAr nold
ement ed
ert e
ĠDef iance
ĠDef icits
Ġbl oc
Ġbl ueprint
Ġwor ries
ĠBack fire
ĠTr ash
ĠTr ashing
Ġback ward
Ġback fired
Ġthere fore
ĠGovern ing
Ġund en
Ġar ts
ĠMon ica
ĠMon ster
Ġper mits
Ġmay oral
PO TUS
ands on
ĠIm ages
ĠAb e
ĠAb ys
ah rain
riv ial
ĠPl aced
Ġend anger
att i
ĠExp ress
ĠExp resses
Ġpre ach
Ġpre fers
Ġpart ly
Ch air
Ch aos
Ġlast ing
Ġdis order
Ġdis respect
Ġse qu
ĠRec ess
ĠRec ipient
ĠDec ry
ĠDec eption
Ġdef ines
Ġdef ining
Ġdef ensive
Ġdef unding
Ġdef rauded
Ġmy ths
Ġunder mined
Ġbig oted
An imal
ron aut
ĠNational s
New sp
Ġhealth ier
yan na
Ġins ights
Ġins ufficient
Ġlong standing
ĠApp ropriate
Ġiss uing
As k
rimin ally
Ġind igenous
ĠCol league
Ġadv ancing
Ġresp ected
ĠComp uter
ĠComp arison
cess ions
ĠLeg itimate
Ġtax ing
ĠBo ots
ĠCom mercial
oth y
ĠTe hran
eth ical
co res
ĠImp ro
ĠImp eached
Ġass embly
Ġrel ied
Ġrel ieve
Ġreg ions
Ġmonth ly
Ġsur rogate
Ġsur gery
Ġsur faced
Ġnation ally
ĠCo ates
Ġ19 5
ĠDis order
Ġown s
ĠBar n
ĠBar ring
Ġro ots
Ġtra pped
ĠPer il
ĠPer pet
ĠPer jury
Ġpres ents
Ġhapp iness
sh ow
sh ould
ĠFac ility
ĠIns lee
ĠIns pire
Ġadd icts
Ġem otions
President s
ĠSur veys
Ġ6 9
ĠBlack mail
Ġprop osing
Ġprop osition
Ġprop erly
ĠPh ony
ĠPh ones
ĠFin ed
ĠFin ish
ĠGeor getown
ĠAdv ising
Ġdep uties
Ġshort comings
ĠCor p
Ġconc lus
Ġ5 5
Ġpass engers
Ġfl ow
Ġfl ash
Ġfl ipped
ops y
uts che
ĠRac hel
Ġgu ards
eff ective
Ġpower less
ĠTed dy
Ġeconom ist
Ġeconom ists
ĠDem on
ential ly
Ġent rance
Ġche ap
Ġmar ches
Ġmar ching
ĠRo ast
ĠInvestig ates
ĠInvestig ators
Ex pect
ĠElect ors
ĠInt ens
aun er
Ġte a
ĠRet ail
ĠRet urning
ĠVict or
ĠRob in
Is n
Sc am
Sc ience
ĠGr ace
ĠGr ade
Ġmin ers
Ġmin ors
ĠPre view
ĠReform ers
Ġpress uring
Ġdist raction
Ġdist ribution
ĠKill ers
hel p
omb ie
Ġel dest
ĠRepeal ed
ĠFran klin
ĠTest ifying
Ġsl ogan
ĠPass enger
ĠOwn ership
Al ways
ĠInc redible
ĠInc lusive
Ġrest s
ĠTru ther
ĠTru man
eful ly
Ġ10 1
ĠParent al
ĠDisc red
ĠDisc losing
Ġinv aded
ĠGood bye
elect ed
inc inn
Ġarg uably
Ġbo ast
Ġbo ots
abor ate
ĠReg istered
ĠSw ear
ĠSw eep
ĠSw itch
ĠHigh ly
ĠHigh ways
ĠEc lipse
rac ist
Ġden iers
ĠAff ected
ĠAff irmative
Sh ort
Ġmass acres
ĠMarch ing
ĠPat ent
uccess ful
Ġcour ses
ĠBad ly
Un p
Ġgr illing
Ġgr asp
ĠTom i
Ġfound ing
ĠSl ight
ĠSl ap
ĠSl ash
ĠSl ager
ĠHead quarters
Fl op
Fl ops
Ġ8 4
Ġ8 5
Ġ8 8
Ġcivil ization
Ġpost p
ĠDist ances
ĠDist rust
ĠUr ged
Ġcontrol s
enn eth
Ġhost s
Ġreform ers
Ġemb arrassed
ki pped
ĠLo effl
Ġdeb acle
Ġbenef iting
ĠNet roots
Ġhand ily
Ġmen ace
Ġclass es
ĠLou ise
Ġorgan ize
Ġyoun gest
icul ty
Ġmod els
Ġaren a
Ġregul atory
Ġmis use
ĠHard ly
Ġaccess ible
Ġemploy ed
Ġnon violent
Ġcommun ication
ĠJud gment
Ġeduc ational
Ġeduc ated
ĠCost ing
ĠIde ology
ĠAir ports
ĠBreak fast
iam en
Ġdirect ors
Dis ney
ĠDes ert
ĠOb lig
ĠExt ension
hest er
Ġunt rue
Bl ame
of s
US A
Ġceleb rity
Ġmet al
ĠInv ade
ĠEth ical
ĠSub urb
ĠSer ies
Ġsurpris es
Ġbattle field
Ġrepeal ed
Ġrespond ents
Ġcar ries
Ġcar pet
ĠCover ed
Ġcred ited
ifican ce
Ġprep ares
ĠSusp ects
ĠGen ius
ĠHol y
ĠSk in
ĠSk ips
Ġspec ter
ĠConsider ed
Ġfavor able
ilar ious
urd ue
ĠProsecut ion
Ġur ges
ĠAng lin
ĠBu ys
amb ers
ĠKh asho
ĠRequ irement
Ġtruth s
ĠTown s
Ġmid terms
Ġaw e
Am nesty
ĠPri ority
ĠBirth right
lo om
ĠPra ised
ĠKen ya
ĠCrack s
ĠHot els
Act ing
En g
bl ocks
ĠCamp bell
do esn
esc ribed
Ġocc ur
ĠExc uses
Ġcommon wealth
ĠFoll ows
ĠFoll owers
ĠEv olution
ĠMis lead
AP D
Ġtrou bles
ĠTim eline
Ġcy bersecurity
Ġfix ed
Ġmeet s
App le
arr ows
Ġpun ishes
Politic ally
ĠMess y
ĠMess aging
Ġunp redictable
Ġrestrict ing
ĠLie utenant
add y
Ġcru de
ĠRi pping
ĠLeak er
Ġ199 4
Ġ199 9
ĠNon violent
Ġdeter mination
utr ition
ĠEmploy er
ĠEmploy ers
ĠExecut es
ĠExecut ives
Ġinf ected
Ġheart breaking
ĠCondem ned
Ġbroad ly
Ġbroad band
Her oin
ĠSn ap
Ġpan els
ĠIl han
ĠPun ch
Ġinvest ors
ĠTruth dig
ilt rated
Ġbank ers
we ight
ĠDoub led
ĠBenef ited
Or igin
ici ency
ĠHun ts
Ġreview ing
Col lege
ĠOrgan izations
Ġtechn ique
Ġcirc uit
ĠMos ques
Cru el
Ġfore cast
Ġfore front
ĠGl oss
Ġdisg usted
ĠGrand mother
Govern ors
ĠRon ny
ĠMor oc
Ġmot ive
Ġopt imistic
Ġgener ous
Ġgener ated
Ġvis iting
Ġrespect ive
Ġexecut ions
Ph ony
Ġpers ons
Ġpers pective
ĠEmp has
ĠEmp athy
Ġprincip al
Ġpled ges
Ġrequest ed
Ne his
ĠTrou bled
ĠSol ving
Ġparticip ating
Att acks
Ġdismiss ing
ĠGround s
Ġjail house
Ġperform ing
Ġer ase
Ġer ratic
Ġmag ic
Inter net
Pat agonia
Res earch
ĠStrong ly
ĠConnect ion
ĠConnect ions
Ġattend ance
ĠRestrict ing
eck less
ĠArt ist
ĠArt icle
Ġteen age
ĠSuccess ful
Ġpurs uit
ĠRog ue
ĠLib by
Ġlif ted
ĠInflu enced
ĠDiscuss ed
ĠTeen ager
ĠTeen agers
ĠAvoid ing
ĠRod gers
Christ ine
Christ opher
Ġindic ates
Ġ198 8
MA GA
ĠPerson nel
ĠDev il
ĠHeart land
ĠWarning s
ĠSupp ly
Real ity
Ġmilit ant
Ġdog ged
Ġcollect ing
ĠDismiss ed
Ġdomin ate
oph ile
ĠGuant Ã¡n
Dep uty
Ġtyp ical
Ġfirm ly
Ġmer it
Ġmer ger
Ġran king
ĠTrad emark
ĠGut iÃ©
ĠInvest or
ĠTroll ing
ĠTroll ed
atal in
ĠDraw ing
Pl aying
Ġpul ling
Ġdiscrimin ates
Ġten ants
Ġinst ance
Ġinst ances
ĠRespons es
mon th
Ġfeat ures
Ġfuel ing
ĠNegoti ate
ĠEas ily
Ġ197 0
Ġexcept ional
Bet ween
ĠBrother hood
ĠCust omers
ete enth
ĠKat y
ĠCyber attack
ĠðŁ İ
rehens ible
Ġbur st
Ġhouse holds
Ġloc als
Ġweak ened
Ġoverwhel med
Ġblood y
Le ave
Ġet c
Ġsqu are
ĠEgypt ian
uls ion
Ġimm oral
Op inions
ĠDesp air
amin ated
Ġimper il
ĠRenew ed
look ing
ĠFuel ing
Ġvirt ue
Ġvirt ual
Char leston
Ġescal ated
.âĢĻ âĢĿ
tr ade
Ġpray er
Ġow ed
ĠBrag ging
Ġassoci ates
Ġhighlight ed
ĠBroad cast
Ġdeport ing
ĠWa its
ĠField s
Ġrevolution ary
Dec ades
ĠInj ury
Ġcomed y
ĠAssembly man
Ġgrad uate
Ġsucceed ed
rup ting
ĠWhit efish
Though ts
errit ories
requ ent
ĠHo ax
ĠGather ing
Ġreven ge
Ġreven ues
ĠRepeat s
Ġvacc ines
Ġexam ines
ĠOpt imistic
Ġconfirm ing
ĠDetain ee
ĠDevast ated
ĠCorn er
Ġbul let
ĠAttemp ted
ĠContrad ict
ĠReflect ions
Dream er
ĠMerk ley
Ġgrab bed
Ġoblig ations
ĠPatriot ism
Ġdispar aging
Ref orm
lem n
ĠBail out
aked own
Ġvolunt eers
ĠRein state
ĠDisg raceful
Ġfilm maker
ĠDesc ribe
Less ons
Ġdrag ged
ocol ate
Ġspons ors
Ġrob ust
ĠConfront ed
Emb attled
OU T
ĠRam irez
Ġhun ting
Ġhun ger
ĠLaugh ing
Ġcoop erate
Sy rian
gg i
Ġicon ic
inter est
anth rop
ĠCatch ing
Ġinfect ion
Ġlock down
rock eted
ĠImm unity
Ġautom atically
Ġacad emics
IT Y
Sign ificant
Tru e
Tru th
Ġrif les
ĠPoss ibility
ĠPoss ibly
ĠFat ally
Ġunve il
Ġmanip ulation
ĠInsult ed
ĠPhys ical
Ġdeliber ate
ĠEncour age
Disc rimination
Mem orial
Ter rible
ĠTex ts
ĠTex ans
Ġpolar ized
Ġrecru itment
ĠAppoint ee
ðŁĺ Ĥ
Terror ism
ĠCreat ing
Ġcart oon
Ġfright ened
Ġcommercial s
Ġbelong s
ĠComplic ate
ĠOper ative
Ġfundra isers
Ġintellect ually
Press ure
sl aught
Ġbre ached
ĠReop ening
ĠHilar ious
ĠUnivers al
Ġunanim ous
Ġoutl ined
ĠWarm bier
ĠAppl auds
Ġadvis ory
ĠDiscrimin atory
Liber tarian
Rad io
Ġgrant ing
Ġclot hes
Ġincompet ence
Ġshel ter
Ġinterpret ation
Ġretail ers
Bre xit
Count ing
Seek ing
Ġast ounding
ĠCertain ly
Ġfrequ ent
ĠPret ends
Ġmobil ize
think able
Ġclar ify
Ġreck less
Ġarch itect
ĠRecru its
Ġmaint aining
Ġmagn itude
Author ities
hol m
inth ian
Ġtort ured
Ġped dling
ĠHy de
ĠMerc ilessly
ĠLab els
ĠLind ell
Ġeast ern
Ġadvers aries
ĠAccomp lish
Aut om
Ev angelical
Gr assroots
Jos h
Jos eph
fell ows
ĠCult ural
Ġwel coming
Ġsaf egu
ĠFet terman
Ġthin ly
Ġstamp s
Ġjihad ist
Ġexplos ive
Ġscram bling
ĠExplos ive
Ġindef initely
ĠTele vision
Ġassess ment
Ġmoder ator
Ġapplaud ed
ĠAcqu ittal
Cut ting
deep ly
plan e
ĠSadd am
aris ons
Ġadequ ate
Investig ators
ĠRecomm end
ĠParad ise
ĠSerge ant
Ġparalle ls
ÃŃ n
ĠTuls i
ĠPurch ase
ĠBart on
Ġdimin ish
Ġincons istent
Concern s
Ġdownplay ed
ĠSignificant ly
ĠPostp ones
Ġgenu ine
pe are
Ġdysfun ctional
ĠGriff in
Ġlab els
ĠLeah y
Ġdefer ence
ĠExceptional ism
ĠNarrow ly
Fort y
Lives Matter
Sum mer
ĠHav ana
ĠFright ening
Ġthro at
ĠPromp ts
ĠUnravel s
ĠMarqu is
ĠOrt iz
Ġsubstant ive
ĠHandcuff ed
Ġsimultane ously
ĠAcad emy
Gab by
eder acy
ĠPy ongyang
Ġhav oc
Ġreiter ated
Ġjun ior
Ġorient ation
ĠFlorid ians
ĠBackped als
ĠInvolve ment
Ġtas ked
Ġtex ts
ĠCH IP
Ġpont iff
Ġparl iament
Ġfict ional
ĠBir x
ĠMit chell
ĠManc hester
Ġdise ases
Ġinevit ably
ĠGord on
ĠJun eteenth
Ġamb itions
Ġrhetor ical
famil y
iru l
alox one
ilater ally
ĠIow ans
ĠPax ton
ĠHus sein
ĠMey ers
ĠGottes feld
Ġneglig ence
ĠAlzheim er
ĠHispan ics
Ġincumb ents
Newsp aper
ĠLoeffl er
ĠKhasho ggi
Nehis i
ĠGuantÃ¡n amo
ĠGutiÃ© rrez
" :
" [
' ,
1 20
2 9
3 3
3 4
4 4
5 4
6 5
6 7
6 8
A L
A le
A round
A cross
A BC
B J
B ol
B ern
B oy
B reak
B uild
B ank
B aby
C om
C able
C rime
C rowd
C lean
C oup
C uomo
C ollar
C PAC
C omed
C redible
C ertainly
D ri
D eal
D itch
D irty
E I
E r
E qu
E specially
F und
F air
F raud
F rust
F resh
F ailing
F ascist
F risk
G O
G ar
G as
G ina
G rab
G lobal
G reatest
H o
H ad
H un
H op
H ost
H ell
H istoric
I PAC
J eh
J acob
K irst
K urd
K eeping
L P
L ost
L ies
L anguage
M d
M ent
M ac
M our
M ick
M akes
M ilit
M yst
M essage
M ental
M oving
M igrant
N at
N ick
N umber
N ormal
N eeded
N unes
P L
P it
P ar
P ill
P ul
P ubl
P rep
Q ue
Q Anon
Q aeda
R o
R ated
R ising
S al
S ay
S hooting
S ingle
T y
T own
T ox
T urning
T onight
T reason
T apes
T ION
U K
U R
U ber
U lt
V P
V al
V ax
V iet
W eed
W oke
X SW
Y ale
a ive
b a
b ow
b usiness
b ury
b ring
b ucks
c ation
c ould
c hat
c ip
c rime
c het
d ict
d rop
d ele
d aughter
d uty
d rive
e ing
e otyp
f ar
f et
f und
f avor
f rey
f ocused
g t
g ov
g les
g ically
g reen
g rave
g rav
h ies
h aw
h az
h ael
h ouses
i q
i ro
i ences
j a
j udge
k o
k now
k ered
k ids
l ap
l ists
l af
l iving
l erate
l iberal
l aughter
l uster
l isting
m ir
m iss
m ember
m aster
n as
n ecessary
n ament
n apping
o ard
p eople
p lain
p ersonal
p iece
p ocket
r ill
r iting
r ases
r igged
s imp
s aving
s elling
t ry
t een
t otal
u an
u anced
v ised
w omen
w earing
w ald
w arming
y ad
y ptic
z i
z os
Ġ lyn
in qu
in ational
in ty
in ians
Ġt il
Ġt ag
Ġt orn
Ġt ends
Ġt ying
Ġt ilt
Ġt apped
Ġt entative
he ist
on n
on ly
on ors
er ie
er ace
an ol
re k
re ation
at able
at ile
at ollah
ĠT ac
ĠT un
ĠT ab
ĠT ant
ĠT amp
ĠT ide
ĠT ree
ĠT rent
ĠT ipping
ĠT emporary
ĠT la
ĠT issue
ĠT ainted
ĠT itans
ĠT iffany
en ergy
en ari
en uous
or ah
al ation
al ach
al most
st ru
st art
ing ton
ing enuous
Ġa x
Ġa mp
Ġa irstrikes
it ri
it ated
it ful
it uary
ĠA verage
ĠA voided
ĠA LEC
ed es
ĠS ir
ĠS inks
ĠS illy
ĠS ucks
ĠS occer
ĠS ection
ĠS oros
ĠS XSW
is k
is ho
ĠC ra
ĠC ous
ĠC hes
ĠC ath
ĠC rying
ĠC ours
ĠC oward
ĠC rises
ĠC ynical
ĠC ategory
ĠC ITY
ar ag
ar ling
ar go
es la
ic as
Ġw at
Ġw ast
Ġw oes
Ġw edding
Ġw iped
Ġs in
Ġs le
Ġs ir
Ġs oc
Ġs our
Ġs ake
Ġs ail
Ġs outh
Ġs enses
Ġs ophisticated
Ġs obering
Ġc ran
Ġc rap
Ġc oward
Ġc aved
Ġc racking
Ġc rony
Ġc ocaine
Ġc ynicism
Ġp al
Ġp its
Ġp ipe
Ġp oked
Ġp neumonia
Ġp oured
Ġp ieces
Ġp erverse
Ġf ro
Ġf erv
Ġf ame
Ġf ever
Ġf led
Ġf eared
Ġf itness
Ġf racking
Ġf urious
Ġf utures
il le
ĠI stan
ĠP E
ĠP a
ĠP ion
ĠP ave
ĠP ink
ĠP ile
ĠP ause
ĠP oses
ĠP ai
ĠP aved
ĠP leas
ĠP ocket
ĠP BS
ĠP ipes
ĠP neumonia
Ġo st
Ġo ligarch
ĠD oc
ĠD aw
ĠD ix
ĠD ale
ĠD yn
ĠD estro
ĠD iverse
ĠD ollar
ĠD ubious
ĠD REA
id a
id ant
id encies
Ġb at
Ġb uck
Ġb ash
Ġb ounds
Ġb odies
Ġb ullies
Ġb ilateral
ĠO urs
ĠO dd
ĠO we
ĠO usting
Ġto lerate
ĠR ing
ĠR om
ĠR ain
ĠR ome
ĠR ail
ĠR ides
ĠR iver
ĠR aging
ĠR ank
ĠR EA
ĠR ushes
ĠR auner
ĠW aff
ĠW isdom
ĠW HC
ĠH ec
ĠH end
ĠH ail
ĠH ears
ĠH ated
ĠH ang
ĠH anding
ĠH ospitals
ĠB and
ĠB end
ĠB ast
ĠB ike
ĠB io
ĠB ots
ĠB oring
ĠB orders
ĠB ubble
ĠB romance
and ons
om ber
ĠF O
ĠF T
ĠF rat
ĠF ell
ĠF aul
ĠF ever
ĠF ish
ĠF att
ĠF ract
ĠF IS
ĠF aster
ĠF eared
ĠF iling
ĠF illed
ĠF oul
ĠF lee
ĠF umes
ĠF ighter
ĠF ifty
ĠF entanyl
ĠM ach
ĠM aker
Ġh y
Ġh ike
Ġh oll
Ġh ook
Ġh anding
Ġh ars
Ġh itting
Ġh ole
Ġh aters
Ġh ung
Ġh angs
Ġh ometown
Ġh ilarious
ot ely
ot land
Ġd il
Ġd ow
Ġd ive
Ġd iet
Ġd ocumented
Ġd rain
Ġd ivest
Ġd ossier
Ġm eal
Ġm ethane
Ġm amm
Ġm asquer
Ġin iti
Ġin herent
Ġin appropriately
Ġin eligible
ig m
ig ator
ig ault
ol ition
ol ics
ĠTrump land
Ġth wart
Ġth reshold
ow ars
el berg
el ensky
et o
et an
et ically
ĠG e
ĠG il
ĠG ag
ĠG ott
ĠG lob
ĠG ained
ĠG lad
ĠG PS
ĠG erald
Ġn ose
Ġn ecess
Ġn aming
Ġn onsense
Ġn inth
ĠN ord
ĠN ecessarily
ĠN epotism
ĠN IH
ĠN arrows
am as
am ount
am ination
ĠL en
ĠL ip
ĠL ap
ĠL one
ĠL ists
ĠL ott
ĠL ining
ĠL inking
ĠL ifted
ĠL esb
ĠL iked
ĠL agging
ĠL eban
ad onors
Ġl ocking
Ġl ament
em arks
ĠE aster
ro v
ro val
ro iled
ro soft
ĠIn her
ĠIn stitutions
Ġg ays
Ġg lor
Ġg rav
Ġg entle
Ġg alvan
Ġre nd
Ġre un
Ġre ign
Ġre lying
Ġre acted
Ġre think
ur ances
ur iating
se ud
Ġe lephant
oc a
oc y
oc ence
ist ically
ct ure
ĠU mp
ew ing
ak y
Ġhe y
Ġst ing
Ġst all
Ġst ran
Ġst eep
Ġst ances
Ġst unned
Ġbe ef
Ġbe ars
ĠJ ok
ĠJ ose
ĠJ olly
ĠJ eh
ĠJ eopardy
ĠSt ir
ĠSt ore
ĠSt ef
ĠSt ations
ĠSt ark
ĠSt ability
ĠSt okes
ĠSt ole
ĠSt unning
ĠSt opping
ĠSt inging
ĠSt imulus
ĠSt umbles
ul osis
ul ÃŃn
un ate
un berg
op es
ra its
ra int
ra ught
ĠOn ion
ĠOn going
ĠV il
ĠV ia
ĠV eep
ĠV owed
ĠV IP
Ġit em
ĠRep utation
Ġan om
Ġan im
est yle
ĠCon stant
ĠCl ot
ĠCl ause
ĠCl erks
Ġcon g
Ġcon stitu
Ġcon stitutes
ĠK an
ĠK as
ĠK ash
ĠK athy
ĠK idding
if ically
ch a
ch lor
ear cher
are house
Ġv oc
Ġv irul
end o
end ments
iv ating
rat h
ab in
ia h
ĠCh ain
ĠCh af
ast ian
ĠTh unberg
Ġle aking
Ġ2 50
ĠAmer icas
ĠY u
ĠY ulÃŃn
Ġnot ing
lect ual
Ġr ounds
ell i
Ġpro ducing
ect ions
ard ed
ous y
ag ion
ag ain
ex pect
ĠWith holding
Ġch ill
Ġch art
Ġch ronic
eb astian
um at
ĠSen iors
orn s
und ers
ey moon
ors erace
own ing
ĠBe er
ĠBe zos
ong ed
ĠSh i
ĠSh out
ĠSh aking
ĠSh rinking
ĠWh om
ĠWh ining
ĠWh istleblowers
ĠRe gain
ap ore
Ġwe aken
Ġsp ill
Ġsp ike
Ġsp urred
Ġad vert
Ġwho ever
ĠPro ven
ĠAl ike
ĠAl ison
ern ess
ere k
ine z
ind y
ĠAn sw
ĠAn imals
ĠUn m
ĠUn expected
ĠUn authorized
ĠUn seat
ĠSp l
ĠSp ur
ĠSp ain
ĠSp ree
ĠSp arked
reat ing
ris ing
ris ome
Ġun authorized
Ġun qualified
Ġun seat
Ġun intended
Ġun limited
Ġun employed
Ġun accompanied
Ġout p
Ġout door
Ġout burst
ick ers
ick ering
Ġk icks
Ġoff set
ens ual
ĠAd vertising
lan ce
Ġcan c
Ġcl ue
Ġcl arity
ĠSc ares
ĠSc apego
ĠSc rub
ber man
Ġup tick
ĠEx haust
ĠEx hibit
erv os
upport ed
ret ion
enc ers
eat ed
Ġcont roversies
ĠBl under
act ively
ĠWar fare
ĠWar riors
man cip
ĠLaw n
Ġres erves
Ġres hape
ĠMar jory
ĠMar riages
Ġover time
Ġover doses
Ġover ride
In equality
isc erate
isc losed
ov an
omin ated
ĠBill board
Ġatt ributed
ock ets
Ġexp ression
red ul
ĠDo oms
ĠDo ocy
Ġpl us
Ġpl ight
Ġpl anted
Ġpl astic
Ġpl otted
ĠRes idency
ĠRes ume
ĠRes ervation
ĠRes hape
ĠCan non
ĠCan nabis
ĠFl aw
ĠFl ap
ĠFl ips
ĠFl owers
ĠFl ores
ĠFl aws
Ġapp le
Ġapp earing
Ġact ors
Ġsc rat
Ġsc ored
Ġsc reening
Ġtw isted
Ġtw enty
ealth y
Ġrec ipe
ĠCar pet
Ġso ap
Ġqu otes
Ġen rollment
ĠTw ists
ood y
ĠHas htag
vest y
ĠAct ress
vent ions
.. ..
Ġcomp etition
Con v
Ġsec uring
Ġsec ured
Ġimp over
Ġimp orts
ĠNews papers
Ġthem es
Ġcomm itting
ĠDep end
ĠDep loy
ĠDep lorables
anc he
ĠAr ts
ĠAr son
ĠAr ming
ĠAr rives
ĠDef y
ĠDef ies
ĠDef ying
ĠDef inition
Ġbl ast
Ġbl essed
Ġwor risome
ĠBack track
ĠTr ashed
ĠCru sh
Ġsupport ive
Ġhelp ful
ult ural
ult uous
ner ed
St ri
ĠCont ender
Ġper ceived
Ġper plexed
Ġmay ors
uck ed
ST ON
Ġnomin ations
ĠAb u
ĠAb using
ĠAb dul
LL Y
riv al
Ġtr icks
Ġtr acks
ĠPl ots
ĠPl umm
ĠExp osing
ĠExp licit
round ed
Ġinter ns
Ġinter fering
ĠTax ing
Ġim minent
Ġpart ing
Ch ild
Ġdis ruption
Ġbel t
emb led
ĠQu otes
Ġse lection
Ġse izure
rop e
rop h
Ġab omin
Ġab ys
Ġdef ied
Ġdef ying
Ġdef initive
Ġunder dog
Ġbig ot
ĠReal ize
ron gh
ĠDay ton
Ġins ecurity
Ġins ulting
Ġins anity
Ġins ecure
ĠMan igault
yst eria
ĠEn act
ĠEn abling
ĠApp lications
az ie
az ard
Ġadministration s
ĠChar ts
Ġcare ers
ĠInter ns
Ġind ign
Ġind ifference
ĠCons ent
ĠCons cience
Ġman aging
Ġman euver
ĠComp etition
aff led
Ġ3 8
Ġdown right
ĠLeg end
rol lees
fl ake
fl ix
ĠDeal t
ĠBo oted
ĠHar s
ĠHar rison
Ġint act
cent ration
cent ric
ject ing
ĠCom b
ĠCom ed
Ġdisc retion
ĠImp erson
ĠImp ossible
ĠImp risoned
ĠSo ar
ĠSo ars
ĠInd eed
ĠInd ictments
Ġelect ors
Ġass ure
Ġass erts
Ġass uming
Ġass assination
Ġass urances
ĠBec erra
Ġrel iable
Ġrel uctance
lud ed
Ġworld view
Ġra iled
Ġra ucous
Ġsur ged
Ġsur face
Ġsur passed
ĠCo le
ĠCo oks
ĠDis ney
ĠDis enfranch
ĠDis qualif
ĠBar on
ĠBar riers
Ġtra mp
Ġtra uma
ĠPer mit
ĠPer mission
Ġpres erving
ĠAss et
ĠAss aults
ĠWin ston
ĠWin frey
Ġcontin ent
ĠConf essional
ĠTra pped
ĠIns iders
ĠIns piring
NC IS
Ġem blem
ĠSur render
ĠSur rogates
Ġprop elled
You Gov
ij an
Ġdep ending
Ġdep loy
Ġshort ly
Ġshort age
ĠSy n
ĠRem atch
ĠRem aining
ĠRem embrance
ĠUnder go
ĠUnder mining
Ġlegisl ator
ĠCor poration
ĠCor byn
Ġ5 4
Ġ5 6
ĠMin or
ĠMin ors
Ġreal izing
Ġfl owers
ĠZ ion
ĠZ ervos
Ġgu ests
Ġcourt ing
Ġcourt room
idd y
Ġeconom ically
Ġmillion aires
John son
ĠDem anded
ĠDem agogues
ĠPar nell
ĠPar nas
Ġent ers
Ġent itlement
Ġent renched
Ġmust er
Ġkill s
20 17
Ġchar acters
ĠMo le
Ġsystem atic
Ġmar ry
Ġrac ists
ging ly
ĠTrans it
ĠTrans form
Ġsub urban
ĠInt ended
ĠWorld wide
Ġret ain
Ġdem agog
ĠRet aliation
ĠDe af
ĠTweet storm
Ġob struct
ĠRob oc
Ġmin imal
ĠDen ounces
At heists
for ward
ĠCapit o
Ġco ach
Ġco oper
Ġdist anced
Ġde af
Ġph ones
Ġel aborate
ĠPart ly
ĠPart isanship
ĠPass engers
ĠOwn s
Ġorder ing
ĠInc ompet
Ġrest raining
not hing
ĠPress ley
Ġstand off
Ġsw ept
Ġsw ipe
Not e
ĠDisc losures
ellig ent
ĠScott ish
ĠWay ne
Re qu
Ġbo on
Ġbo om
Ġbo ot
Ġbo oth
Ġbo ils
Pro of
ĠSw ap
ĠSw ift
ĠSw eden
raw ing
Ġplay book
ĠSm ears
the m
RA L
Ġappro ximately
Ġ7 8
Ġ7 9
Ġ7 00
Sh ock
Sh ocking
Ġmass es
Ġmass ively
ĠPat aki
ĠWalk outs
iff ed
Un ity
Ġgr ace
Ġgr ows
Ġkn ocked
ĠSe ized
Don na
Ġdel ivers
Ġdel aying
Ġhome owners
ĠProm inent
ĠDel aney
ĠWater boarding
sp ecial
Ġpoint less
ocal yptic
Ġev ade
Ġev olving
ĠDeb unked
ĠJu venile
Fl ip
Ġcivil ized
Ġpost ing
ĠDist urbing
uel ing
ĠChe z
ĠChe ering
Ġnight club
enn a
Ġhost age
ĠRest oration
Ġview ing
ĠEff ects
Ġdet ailed
Ġdet ailing
Ġmean while
back s
ĠLo esch
ĠLook ed
Ġbenef ited
ĠDr ink
alt ers
ĠBusiness man
ĠProblem atic
icul ous
val de
Ġfil ings
Ġfil med
Ġrece ives
Ġchief s
ĠContin ued
lead ers
Ġmod erates
ĠEl on
ĠEl igible
Ġgen ocide
oug hed
Ġmis lead
Ġmis guided
Ġmis ogynistic
ĠHard ee
ĠGar rett
ĠDavid son
dem ean
Ġdiv isions
Ġdiv iding
Ġdiv orce
Ġdiv isiveness
Can adian
urg ers
ĠFound ed
Ġnon etheless
Ġchair s
ĠFar r
ĠFar age
Ben ef
Ġhar assing
Ġexc lude
Ġdecl ares
egoti ate
Ġbas hing
Ġforce ful
ðŁ Ĵ
ĠAir line
Ġrepresent ation
Dis appointed
ĠDes k
Who ever
Russ ians
Ġbu zz
off icial
iter ia
iter acy
ĠDecl aring
Ġsupp lies
ĠAppro ved
ĠAppro aches
Im ages
ĠSil encing
Bl ake
irc raft
cy cle
ĠClass rooms
ĠHand el
ĠFire arms
Ġjud g
Ġjud iciary
ĠPlay er
ĠPlay boy
ĠHon oring
ĠInv oke
ĠInv okes
ĠSub scribe
Ġlo opholes
ĠGreen berg
ĠCub ans
Ġexper iment
ĠFall on
ĠSystem ic
ĠDiv ision
Ġprosecut ing
ĠAddress ing
Ġsusp icion
Ġtreat s
ĠCho oses
Ġmain ly
rad ical
Ġbar red
Ġspec ify
Ġspec ulated
ĠAdm ission
con cern
Ġpar ad
ane ous
Ġrev iving
Ġrev olving
ĠKh ans
ĠRequ ired
ĠRequ iring
Off icers
ĠHaw k
ĠHaw king
ĠIll ness
Ġmem e
Ġmem orial
Ġground work
ĠJail ing
Ġadm ir
Ġadm itting
Ġadm iration
Ġtrad itions
Ġrad ically
War ning
bl own
bl ock
do ors
Ġocc urs
rog ant
ĠMod er
ĠEmb racing
Ġtravel ers
Ġland ed
ĠMis use
ĠMis ogyny
ĠPet ers
ĠBank rupt
light ened
Ġfix ated
Tom orrow
Ġsix th
Ġnegoti ators
Ġcomplain s
Politic o
Ġdr ill
Ġequ ipment
ĠReason able
Ġrestrict ion
ĠEr nest
ĠEr rors
ĠEmer ging
erc ulosis
ĠTreat s
ĠTreat ing
Ġpriv ile
Ġmind ful
Ġnet works
ĠLie berman
ĠRead s
Sec urity
Ġsol icit
Ġcru mbling
ĠLow est
ĠLow ry
Ġ199 5
Ġ199 7
Ġdiff iculty
Ġpen ned
Ġposs ess
ĠFix ing
Ġstay ing
Ġ13 0
ĠExecut e
ĠExecut ed
Ġhor rified
Ġinf o
ĠLim iting
ĠLim bo
ĠEng aged
ĠSn eak
ĠPun ishing
Ġcomplet ed
ĠTruth s
Ġblock buster
Ġwid ow
ĠBid ens
Ġmess y
Ġmess aging
ĠPred ators
ĠPred ictions
ĠDoub ling
ĠDoug lass
ĠWild ly
Ġnar ratives
Ġremember ed
Def iant
ici aries
ĠHun gry
ĠHun gary
ĠBoost er
Ġgrand children
ĠReview s
rick ets
rel igious
ĠRis ky
Ġtechn ically
Ġcirc les
Ġmult im
ĠVis ited
Ġpra ises
ĠReb uild
Ġdesp icable
Elect ing
Ġpubl isher
ĠFed Ex
ĠMor on
Ġmot ives
Ġball istic
Ġball oon
Ġcontribut ed
Black LivesMatter
ĠCop y
Ġpur ge
Ġpur port
Ġbrief ed
Ph arma
Ġtele vised
Ġpers istent
ĠRock y
Ġvac ated
Ġaccomp any
Ġaccomp anied
ĠRegul ate
Did n
Protest er
ĠBow ling
Ġpled ging
ĠSol icitor
Ġparticip ants
Ġ196 3
ĠSad iq
ĠDod ging
ĠGuard ian
ĠSelf ie
ĠEll iott
Ġprofess ors
Ġavoid ing
Ġcoll aps
ĠReject ing
ĠReject ed
Ġboost ing
Res earchers
Ġaut o
ĠCr ashed
ĠLyn ching
rave ling
Ġproject ed
Ġproject ions
Ġdefend ants
ĠCheck ing
Ġir rit
Ġslam ming
Ġpo orest
ĠLand rieu
hib ition
Ġcamp s
Ġcamp uses
ĠRog ers
ĠHam mers
Ġlif eline
Ġlif estyle
Ġaccus ers
ĠDiscuss ing
ĠDiscuss ion
Rac hel
ĠSun k
ĠSun nis
Ġsepar ated
ĠRod ney
ĠBur den
ĠBathroom s
ĠFact or
road s
Christ mas
Ġ198 4
Cor ruption
Comp assion
Comp letely
Ġliber tarian
Ġear nings
Ġboy cott
Exp anding
Ġhistor ian
ĠUpd ate
ES PN
ĠSimp son
abb ing
Ġcollect ed
Ġdomin ant
Ġbatt ling
ĠTrad itional
Ġobs ession
Ġobs ervation
ĠEffect ive
rent ices
Ġwitness ing
Ġsat irical
Ġhum ility
ĠGut ting
Ġappl ause
Ġphys icians
ĠRiot ers
Che cks
Ġcounter parts
ĠAccept ed
Ġcharacter ized
Ġprem ium
ĠBirther ism
Ġnormal ize
ĠExxon Mobil
mon ed
ĠNegoti ating
ĠNegoti ators
Ġbeat en
ĠUnp aid
Ġexpert ise
Ġ197 9
ĠProfess ional
ĠCur rency
Ġsect ion
ĠHor rific
ĠFlood s
Ġextra ordin
Ġafford ability
Lead ers
Six teen
itim ize
ĠWiret apped
ĠFel on
Ġhur ts
ĠForm ula
ĠWatchdog s
Per fect
ĠðŁ ĺ
Ġbur ied
Ġhouse hold
imb urs
ĠEarth quake
Ġimprove ment
ĠSurv ived
ĠDirect ly
Ġdri vers
Ġclin ch
ĠThank ful
ĠColumb us
ĠColumb ine
ĠInclud ed
Ġcourage ous
Int roducing
Le aving
udd le
Ġimm unity
Ġtour ism
ĠPers pective
Ġdrop s
ĠNar ciss
ĠOvert urns
ĠOvert urned
Ġimper ial
Ġperiod s
Ġoccup y
ĠWel d
ĠWel ch
ĠFuel ed
Ġlik ened
ĠDig s
Ġdraft ed
Ġjump ed
Ġclos ures
iscal c
Ġassoci ate
Ġassoci ation
ĠFundra isers
ĠBroad way
Har ris
cons ervative
cept ions
Ġfresh man
ĠGirl friend
ĠInn ovation
Ġproced ure
Ġproduct ion
ĠAdop tion
ĠRegistration s
Ġveto ed
Ġcyber attack
ĠWind ow
Ġpromp ting
ĠBeg ging
Ġcomb ative
Qu est
Qu ite
ĠSim on
ĠSter eotyp
Ġsal ute
Ġsacrif iced
Ġport ray
ĠPack ers
ĠBox er
Ġgl impse
ĠVacc inated
Ġprohib iting
Ġdesign ation
Ġgrad ually
Ġsymp athy
eas ef
eas ance
Ġtim ely
Ġpret ended
Ġmor ality
Ġprob able
ĠCrus hed
Comm un
Comm unity
arch y
ĠStrateg ic
Ġvacc inated
ĠEnter tain
Den ver
alle st
ĠCa uses
ĠCa using
Ġsing led
Ġbul ls
ĠReflect s
ĠExpl ored
ĠExpl oring
ĠExpl ode
ĠPerfect ly
El ite
Fin al
Jon athan
ĠTro jan
ĠCas ual
Ġporn ography
Ġbi ases
Ġbed room
ĠWeb er
ĠNav ajo
ĠPatriot ic
Celeb rities
EN T
List ening
Ġpot ent
Ġbail out
ĠRamp ant
ĠRush more
ĠFeat ure
Ġloud ly
ĠThrow back
ĠContract or
ĠAustral ian
Pre vent
Pre viously
Veter an
ĠSepar ation
Ġfat ig
ĠScrew ed
Ġcompet ing
ĠNeigh bors
Emb arrassing
def ense
ĠTight ens
ĠTechn ologies
icop ters
Ġcaut ious
ĠPiv otal
ĠDele ted
Ġgreen house
ĠScient ific
Ġdisplay ed
Add ressing
Gu ess
ĠOw ned
ĠRu ined
ĠBed ford
ĠLog o
ĠImm oral
Ġramp ant
ĠGuest s
Ġphil anthrop
ĠPoison ing
Ġautom atic
Ġautom aker
Mod erate
Reg ardless
xy mor
Ġrif le
Ġsch olars
Ġsch olar
ĠWhe els
ĠBreat htaking
Ġrevers ed
ĠReplac es
ĠFlo ated
Ġtrigger ed
Ġdisenfranch ised
Ġdisenfranch isement
Ġdeliber ately
ĠPrincip le
ĠPrincip les
president ial
with standing
ĠSat an
ĠPurs uing
ĠRan ked
ĠHistor ically
ĠMir acle
Ġnorm s
Ġfort unate
Ġpolar izing
Ġclub s
Ġimag ined
Ġunderst ood
ĠAppoint ment
Ġdenial s
ðŁĺ ±
Ġpoison ed
ĠCreat or
ĠPsych ology
ĠWat son
Ġattract ing
Ġecho es
ĠSing apore
Ġbre ast
Ġhaw kish
Ġdod ged
Ġdismant ling
ĠMcG ahn
Ġadvis ors
Ġcoast al
ĠDiscrimin ate
ðŁİ Ĥ
ĠSkew ers
Aw kward
Mor gan
Pr ice
Sil ver
Sil icon
ĠHond a
ĠJam ie
ĠVolunt eers
Ġentertain ing
Ġdemograp h
Disg usting
health y
ĠSom alia
ĠSom ali
Ġpool s
ĠPret ending
rud gingly
ĠHij ack
ĠBott om
ĠVirgin ians
Ġconven ed
agg rand
Ġrum ors
ĠCoop eration
Ġmagn ate
ĠNeighbor hoods
Ġcrus ade
ĠDow d
ĠNick name
ĠUt ter
Ġclimb ing
ĠMarsh all
Ġcaution ed
__ __
oqu ine
Ġtemper ament
ĠTrop hy
Ġwel comed
Ġcle ared
ĠOvers eeing
Ġmil k
Ġconservation ist
Ġunderc over
ĠIntimid ation
Ġunfortun ate
ĠSubsid ies
Ġutter ly
ĠEscal ate
ĠEscal ates
Ġunwilling ness
Business es
bear er
atisf ied
ĠSid ney
ĠSher rod
Ġcurt ail
Ġblank et
ĠLi ars
ĠEns ure
ĠUC LA
ĠShakes peare
Ġadequ ately
ĠScor ches
ĠWeiss elberg
ĠRecomm ends
ĠGener ations
Ġparalle l
ĠPrior itize
ĠAutom atically
Trou bled
Ġtrop hy
ĠTack ling
ĠCart oon
Ġwiret apping
Ġsoci etal
ĠDereg ulate
Ġhij ab
ĠGrim m
Ġgrop ing
Ġstress ful
ĠStrict est
ĠVe hicles
Ġansw ered
Ġansw ering
Ġalien ating
Ġmistaken ly
Laugh lin
Water gate
disc rimination
lar gest
ĠTill is
ĠTemper ament
Ġwreck ing
Ġbol ster
ĠRabb i
ĠHa aland
ĠGriev ances
Ġstead ily
ĠReass ures
Ġscrew ed
Ġincent ives
Ġmonit oring
ĠObst acle
Ġerad icate
Ġhomic ides
Ġsympt om
disg usting
Mist ake
Tra il
san ctuary
ĠSaf est
Ġbon uses
Ġboo ed
ĠFo ley
Ġmach ines
ĠGa etz
Ġupd ate
ĠOrd inary
ĠOrigin al
ĠCommand ments
extrem ely
Ġintrus ion
Ġflo ated
ĠHurd le
ĠIllust rates
Ġadmon ished
ĠDispar ities
Clear ly
Gre ece
lie b
ĠPric ing
ĠRoth man
ĠWik ileaks
ĠNondisc losure
Ġprejud ice
Ġmyster ious
ĠInspect or
Scar amucci
Ġparano id
ĠHawai ian
ĠStonew all
Cust oms
Fail ure
Honest ly
Mill ennials
Max ine
Snow den
inem a
ĠPok emon
ĠPestic ide
ĠOt to
ĠMau i
Ġmech anism
utt al
role um
Ġconsequ ence
Ġnotor iously
Ġju venile
Ġexacerb ate
Ġrus hing
Ġconscious ness
Ġdisadv antage
ropol itan
evast ating
ðŁįķ ðŁįķ
Reflect ions
ĠCambod ian
Aug ust
German y
MIL Y
Omar osa
clam ation
ĠSull ivan
ishn ess
ĠDing ell
ĠDut erte
ĠRah ami
ĠHans en
ĠHutch inson
opol ies
ĠYoun gest
Ġproduc er
Ġexclus ively
ĠUnlo ads
Ġrub ber
Ġenh ance
Ġconclus ions
ĠOblig ation
Pit tsburgh
Tox ic
haz ala
laf ly
ĠTla ib
enari os
isho ps
ĠIstan bul
ĠWHC D
ĠFIS A
Ġdow nt
ĠGott lieb
ĠStef an
ĠChaf ee
$ $
) :
3 8
3 9
6 9
7 5
7 50
8 9
A p
A id
A ust
A ud
A head
A my
A void
A FL
A KE
A ustin
A rianna
A ARP
B M
B orn
B ook
B attle
B arry
B rain
B arely
B rutal
B asket
B ullying
B roken
B aghdad
B eware
B uckle
B ristol
C r
C ad
C our
C old
C uts
C EO
C raz
C ounter
C arter
D ie
D oor
D iplom
D uty
D CA
D istrict
D arren
D ifferent
E U
E mer
E ll
E arth
E ye
F at
F all
F oot
F unding
G H
G ot
G iant
G irl
G rand
H on
H ill
H ome
H obby
H unt
H oly
H edge
I E
I I
I v
I de
I CA
I rish
J er
J ur
J ob
J ean
J une
J essica
K A
K id
K ob
K remlin
K athleen
L if
L ord
L IN
L uis
L APD
M ur
M ight
M aker
N O
N S
N ovember
O C
O l
O s
O w
O casio
P E
P s
P ri
P ack
P opul
P erry
P roud
P etition
P sych
P hoenix
R en
R ush
R eve
R ogue
S at
S ort
S uff
S itting
S elling
S antorum
S urgeon
S ector
S olar
S nap
T urn
T ony
T rack
T echn
V olunt
V irtually
W A
W eb
Y ears
] [
a bout
a ure
a ired
b u
b in
b et
b irth
b inger
b ullying
c am
c up
c ies
c ard
c ap
c ampaign
c andid
c ade
c ivil
c hel
c ibly
c alling
c riminals
c ellent
d ress
d ration
d ead
d rug
d eter
d estruct
d escribed
d ominated
e ous
f us
f ew
f our
f est
f rom
f ear
f ax
f oul
f alls
f igure
g ay
g os
g ard
g rown
h um
h istoric
h onor
i ency
j Ã
j it
k ah
k rel
l i
l on
l ate
l ost
l ast
l ades
l ived
l oving
l aved
l oughed
m es
m id
m us
m ort
m ire
m ons
m illion
m iddle
n ce
n ie
n ip
n able
n ical
n umber
n eck
o j
o z
o ans
o ha
p it
p ic
p ol
p ain
p rotect
p rime
r ists
s i
s ized
s ystem
s kinny
t ell
t rying
t ains
t urned
t aining
t racking
t weet
t remendous
u j
u o
u ent
u aries
u ellar
u endo
w d
w ich
w ife
w itch
y m
y our
y ard
z ero
Ã ³
Ġ čĊ
Ġ ordin
Ġ orthodox
in ers
in ence
in ous
in ting
in ently
Ġt an
Ġt ac
Ġt ally
Ġt ang
Ġt reasury
Ġt ables
Ġt ipping
Ġt itled
Ġt anking
Ġt ongue
Ġt rivial
he ard
he ren
he ll
he ck
on ored
er ous
er ting
er ated
er ily
an ning
an other
re form
at he
at om
at ist
ĠT R
ĠT a
ĠT el
ĠT out
ĠT eb
ĠT ina
ĠT une
ĠT rees
ĠT uition
ĠT attoo
or ch
or ates
or ied
or ize
or ously
al ey
al ize
st y
st ood
st ating
Ġthe orists
ing ering
ing ham
ing arten
Ġa fl
Ġa iding
Ġa usterity
Ġa ircraft
it as
it ized
it hers
ĠA B
ĠA v
ĠA in
ĠA ven
ĠA ik
ĠA FL
ĠA zar
ĠA uction
ĠA venue
ĠA yanna
ĠA jit
ed ay
ĠS B
ĠS O
ĠS T
ĠS z
ĠS ew
ĠS ings
ĠS ony
ĠS eals
ĠS ara
ĠS udden
ĠS uis
ĠS asse
ĠS ealed
ĠS asha
ĠS WAT
ĠS uperv
ĠS gt
ĠS inema
is ly
is iting
is ively
is odes
ĠC ant
ĠC ure
ĠC ran
ĠC any
ĠC ert
ĠC akes
ĠC ope
ĠC aps
ĠC ait
ĠC raft
ĠC lement
ĠC atherine
ĠC oca
ĠC uellar
ar ious
ar ound
ar ital
es h
es is
es ar
es ley
ic ia
ic ates
ic ens
ic ited
Ġw ary
Ġw est
Ġw eb
Ġw omp
Ġw ings
Ġw ider
Ġw aving
Ġw ield
Ġw alks
Ġw rought
Ġw oods
Ġs el
Ġs hat
Ġs orts
Ġs unk
Ġs kipping
Ġs earches
Ġs ucceeds
Ġc e
Ġc ad
Ġc ake
Ġc ared
Ġc ute
Ġc apped
Ġc overs
Ġc ertificates
Ġc ategory
Ġp ion
Ġp ave
Ġp eek
Ġp ound
Ġp eers
Ġp rize
Ġp enny
Ġp seud
Ġp ockets
ion age
Ġf est
Ġf ishing
Ġf reaking
Ġf olly
Ġf eeds
Ġf isher
Ġf ocuses
Ġf ascism
Ġf ringe
Ġf aux
Ġf ruit
ĠI N
ĠP ad
ĠP our
ĠP ant
ĠP ants
ĠP ins
ĠP ets
ĠP ours
ĠP rank
ĠP ointing
ĠP henomenon
ĠP TS
ĠP urdue
ĠD M
ĠD as
ĠD ub
ĠD ry
ĠD iet
ĠD Ã©
ĠD annel
ĠD rives
ĠD itches
ĠD estroying
ĠD rafting
ĠD educt
ĠD aines
id is
id able
Ġb ay
Ġb ust
Ġb end
Ġb one
Ġb itch
Ġb ases
Ġb ird
Ġb rut
Ġb irds
Ġb ribery
Ġb uddy
ĠO P
ĠO ber
ĠO ops
ĠO ligarch
ĠO minous
Ġto oth
ĠR up
ĠR ampa
ĠR ough
ĠR io
ĠR ivers
ĠR anks
ĠR ansom
ent ist
ent ity
ĠW ary
ĠW ide
ĠW ine
ĠW ound
ĠW aging
ĠW asted
ĠW ishing
ĠW IL
ĠW SJ
ĠH Q
ĠH es
ĠH id
ĠH ind
ĠH ick
ĠH aul
ĠH ating
ĠH err
ĠH int
ĠH ailed
ĠH inges
le ash
ĠB L
ĠB S
ĠB or
ĠB ab
ĠB ass
ĠB ount
ĠB ark
ĠB itter
ĠB reed
ĠB ets
ĠB ull
ĠB ait
ĠB eds
ĠB apt
ĠB ushes
ĠB uddies
om i
om ain
ĠF le
ĠF ist
ĠF ame
ĠF eet
ĠF aking
ĠF ault
ĠF RA
ĠF ancy
ĠF illing
ĠF rees
ĠF resh
ĠF isher
ĠF uming
ĠF ascist
ĠF abric
ĠF leeing
ĠF ragile
ĠF ascism
ĠM s
ĠM im
ĠM ere
ĠM uss
ĠM isc
ĠM ounts
ĠM aint
ĠM ogul
ĠM oyers
ĠM ortg
ĠM ormon
ĠM ishand
ĠM atalin
ĠM azie
as m
Ġh ab
Ġh ush
Ġh ood
Ġh ats
Ġh ottest
ot er
Ġd i
Ġd are
Ġd ual
Ġd ating
Ġd ump
Ġd read
Ġd rum
Ġd aunting
Ġd eduction
Ġm ac
Ġm ud
Ġm ant
Ġm ailed
Ġm aps
Ġm ocking
Ġm ole
Ġm iscalc
Ġin stitution
Ġin put
ac red
ig ent
ig ated
ig ating
ol ing
ol ine
ol ting
ol ences
ol ini
âĢ Ĭ
âĢ ĭ
res hing
Ġth ick
Ġth rows
ow der
el ed
el and
el ve
el ines
el let
el rod
ĠG er
ĠG ri
ĠG ris
ĠG ren
ĠG ale
ĠG rew
ĠG reet
Ġn ail
Ġn ears
Ġn urt
Ġn aked
Ġn ostal
ers ection
ill usion
ĠN S
ĠN ate
ĠN ep
ĠN eal
ĠN ag
ĠN ine
ĠN ug
ĠN eg
ĠN az
ĠN erve
ĠN DA
ĠN uke
ĠN ye
ĠN PR
ĠN erd
ĠN onsensical
ĠN utrition
am ina
im ag
ĠL L
ĠL ion
ĠL il
ĠL un
ĠL inton
ĠL ang
ĠL ama
ĠL ips
ĠL ived
ĠL ucky
ĠL angu
ĠL eng
ĠL aptop
ut o
ut ocracy
ad vent
ad ians
ad ium
Ġl am
Ġl uc
Ġl ip
Ġl imp
Ġl ists
Ġl ips
Ġl oving
Ġl ashed
Ġl aughed
Ġl aptop
Ġl obbied
us cept
em i
em ele
em oans
em esis
ĠE ld
ĠE ST
ĠE val
ĠE ats
ĠE lephants
ĠE uro
ĠE mancip
ĠIn stitutional
ĠIn accurate
Ġg e
Ġg ro
Ġg ag
Ġg rief
Ġg reet
Ġg rapp
Ġg riev
Ġg raphic
Ġg rotesque
Ġre gressive
Ġre jects
Ġre aches
Ġre leases
Ġre eling
Ġre hab
Ġfor feiture
ur an
ur acy
ur ality
Ġe gg
Ġe ighth
Ġe yeb
oc ated
ĠU l
ĠU valde
out rageous
ew ay
ew alk
ew ards
ter y
ak ening
Ġhe m
Ġhe ed
Ġhe ights
Ġhe ating
ge fell
Ġst ain
Ġst ays
Ġst ations
Ġst ump
Ġst ressed
Ġst eer
Ġst rings
Ġst eaks
Ġst aggering
ĠJ ar
ĠJ aw
ĠJ erk
ĠJ ealous
ĠSt ran
ĠSt ealth
ĠSt reak
ĠSt oke
ĠSt eals
ĠSt rongest
ĠSt irs
ĠSt aggering
ub ris
ub bed
ul ator
ident ified
un u
un ci
un ami
pp le
ri et
ri ad
ĠFor ms
op en
ĠOn to
ĠOn slaught
ĠV a
ĠV u
ĠV ogue
ĠV eh
ack y
Ġan aly
ain stream
ubl ished
est imate
rom ises
rom nibus
hat z
her ic
ĠCon cession
ĠCon undrum
Ġy eah
Ġy oga
ĠCl os
ĠCl iff
ĠCl aud
ĠCl osure
Ġcon ver
Ġcon vey
Ġcon vert
Ġcon stitute
ĠK ard
ĠK agan
ĠK icking
ĠK yle
ĠK inz
ĠK isly
if eration
ch annel
ust omed
ear ched
are st
ess el
ess ment
Ġv ag
Ġv ide
Ġv ind
Ġv ying
Ġv isions
Ġv iable
th an
end as
iv us
os ity
ress ingly
ee z
ign ment
ab lers
Ġas c
Ġas cend
ies el
Trump s
ĠCh ill
ud ing
ant o
ant ing
ant ic
ant aged
ast es
ast ik
ast ics
ke ys
ff iti
od ile
od ied
ĠTh in
ĠTh read
ĠTh ousand
ĠTh umbs
Ġle wd
ĠY elling
Ġr anted
Ġr aked
Ġr itual
ry n
ell ion
ell ation
Ġpro ductive
Ġpro claimed
ie ves
ie vable
Ġsh ade
Ġsh ady
Ġsh ips
Ġsh iny
Ġsh ipping
Ġsh ameless
Ġsh runk
Ġsh rinking
Ġsh adows
Ġj et
Ġj ailed
Ġj umps
Ġj uggernaut
ans ing
ard i
ĠNew ly
ag le
ex ington
ass ified
qu a
qu ated
Ġch amp
Ġch ambers
Ġch ocolate
Ġex empt
Ġex empl
Ġ20 30
um ably
ĠAs a
Ġwill ful
ĠBe ast
ĠBe gan
ĠSh am
ĠSh un
ĠSh ia
ĠSh ap
ĠSh ades
ĠSh adows
ĠSh aky
ĠSh krel
ob y
ob le
ĠRe uters
ip ing
ip elines
ap al
Ġal igned
Ġal cohol
Ġsp are
Ġsp ies
Ġsp iral
ĠHe ed
ĠHe ight
ĠHe ated
Ġad am
Ġad vent
ok ers
ĠPro ced
ĠPro ceed
ĠAl ask
ĠAl though
ĠAl umn
ĠAl arms
ĠAl ito
ĠAl uminum
rot s
ern eath
ine a
âĢĿ .
âĢĿ ?
ict ive
ind a
ĠUn se
ĠUn rest
ĠUn ified
ĠUn leas
ĠUn fortun
ĠUn acceptable
ĠUn comfortable
ĠUn hinged
ĠUn intended
ĠUn ivision
ĠSp ied
ĠPol is
ount ing
Ġbut t
omm y
ĠLe aning
Ġun ab
Ġun reg
Ġun not
Ġun aware
Ġun reasonable
Ġout fit
ick er
ick ens
Ġk inds
ens able
ĠAd olf
Ġwh ining
Ġall iances
Ġcl ap
Ġcl ergy
ĠSc ream
ĠSc ene
ĠSc otland
ber mann
Th irty
itt ling
ĠEx isting
ran ean
ran nical
orm ously
Ġor igins
ĠOver ru
ĠOver look
ĠOver doses
ĠOver ride
ĠNot es
ĠNot orious
ĠWhite house
Ġrep arations
Ġlaw n
og ical
ĠBl ess
ĠBl air
man y
ĠLaw ful
Ġres isting
Ġres isted
Ġres olved
ĠOff ended
ons anto
ĠMar s
ĠMar ie
ĠMar ches
ĠMar athon
Ġover re
Ġover ly
Ġover throw
Ġstate house
ade qu
ink en
In f
In appropriate
ĠBill y
ĠBill boards
Ġus her
Rep s
ĠWe ingarten
ren ching
app ointing
ĠRuss ell
Ġexp ort
Ġexp lor
Ġexp enses
ĠDo zen
Ġacc idents
Ġacc eler
Ġacc ustomed
ĠOut law
ĠOut perform
Ġpl ate
Ġpl un
Ġpl umm
Ġpl acing
Ġpl atitudes
Ġpl urality
ree ks
ĠUp hold
ound ingly
ĠRes olve
ĠRes ettlement
ĠCan adians
ĠFl u
ĠFl are
ĠFl ies
ĠFl ipped
Ġapp s
Ġapp alled
Ġapp lying
Ġapp alling
Ġapp eas
ach ary
Ġdec ries
Ġdec rease
Ġdec isively
ĠAtt ended
ĠAtt itude
uff s
leg als
oy a
Ġtw eak
Ġrec use
Ġrec laim
Ġrec ipient
Ġinc lined
Ġinc redul
ĠState hood
Ġag ing
Ġag grav
Ġag endas
Ġcall er
Ġqu ad
Ġqu een
Ġqu eer
Ġen lightened
ĠTw eak
ĠTw enty
Ġweek ly
Ġweek day
Ġformer ly
ug ging
ling ing
ual ity
illion aires
so ever
Ġcomp are
Ġcomp osition
Ġcomp elled
Ġcomp ete
Ġcomp romised
Ġcomp ensation
Ġcomp arisons
ower ing
Ġsec rets
ik ing
ib s
ib les
ish ment
Ġmon etary
Ġimp l
Ġimp oss
Ġimp erson
Ġimp roper
Ġcons ecutive
Ġcons pir
Ġcons iders
Ġcons pired
ĠMc L
ĠMc Kin
ĠOr g
vel s
ĠAr k
ĠAr rived
ĠAr thur
ĠDef ines
ĠDef ensive
Ġbl ows
Ġbl ah
Ġbl uster
Ġback er
Ġback log
Ġback drop
ĠCru ise
led ged
Ġleg itim
amil a
ecut ion
Ġund ert
Ġund oubtedly
ful l
Ġar rives
Ġar rival
St range
St unning
ĠCont ent
Ġper ceptions
PO LL
ins piring
Ġwar ranted
uck ers
ĠAb olishing
ĠAb andons
Ġam big
Ġam endments
ah aw
Ġtr ash
Ġtr olls
ĠPl ight
ĠPl astic
Ġend ured
Ġend angered
orth y
Ġrem ote
Ġrem otely
atch ing
Ġbill ed
Ġop ted
ĠAcc ent
ĠAcc urate
Ġpre y
Ġpre view
How ever
ĠJohn ny
Ch allen
Ch ampion
ĠNo ise
Ġdis information
Ġdis liked
ĠQu inn
Ġse as
Ġab d
Ġab und
Ġab usive
Ġab ruptly
Ġab solute
ĠRec ounts
Ġdef iance
Ġdef amation
Ġmy st
Ġmy riad
Ġbig ots
ĠPolitic izing
An al
An ita
rid den
rid iculous
ĠBig ots
Ġins isting
ĠMan age
ĠMan uel
yst er
ĠEn zi
ĠApp oints
ĠApp ropriations
ĠApp alach
ĠHel en
ĠKnow ledge
Ġcare less
ĠInter pret
ĠBr ig
ĠBr akes
ĠBr aces
Ġind ict
Ġind ustrial
Ġmed ioc
ĠCons ervatism
Ġadv ise
ev ol
Ġman ifest
ĠComp uters
ros ive
ros sh
Ġstart ling
Ġeff iciency
ĠLeg ality
ĠUnd ers
fl op
fl ag
ier re
ĠBo os
ĠBo oming
ĠHar assed
Ġint elligent
ĠCom fort
ĠCom edy
ĠImp ort
ĠImp acts
ĠImp lications
ĠImp roved
ĠSo le
ĠInd ians
ĠInd ustries
Ġopp ressed
Ġass umes
Ġass istant
Ġrel ates
Ġrel iably
Ġreg imes
Ġreg ards
Ġra bb
ash ian
ash amed
Ġsur real
Ġsur rogates
ĠGu am
ele st
ĠCo ach
ĠWant ing
augh n
ĠDis array
ĠBar ney
ĠBar rels
Ġro y
Ġro iling
Ġtra gically
Ġtra vesty
ĠPer mits
Ġpres c
Ġpres chool
Ġpres criptions
ĠAss ails
sh ine
sh ithole
Ġcontin uation
Cl ock
ĠConf usion
ĠConf ederacy
atter ed
ĠTra uma
ĠIns anity
ĠCount ing
Ġem an
Ġmajor ities
ĠSur face
Ġref rain
ĠTri als
Ġ6 8
ric ia
ric ultural
Ġban ner
Ġprop ortions
ĠFin ished
Ġant agon
Ġann ually
ĠNomin ations
ull in
ĠSign atures
Ġdep iction
Ġdep ths
Ġdep ressing
ĠUnder mines
Ġjob less
Ġlegisl ate
ĠCor i
ĠCor rupt
ĠCor rections
Ġconc eded
ĠMin i
Ġreal izes
Ġreal istic
Ġpass es
Ġfl u
Ġfl our
Ġfl owing
Ġfl ipping
She pard
ĠZ oe
ĠZ ephyr
Ġconf irms
Ġgu ise
Ġpay check
ring es
rib ing
Ġcourt esy
ĠDem ise
Ġnever theless
ĠPar ole
Ġent ity
Ġent repreneurs
When ever
reg ular
Ġche at
ĠBen nett
ĠPost er
Ġrac ing
Ġwhere ver
ĠRo asted
ĠRo oney
head s
head ed
ĠTrans fer
Ex ecutive
ann ot
Ġsub jects
ĠElect s
ĠInt ent
Ġserv ants
Ġret ro
Ġret ali
Ġret weet
Ġdem ean
Ġdem eaning
ĠDe leg
ĠDe utsche
Ġhigh ways
ĠMe idasTouch
ĠPay er
ĠPay day
ĠPay off
ĠPay check
ĠRob ot
ask in
ask ing
Is s
Ġdes ert
Sc or
ys elf
auc ous
Ġclear s
Ġclear er
ĠMass ie
ĠDen ouncing
ĠPre viously
ĠPre fers
ĠReform ing
At lant
Ġco zy
Ġcho pping
Ġdist orted
Ġel ders
Ġel oqu
ĠPart ing
ĠRepeal s
Ġprotest ors
ĠTest ed
Ġsl ate
Ġsl ave
Ġsl ide
Ġsl og
Ġsl aves
ĠPass ion
Ġext rad
ĠInc oming
ĠInc idents
ĠInc redibly
ĠInc arcerated
ĠAny body
ĠRel uctant
Ġread er
ĠSch w
ĠSch ock
Ġchallen gers
de af
Ġlegal izing
Ġtrans it
Ġtrans formation
Ġtrans cend
Ġtrans cripts
ĠPress ed
ĠPen insula
ĠJan e
yl er
ĠMillion aires
Ġsw ord
Ġsw ath
ĠProp er
ĠProp osition
ĠProp erly
Just in
ĠDisc iplined
ĠFamil iar
Ġinv ade
Ġinv isible
Ġaff irmative
ĠUnion izing
pir ation
Ġsm ell
inc luding
Ġbo il
ĠReg istering
ĠReg istry
Ġed ition
ĠSw astika
ĠSm ack
ĠServ ed
the y
the med
ĠThem e
rac ial
rac ies
Ġden ouncing
Ġappro ached
Ġ7 6
Sh irt
ĠMy ths
ĠPat ty
ĠPat riots
ĠWalk ed
ĠHur ricanes
Un fair
Ġsuggest ions
Ġgr illed
Ġkn eeling
Ġkn ockout
ĠSe lection
Ġdel ight
ĠStep hens
Ġrat ified
Ġleft ist
ĠAdd ing
ĠCent rist
ĠDel iber
ĠEconom ists
Ġannounc es
rif e
Ġdifferent iate
ĠSet tles
ĠSl ate
ĠSl ips
ĠGre y
ĠPoll uters
ten ance
Ġcover t
ĠDeb ating
Ġben ign
Ġben eath
Ġmembers hip
ĠHead lines
Fl ag
Fl opped
lic ated
ĠChallen gers
ĠChe at
ĠChe ating
ĠMem ories
ĠMem orable
ĠControl s
ither ing
Ġbro ker
Ġhost ing
ĠBudget s
ĠRest ored
ĠResign ing
ĠPr amila
Ġsocial ly
Ġdet ect
ĠPal mer
ĠLo osen
Ġdeb unked
Ġbenef iciaries
ĠDr ake
ĠWrong ly
Ġorgan izing
och ran
icul arly
ĠEd die
Ġstaff ing
ĠKing dom
pro gressive
pro of
pro claimed
ĠRich mond
Ġunc le
Ġunc heck
lead er
Ġprev ents
Ġregul ator
Ġmis steps
Ġpoll ster
ĠHard est
ĠTur f
Ġsexual ity
ĠArrest ing
ĠSuggest ing
ĠFound ers
Ġdead liest
ai ro
ĠFar ce
ado es
sc hool
Ġfree ze
ĠRoy al
aged don
Ġign ores
ĠRed ef
ĠRed uction
Ġhar vest
Ġkind ly
Ġexc eption
Ġfire works
Ġfire fighters
Ġbas hed
Ab raham
Ab andon
Watch ing
ĠIde ological
ĠLat v
Ġreason ably
Ġris ked
ĠAnnounc ed
ĠAir bnb
ĠAir plane
Ġne utral
iam an
Dis aster
ĠDes igned
ĠDes erved
ĠOb l
ĠOb ey
ĠOb tain
Ġhon ors
ribut es
ribut ions
Sp eed
Sp icer
Sp ray
Sp oiler
bass ad
Ġinvol ves
iter ranean
Ġunf avor
Ġunf ounded
ĠRev ision
Bl ow
Every day
Ġred ef
Ġred raw
US DA
Ġceleb rates
ĠClass room
ĠHand led
ĠFire arm
ogn itive
ĠHon eymoon
ĠFree ze
ĠInv itation
Bill y
ĠFreedom s
Ġspeak ers
Ġlo op
Ġlo omed
los ion
Ġbreak down
ĠGreen house
ĠGreen wald
aut y
ĠCub s
ĠKn ock
ĠKn eeling
ĠRecord ings
ĠStar bucks
Ġprosecut ed
Ġsusp ension
ĠHate ful
Ġtreat y
ĠTer rified
ĠCho se
raz en
DA Y
DA PL
ĠHost ing
ĠHost ages
ĠSusp end
Ġpat ent
Ġpat rol
Ġpred ator
Ġpred icts
Ġair lines
Ġfavor ites
ĠMid night
Ġap artment
ĠProsecut e
ĠProsecut ing
ĠProsecut ions
ez za
Ġpar ap
Ġdesc ended
Ġdevelop er
Ar med
Ar rest
Ar nold
Ar thur
elt way
Ġinflu x
Ġinflu encing
ograp hic
Report er
ĠKh anna
ĠLegisl ator
Ġaw esome
Ġsk etch
Ġfig uring
Am b
Ġpoor er
lo oper
Ġbeh ave
Ġshoot s
ĠWell ness
Ġform ula
ĠPast or
Ġbr ink
Ġbr akes
ĠLaun ching
Ġliberal ism
Ġadm issions
ĠAw ry
ĠSeek ers
ĠCeleb rated
ĠHot line
En ter
En hanced
lin er
ĠCamp uses
Ġenc ryption
Ġbelie ving
ĠMod i
ĠInf owars
Ġcommon ly
Ġjournal istic
Ġaccept ance
Ġpract icing
ĠEv ac
see kers
Ġ17 76
ĠColl ude
Ġfather s
ĠBattle field
ĠMis under
Ġstat ue
ĠVal entine
ĠTim ing
ĠBas eless
ĠBoy cotting
Ġdemonst ration
Tom i
Ġpun ishing
obb ing
Ġwall s
ĠID s
ĠMet al
ĠMet aphor
Ġdr owned
Ġamid st
ĠDam ned
ĠDam aging
ĠFather s
epar able
ĠRespond ed
Ġsuper power
ĠHal ted
ĠEmer ge
erc ussions
ĠTreat y
Ġrecogn izing
Ġunderstand ably
Ġsol ving
ĠRi yad
ĠArg ent
Ġ199 2
Ġposs ession
ĠStay ed
ĠStorm s
Ad ults
Ġdeter mining
ĠCy rus
Ġinf idel
Ġinf ighting
ĠEp i
Ġheart beat
ĠCondem ning
Big gest
Big ger
ĠSn ag
ĠSn iper
ĠPun ches
Ġbirth right
Ġoper ates
ĠRand y
ĠRand om
we ights
rep id
ĠCast ing
ĠPred icted
ĠPred atory
ĠOld er
ĠWild est
Ġphot ographer
Def ending
Man afort
Man hattan
Old s
Ġappoint ments
ĠComplain ing
ĠBoost s
ĠTrip le
Ġgrand parents
Ġreview ed
Ġcomment ators
Ġcapital ist
Ġcapital ize
rick land
ĠOrgan ized
Ġtechn ologies
Ġtechn iques
Ġfore st
Ġfore casts
ĠRen eg
ĠFil med
ĠFil ming
ĠFil ibust
Ġmult inational
Ġunion ize
Bec oming
ĠVet ted
Ġsecret ive
whel ming
Ġz eal
ĠFed eration
Ġmot to
Ġmot ivated
Ind ustrial
ĠCop ied
ĠNun berg
Min neapolis
Ġsn apped
Ġvers ions
Ġexecut e
Tod d
Ġep isodes
Ġtele com
Ġtele phone
Ġtele prompter
Ġcast ing
ĠRock et
ĠRegul atory
Ġprincip led
Ġdoct rine
Ġens uring
RE S
per ienced
ĠGround work
Ġscandal ous
Ġmarket place
ĠPul se
ĠMag gie
Ġharm ful
ĠRoll out
Ġnear by
Ġcond one
Inter national
ĠAngel ou
Pat rick
ĠCr own
ĠCrowd s
ĠCrowd ed
Ġmurder ous
Ġproject ion
ĠRestrict ive
Te acher
Ġir ration
Ġeth anol
ĠArt ists
ĠRece iving
ĠPrevent ing
Ġpurs ued
ĠHam ill
ĠHam mond
ĠFocus ing
Ġlif elong
Ġaccus er
ĠAssoci ates
Ġneigh boring
ĠSun unu
Ġfast est
ĠRod rigue
ĠFact ory
ĠFront runner
Ġappeal ed
ĠCommun ist
Ġ198 6
Ġ198 7
Ġear ning
ĠHospital ized
ĠHeart breaking
ĠProject ed
Out rage
Ġtact ical
ĠAnt idote
Ġ202 5
Ġ202 6
war ranted
ĠHands hake
ĠMeg adonor
Ġmilit arized
Ġmilit iamen
Dav is
Ġav ail
ĠPardon ing
ĠDismiss al
ĠRos ie
Put ting
Ġtyp es
Ġmention ing
Ġran ked
Ġcontract or
Ġcontract ing
Ġamount ed
Ġdisapp ointment
Ġjudges hip
Ġpredict ing
Ġpredict ions
Ġhum ble
Ġhum iliating
Ġdiss ervice
ĠInvest ors
Israel is
ĠRiot er
Ġcounter part
ĠFeel ings
Ġanger ed
ĠAccept ance
Pl us
Wor ried
equ ity
Ġprem ier
ĠMilit ant
ĠMilit arization
ĠGrass roots
ĠIncre ased
Ġinst all
Ġinst ability
ĠAdam s
Ġprec ip
ĠTrib al
Co ast
Co hen
KK K
Ġtrend ing
Ġbott le
Ġdig ging
ĠJer ome
ĠJer emy
ĠCancel ing
Ġ197 1
edd ed
ĠCur se
ĠCur ious
ĠCur iel
Ġsect arian
ĠMil estone
ĠFlood ed
ĠElse where
De legates
Imp each
Lead ership
Six ty
Ġsom eday
ĠFel onies
Ġloc ated
Ġgolf ing
Ġcancel ing
Ġimprove ments
Ġsurvey ed
Ġsubsid y
NA TO
Ġut il
Ġut ility
ĠDer ails
ĠDirect ors
ĠFriend ly
Ġforg ive
Ġuns uccessful
ĠAbs ence
Le vel
Ġri ft
ĠSuff ered
Ġsqu eeze
Ġfel onies
ĠMobil ize
Ġhom ework
emin ists
Ġthank ful
Ġimm ensely
Ġdisag reed
Op rah
alter ing
Ġimper fect
[...]
