{
  "version": "1.0",
  "truncation": null,
  "padding": null,
  "added_tokens": [
    {
      "id": 0,
      "content": "[PAD]",
      "single_word": false,
      "lstrip": false,
      "rstrip": false,
      "normalized": false,
      "special": true
    },
    {
      "id": 1,
      "content": "[UNK]",
      "single_word": false,
      "lstrip": false,
      "rstrip": false,
      "normalized": false,
      "special": true
    },
    {
      "id": 2,
      "content": "[CLS]",
      "single_word": false,
      "lstrip": false,
      "rstrip": false,
      "normalized": false,
      "special": true
    },
    {
      "id": 3,
      "content": "[SEP]",
      "single_word": false,
      "lstrip": false,
      "rstrip": false,
      "normalized": false,
      "special": true
    },
    {
      "id": 4,
      "content": "[MASK]",
      "single_word": false,
      "lstrip": false,
      "rstrip": false,
      "normalized": false,
      "special": true
    }
  ],
  "normalizer": {
    "type": "BertNormalizer",
    "clean_text": true,
    "handle_chinese_chars": true,
    "strip_accents": null,
    "lowercase": true
  },
  "pre_tokenizer": {
    "type": "BertPreTokenizer"
  },
  "post_processor": {
    "type": "TemplateProcessing",
    "single": [
      {
        "SpecialToken": {
          "id": "[CLS]",
          "type_id": 0
        }
      },
      {
        "Sequence": {
          "id": "A",
          "type_id": 0
        }
      },
      {
        "SpecialToken": {
          "id": "[SEP]",
          "type_id": 0
        }
      }
    ],
    "pair": [
      {
        "SpecialToken": {
          "id": "[CLS]",
          "type_id": 0
        }
      },
      {
        "Sequence": {
          "id": "A",
          "type_id": 0
        }
      },
      {
        "SpecialToken": {
          "id": "[SEP]",
          "type_id": 0
        }
      },
      {
        "Sequence": {
          "id": "B",
          "type_id": 1
        }
      },
      {
        "SpecialToken": {
          "id": "[SEP]",
          "type_id": 1
        }
      }
    ],
    "special_tokens": {
      "[CLS]": {
        "id": "[CLS]",
        "ids": [
          2
        ],
        "tokens": [
          "[CLS]"
        ]
      },
      "[SEP]": {
        "id": "[SEP]",
        "ids": [
          3
        ],
        "tokens": [
          "[SEP]"
        ]
      }
    }
  },
  "decoder": {
    "type": "WordPiece",
    "prefix": "##",
    "cleanup": true
  },
  "model": {
    "type": "WordPiece",
    "unk_token": "[UNK]",
    "continuing_subword_prefix": "##",
    "max_input_chars_per_word": 100,
    "vocab": {
      "[PAD]": 0,
      "[UNK]": 1,
      "[CLS]": 2,
      "[SEP]": 3,
      "[MASK]": 4,
      "!": 5,
      "\"": 6,
      "#": 7,
      "$": 8,
      "%": 9,
      "&": 10,
      "'": 11,
      "(": 12,
      ")": 13,
      "*": 14,
      "+": 15,
      ",": 16,
      "-": 17,
      ".": 18,
      "/": 19,
      "0": 20,
      "1": 21,
      "2": 22,
      "3": 23,
      "4": 24,
      "5": 25,
      "6": 26,
      "7": 27,
      "8": 28,
      "9": 29,
      ":": 30,
      ";": 31,
      "=": 32,
      ">": 33,
      "?": 34,
      "@": 35,
      "[": 36,
      "\\": 37,
      "]": 38,
      "_": 39,
      "`": 40,
      "a": 41,
      "b": 42,
      "c": 43,
      "d": 44,
      "e": 45,
      "f": 46,
      "g": 47,
      "h": 48,
      "i": 49,
      "j": 50,
      "k": 51,
      "l": 52,
      "m": 53,
      "n": 54,
      "o": 55,
      "p": 56,
      "q": 57,
      "r": 58,
      "s": 59,
      "t": 60,
      "u": 61,
      "v": 62,
      "w": 63,
      "x": 64,
      "y": 65,
      "z": 66,
      "|": 67,
      "~": 68,
      "¡": 69,
      "¯": 70,
      "°": 71,
      "¹": 72,
      "½": 73,
      "¿": 74,
      "ł": 75,
      "а": 76,
      "б": 77,
      "г": 78,
      "е": 79,
      "к": 80,
      "л": 81,
      "м": 82,
      "о": 83,
      "с": 84,
      "т": 85,
      "у": 86,
      "ь": 87,
      "я": 88,
      "আ": 89,
      "ই": 90,
      "গ": 91,
      "ট": 92,
      "ভ": 93,
      "র": 94,
      "ল": 95,
      "স": 96,
      "া": 97,
      "ি": 98,
      "ে": 99,
      "ಠ": 100,
      "ᴥ": 101,
      "ᵒ": 102,
      "ᶅ": 103,
      "ᶘ": 104,
      "–": 105,
      "—": 106,
      "―": 107,
      "‘": 108,
      "’": 109,
      "“": 110,
      "”": 111,
      "…": 112,
      "′": 113,
      "″": 114,
      "™": 115,
      "⊙": 116,
      "◕": 117,
      "✊": 118,
      "❤": 119,
      "ツ": 120,
      "︿": 121,
      "🌮": 122,
      "🍋": 123,
      "🍕": 124,
      "🎂": 125,
      "🎄": 126,
      "🎈": 127,
      "🎉": 128,
      "🎤": 129,
      "🎶": 130,
      "🎸": 131,
      "🐔": 132,
      "🐮": 133,
      "🐱": 134,
      "🐷": 135,
      "👀": 136,
      "👊": 137,
      "👑": 138,
      "👬": 139,
      "👻": 140,
      "💀": 141,
      "💉": 142,
      "💊": 143,
      "💋": 144,
      "💩": 145,
      "💰": 146,
      "🔥": 147,
      "😂": 148,
      "😎": 149,
      "😒": 150,
      "😔": 151,
      "😞": 152,
      "😢": 153,
      "😬": 154,
      "😭": 155,
      "😱": 156,
      "🙄": 157,
      "🙌": 158,
      "🚇": 159,
      "🚗": 160,
      "🚴": 161,
      "🤔": 162,
      "🤦": 163,
      "##p": 164,
      "##l": 165,
      "##i": 166,
      "##f": 167,
      "##t": 168,
      "##r": 169,
      "##v": 170,
      "##a": 171,
      "##z": 172,
      "##e": 173,
      "##s": 174,
      "##g": 175,
      "##n": 176,
      "##d": 177,
      "##o": 178,
      "##m": 179,
      "##u": 180,
      "##w": 181,
      "##c": 182,
      "##h": 183,
      "##b": 184,
      "##y": 185,
      "##k": 186,
      "##x": 187,
      "##3": 188,
      "##4": 189,
      "##7": 190,
      "##6": 191,
      "##5": 192,
      "##q": 193,
      "##0": 194,
      "##2": 195,
      "##8": 196,
      "##9": 197,
      "##1": 198,
      "##j": 199,
      "##°": 200,
      "##🍕": 201,
      "##🎈": 202,
      "##🎉": 203,
      "##ই": 204,
      "##ভ": 205,
      "##ি": 206,
      "##ল": 207,
      "##গ": 208,
      "##😱": 209,
      "##л": 210,
      "##у": 211,
      "##б": 212,
      "##о": 213,
      "##к": 214,
      "##а": 215,
      "##я": 216,
      "##া": 217,
      "##т": 218,
      "##ł": 219,
      "##😎": 220,
      "##½": 221,
      "##🎂": 222,
      "##™": 223,
      "##😬": 224,
      "##🤔": 225,
      "##💉": 226,
      "##е": 227,
      "##м": 228,
      "##ь": 229,
      "##🔥": 230,
      "##😂": 231,
      "##ট": 232,
      "##ে": 233,
      "##র": 234,
      "##💰": 235,
      "##🎸": 236,
      "##🎄": 237,
      "##ᴥ": 238,
      "##ᵒ": 239,
      "##ᶅ": 240,
      "th": 241,
      "##er": 242,
      "##in": 243,
      "##on": 244,
      "the": 245,
      "##es": 246,
      "##at": 247,
      "##or": 248,
      "##en": 249,
      "##an": 250,
      "##al": 251,
      "##ing": 252,
      "##ar": 253,
      "##ed": 254,
      "to": 255,
      "##ou": 256,
      "##ic": 257,
      "##is": 258,
      "##it": 259,
      "in": 260,
      "of": 261,
      "##mp": 262,
      "##ion": 263,
      "##ll": 264,
      "an": 265,
      "tr": 266,
      "##as": 267,
      "##ent": 268,
      "##id": 269,
      "re": 270,
      "##re": 271,
      "##om": 272,
      "##ot": 273,
      "pr": 274,
      "tru": 275,
      "##le": 276,
      "trump": 277,
      "##st": 278,
      "for": 279,
      "##ac": 280,
      "and": 281,
      "##ay": 282,
      "##ig": 283,
      "de": 284,
      "st": 285,
      "on": 286,
      "is": 287,
      "wh": 288,
      "##ve": 289,
      "##et": 290,
      "##ow": 291,
      "##ut": 292,
      "##ly": 293,
      "##ers": 294,
      "##ill": 295,
      "be": 296,
      "##ol": 297,
      "##am": 298,
      "##se": 299,
      "##ate": 300,
      "##ur": 301,
      "he": 302,
      "##ct": 303,
      "##ad": 304,
      "##op": 305,
      "##im": 306,
      "con": 307,
      "##ation": 308,
      "##ir": 309,
      "ne": 310,
      "##ld": 311,
      "it": 312,
      "##ver": 313,
      "##ess": 314,
      "##oc": 315,
      "##us": 316,
      "ch": 317,
      "##est": 318,
      "sh": 319,
      "##ter": 320,
      "##and": 321,
      "that": 322,
      "##ce": 323,
      "rep": 324,
      "##il": 325,
      "don": 326,
      "##th": 327,
      "we": 328,
      "##ist": 329,
      "##ith": 330,
      "##ak": 331,
      "##ch": 332,
      "se": 333,
      "##ican": 334,
      "as": 335,
      "with": 336,
      "cl": 337,
      "##un": 338,
      "pres": 339,
      "##ge": 340,
      "at": 341,
      "##ort": 342,
      "##ment": 343,
      "##ub": 344,
      "##ident": 345,
      "fr": 346,
      "cou": 347,
      "##mer": 348,
      "##pp": 349,
      "##igh": 350,
      "president": 351,
      "ab": 352,
      "##ul": 353,
      "ha": 354,
      "su": 355,
      "##ald": 356,
      "un": 357,
      "le": 358,
      "donald": 359,
      "##ie": 360,
      "##ain": 361,
      "are": 362,
      "new": 363,
      "##ary": 364,
      "his": 365,
      "##iv": 366,
      "##ts": 367,
      "##ack": 368,
      "go": 369,
      "not": 370,
      "##ff": 371,
      "##ial": 372,
      "you": 373,
      "##out": 374,
      "##os": 375,
      "##ubl": 376,
      "##all": 377,
      "##ere": 378,
      "##ore": 379,
      "was": 380,
      "##ust": 381,
      "##art": 382,
      "##ia": 383,
      "##ity": 384,
      "dem": 385,
      "##ost": 386,
      "say": 387,
      "ex": 388,
      "##ive": 389,
      "has": 390,
      "##ton": 391,
      "this": 392,
      "pro": 393,
      "sp": 394,
      "##ies": 395,
      "sen": 396,
      "do": 397,
      "sa": 398,
      "ob": 399,
      "##ome": 400,
      "la": 401,
      "##rat": 402,
      "about": 403,
      "cr": 404,
      "have": 405,
      "from": 406,
      "pol": 407,
      "en": 408,
      "##gr": 409,
      "##ould": 410,
      "##ign": 411,
      "ad": 412,
      "amer": 413,
      "republ": 414,
      "co": 415,
      "ag": 416,
      "republican": 417,
      "but": 418,
      "##ight": 419,
      "democ": 420,
      "##ice": 421,
      "##ud": 422,
      "will": 423,
      "ca": 424,
      "obam": 425,
      "##end": 426,
      "me": 427,
      "##ction": 428,
      "##ke": 429,
      "wor": 430,
      "##ear": 431,
      "##ant": 432,
      "vot": 433,
      "##ee": 434,
      "democrat": 435,
      "##ab": 436,
      "pl": 437,
      "hou": 438,
      "##od": 439,
      "gop": 440,
      "li": 441,
      "##ite": 442,
      "by": 443,
      "clin": 444,
      "com": 445,
      "##iz": 446,
      "off": 447,
      "all": 448,
      "##ra": 449,
      "##ast": 450,
      "al": 451,
      "up": 452,
      "clinton": 453,
      "##ally": 454,
      "law": 455,
      "who": 456,
      "said": 457,
      "they": 458,
      "af": 459,
      "##are": 460,
      "what": 461,
      "or": 462,
      "##el": 463,
      "can": 464,
      "over": 465,
      "out": 466,
      "##cc": 467,
      "##oun": 468,
      "just": 469,
      "house": 470,
      "jo": 471,
      "##itic": 472,
      "ele": 473,
      "##ates": 474,
      "obama": 475,
      "ar": 476,
      "##ian": 477,
      "##gress": 478,
      "##gh": 479,
      "##ard": 480,
      "says": 481,
      "te": 482,
      "##ect": 483,
      "##ence": 484,
      "##tr": 485,
      "hill": 486,
      "more": 487,
      "pe": 488,
      "##ks": 489,
      "res": 490,
      "##if": 491,
      "##ake": 492,
      "after": 493,
      "##der": 494,
      "20": 495,
      "##ip": 496,
      "##mb": 497,
      "##ace": 498,
      "american": 499,
      "state": 500,
      "##her": 501,
      "##ass": 502,
      "##ous": 503,
      "bl": 504,
      "gr": 505,
      "one": 506,
      "##ail": 507,
      "##ag": 508,
      "no": 509,
      "##ey": 510,
      "##orn": 511,
      "their": 512,
      "##oll": 513,
      "dis": 514,
      "peop": 515,
      "##ions": 516,
      "people": 517,
      "sec": 518,
      "tw": 519,
      "lo": 520,
      "att": 521,
      "##ong": 522,
      "would": 523,
      "br": 524,
      "##day": 525,
      "bill": 526,
      "war": 527,
      "year": 528,
      "part": 529,
      "get": 530,
      "again": 531,
      "mar": 532,
      "hillary": 533,
      "hu": 534,
      "##own": 535,
      "camp": 536,
      "white": 537,
      "sc": 538,
      "congress": 539,
      "##em": 540,
      "cour": 541,
      "##ors": 542,
      "man": 543,
      "call": 544,
      "how": 545,
      "ev": 546,
      "##ok": 547,
      "politic": 548,
      "##ans": 549,
      "##ure": 550,
      "tim": 551,
      "##ide": 552,
      "##ern": 553,
      "if": 554,
      "us": 555,
      "##aign": 556,
      "than": 557,
      "campaign": 558,
      "##ich": 559,
      "##uc": 560,
      "##ell": 561,
      "##ire": 562,
      "##ict": 563,
      "int": 564,
      "fir": 565,
      "##ib": 566,
      "##hing": 567,
      "##eral": 568,
      "exp": 569,
      "election": 570,
      "##vern": 571,
      "our": 572,
      "govern": 573,
      "could": 574,
      "republicans": 575,
      "mon": 576,
      "like": 577,
      "##ine": 578,
      "##ap": 579,
      "##ration": 580,
      "court": 581,
      "##ind": 582,
      "##man": 583,
      "day": 584,
      "nation": 585,
      "coun": 586,
      "news": 587,
      "her": 588,
      "app": 589,
      "supp": 590,
      "may": 591,
      "qu": 592,
      "back": 593,
      "##age": 594,
      "so": 595,
      "fl": 596,
      "##ound": 597,
      "##king": 598,
      "lead": 599,
      "201": 600,
      "comm": 601,
      "sup": 602,
      "some": 603,
      "senate": 604,
      "##ec": 605,
      "kn": 606,
      "##ough": 607,
      "##rem": 608,
      "there": 609,
      "##alth": 610,
      "##ory": 611,
      "report": 612,
      "cons": 613,
      "democrats": 614,
      "acc": 615,
      "##reat": 616,
      "##ica": 617,
      "##mm": 618,
      "rec": 619,
      "should": 620,
      "##ame": 621,
      "##itt": 622,
      "act": 623,
      "##ens": 624,
      "##ick": 625,
      "dr": 626,
      "dec": 627,
      "chan": 628,
      "##ations": 629,
      "##erv": 630,
      "prot": 631,
      "##av": 632,
      "def": 633,
      "been": 634,
      "##uss": 635,
      "##qu": 636,
      "against": 637,
      "now": 638,
      "ever": 639,
      "cand": 640,
      "str": 641,
      "comp": 642,
      "##ek": 643,
      "sand": 644,
      "ro": 645,
      "mo": 646,
      "end": 647,
      "candid": 648,
      "##au": 649,
      "him": 650,
      "ref": 651,
      "##ret": 652,
      "when": 653,
      "time": 654,
      "bo": 655,
      "##orm": 656,
      "plan": 657,
      "##ach": 658,
      "support": 659,
      "she": 660,
      "former": 661,
      "##ise": 662,
      "health": 663,
      "first": 664,
      "##one": 665,
      "##act": 666,
      "imp": 667,
      "inc": 668,
      "democratic": 669,
      "bec": 670,
      "##enc": 671,
      "##ush": 672,
      "##ated": 673,
      "##ue": 674,
      "sanders": 675,
      "##err": 676,
      "inv": 677,
      "leg": 678,
      "##pt": 679,
      "huff": 680,
      "car": 681,
      "need": 682,
      "##ath": 683,
      "ta": 684,
      "##ants": 685,
      "##ase": 686,
      "imm": 687,
      "hel": 688,
      "america": 689,
      "adm": 690,
      "why": 691,
      "care": 692,
      "senat": 693,
      "most": 694,
      "##ting": 695,
      "##ues": 696,
      "huffp": 697,
      "ban": 698,
      "##ose": 699,
      "does": 700,
      "wom": 701,
      "big": 702,
      "inter": 703,
      "am": 704,
      "suprem": 705,
      "##ree": 706,
      "##ents": 707,
      "##io": 708,
      "deb": 709,
      "##ning": 710,
      "##ade": 711,
      "gun": 712,
      "help": 713,
      "##omin": 714,
      "dep": 715,
      "russ": 716,
      "offic": 717,
      "americans": 718,
      "##ious": 719,
      "sch": 720,
      "##ance": 721,
      "##aul": 722,
      "week": 723,
      "know": 724,
      "##ives": 725,
      "prob": 726,
      "##ism": 727,
      "any": 728,
      "presidential": 729,
      "##ile": 730,
      "med": 731,
      "##und": 732,
      "did": 733,
      "##ro": 734,
      "party": 735,
      "##iss": 736,
      "into": 737,
      "bern": 738,
      "##hn": 739,
      "thin": 740,
      "conf": 741,
      "its": 742,
      "tax": 743,
      "fed": 744,
      "##ild": 745,
      "##able": 746,
      "even": 747,
      "win": 748,
      "want": 749,
      "won": 750,
      "##ings": 751,
      "##ty": 752,
      "em": 753,
      "immig": 754,
      "##ord": 755,
      "##ied": 756,
      "##ish": 757,
      "oth": 758,
      "them": 759,
      "mu": 760,
      "states": 761,
      "po": 762,
      "rem": 763,
      "show": 764,
      "work": 765,
      "per": 766,
      "contr": 767,
      "cont": 768,
      "##ief": 769,
      "##oss": 770,
      "##old": 771,
      "every": 772,
      "your": 773,
      "##ons": 774,
      "bernie": 775,
      "still": 776,
      "nomin": 777,
      "##our": 778,
      "ind": 779,
      "##ying": 780,
      "bet": 781,
      "##ments": 782,
      "##ond": 783,
      "supreme": 784,
      "ins": 785,
      "had": 786,
      "par": 787,
      "were": 788,
      "political": 789,
      "##ights": 790,
      "right": 791,
      "down": 792,
      "##ists": 793,
      "national": 794,
      "##og": 795,
      "make": 796,
      "run": 797,
      "##ock": 798,
      "my": 799,
      "op": 800,
      "##inist": 801,
      "under": 802,
      "vote": 803,
      "secret": 804,
      "##um": 805,
      "pre": 806,
      "poll": 807,
      "##wn": 808,
      "attack": 809,
      "##way": 810,
      "##ert": 811,
      "mill": 812,
      "ant": 813,
      "administ": 814,
      "here": 815,
      "countr": 816,
      "##aking": 817,
      "##ood": 818,
      "john": 819,
      "##imate": 820,
      "##ep": 821,
      "##ned": 822,
      "adv": 823,
      "federal": 824,
      "publ": 825,
      "polic": 826,
      "char": 827,
      "des": 828,
      "bid": 829,
      "cla": 830,
      "women": 831,
      "administration": 832,
      "wr": 833,
      "last": 834,
      "##ged": 835,
      "sy": 836,
      "huffpost": 837,
      "##00": 838,
      "way": 839,
      "##ative": 840,
      "years": 841,
      "government": 842,
      "##mber": 843,
      "wat": 844,
      "##get": 845,
      "je": 846,
      "##oot": 847,
      "senator": 848,
      "let": 849,
      "tal": 850,
      "email": 851,
      "other": 852,
      "gen": 853,
      "vi": 854,
      "##sel": 855,
      "##ott": 856,
      "##ims": 857,
      "##ger": 858,
      "##oup": 859,
      "jud": 860,
      "##ges": 861,
      "##acy": 862,
      "group": 863,
      "official": 864,
      "voters": 865,
      "invest": 866,
      "##als": 867,
      "##its": 868,
      "anti": 869,
      "##air": 870,
      "##other": 871,
      "resp": 872,
      "##ug": 873,
      "two": 874,
      "change": 875,
      "##ry": 876,
      "inf": 877,
      "sl": 878,
      "chr": 879,
      "##ful": 880,
      "sur": 881,
      "public": 882,
      "##ren": 883,
      "##vel": 884,
      "viol": 885,
      "sign": 886,
      "fight": 887,
      "##ating": 888,
      "cor": 889,
      "##ional": 890,
      "rights": 891,
      "fin": 892,
      "##ool": 893,
      "##iff": 894,
      "morn": 895,
      "morning": 896,
      "##so": 897,
      "come": 898,
      "##anc": 899,
      "##ited": 900,
      "only": 901,
      "##int": 902,
      "climate": 903,
      "ass": 904,
      "bel": 905,
      "bu": 906,
      "many": 907,
      "rel": 908,
      "long": 909,
      "debate": 910,
      "candidate": 911,
      "##ency": 912,
      "gu": 913,
      "##ities": 914,
      "cru": 915,
      "country": 916,
      "biden": 917,
      "##fore": 918,
      "har": 919,
      "##ual": 920,
      "##ower": 921,
      "quest": 922,
      "think": 923,
      "before": 924,
      "##ork": 925,
      "##uring": 926,
      "justice": 927,
      "doesn": 928,
      "elect": 929,
      "deal": 930,
      "##ady": 931,
      "##lo": 932,
      "police": 933,
      "fam": 934,
      "put": 935,
      "good": 936,
      "##ner": 937,
      "also": 938,
      "take": 939,
      "ver": 940,
      "real": 941,
      "##mak": 942,
      "being": 943,
      "world": 944,
      "ma": 945,
      "##urity": 946,
      "protest": 947,
      "fund": 948,
      "high": 949,
      "ph": 950,
      "##ina": 951,
      "##lear": 952,
      "##ause": 953,
      "stop": 954,
      "iss": 955,
      "conv": 956,
      "ac": 957,
      "terr": 958,
      "hist": 959,
      "tur": 960,
      "##ition": 961,
      "el": 962,
      "##ention": 963,
      "##ible": 964,
      "russia": 965,
      "lat": 966,
      "school": 967,
      "wants": 968,
      "disc": 969,
      "see": 970,
      "sex": 971,
      "shoot": 972,
      "##iew": 973,
      "much": 974,
      "paul": 975,
      "lawmak": 976,
      "##ily": 977,
      "##ru": 978,
      "own": 979,
      "##ike": 980,
      "##att": 981,
      "min": 982,
      "investig": 983,
      "##eet": 984,
      "pay": 985,
      "prim": 986,
      "##ical": 987,
      "security": 988,
      "##con": 989,
      "reg": 990,
      "##eep": 991,
      "cruz": 992,
      "stud": 993,
      "id": 994,
      "opp": 995,
      "rac": 996,
      "spe": 997,
      "##akes": 998,
      "##ah": 999,
      "##ns": 1000,
      "##ope": 1001,
      "##gest": 1002,
      "happ": 1003,
      "because": 1004,
      "race": 1005,
      "secretary": 1006,
      "##ked": 1007,
      "mcc": 1008,
      "threat": 1009,
      "really": 1010,
      "governor": 1011,
      "##acare": 1012,
      "obamacare": 1013,
      "##ands": 1014,
      "critic": 1015,
      "##fe": 1016,
      "##erson": 1017,
      "washing": 1018,
      "2016": 1019,
      "washington": 1020,
      "policy": 1021,
      "##yan": 1022,
      "fe": 1023,
      "##ward": 1024,
      "ed": 1025,
      "coll": 1026,
      "eff": 1027,
      "bar": 1028,
      "##jor": 1029,
      "ben": 1030,
      "##son": 1031,
      "mich": 1032,
      "ann": 1033,
      "top": 1034,
      "look": 1035,
      "conserv": 1036,
      "going": 1037,
      "tex": 1038,
      "##ult": 1039,
      "##ft": 1040,
      "##ress": 1041,
      "##alif": 1042,
      "prop": 1043,
      "child": 1044,
      "##land": 1045,
      "##erg": 1046,
      "##ince": 1047,
      "nominee": 1048,
      "death": 1049,
      "during": 1050,
      "major": 1051,
      "fac": 1052,
      "ir": 1053,
      "##les": 1054,
      "##ling": 1055,
      "mus": 1056,
      "mil": 1057,
      "pass": 1058,
      "start": 1059,
      "tell": 1060,
      "depart": 1061,
      "another": 1062,
      "##ision": 1063,
      "tweet": 1064,
      "##ves": 1065,
      "19": 1066,
      "##ians": 1067,
      "##eg": 1068,
      "add": 1069,
      "made": 1070,
      "while": 1071,
      "kill": 1072,
      "keep": 1073,
      "##gin": 1074,
      "rul": 1075,
      "##imin": 1076,
      "ra": 1077,
      "face": 1078,
      "leaders": 1079,
      "calls": 1080,
      "trans": 1081,
      "black": 1082,
      "##arly": 1083,
      "york": 1084,
      "##ull": 1085,
      "##eal": 1086,
      "meet": 1087,
      "immigration": 1088,
      "very": 1089,
      "these": 1090,
      "thr": 1091,
      "which": 1092,
      "too": 1093,
      "##uck": 1094,
      "job": 1095,
      "nor": 1096,
      "ret": 1097,
      "laws": 1098,
      "##xt": 1099,
      "move": 1100,
      "##ash": 1101,
      "general": 1102,
      "vict": 1103,
      "rev": 1104,
      "money": 1105,
      "power": 1106,
      "million": 1107,
      "judge": 1108,
      "##oth": 1109,
      "month": 1110,
      "cut": 1111,
      "##hip": 1112,
      "post": 1113,
      "bush": 1114,
      "soc": 1115,
      "##az": 1116,
      "set": 1117,
      "musl": 1118,
      "department": 1119,
      "ser": 1120,
      "ted": 1121,
      "contin": 1122,
      "media": 1123,
      "dire": 1124,
      "called": 1125,
      "texas": 1126,
      "bre": 1127,
      "rise": 1128,
      "##lem": 1129,
      "stand": 1130,
      "##itter": 1131,
      "far": 1132,
      "press": 1133,
      "##led": 1134,
      "joe": 1135,
      "den": 1136,
      "##ving": 1137,
      "##co": 1138,
      "spee": 1139,
      "committ": 1140,
      "speech": 1141,
      "next": 1142,
      "serv": 1143,
      "##bi": 1144,
      "##orney": 1145,
      "attorney": 1146,
      "didn": 1147,
      "econ": 1148,
      "econom": 1149,
      "calif": 1150,
      "mass": 1151,
      "christ": 1152,
      "##ize": 1153,
      "##ution": 1154,
      "never": 1155,
      "##aff": 1156,
      "##used": 1157,
      "##ix": 1158,
      "abort": 1159,
      "##ames": 1160,
      "##ility": 1161,
      "milit": 1162,
      "north": 1163,
      "ryan": 1164,
      "sm": 1165,
      "##ually": 1166,
      "legal": 1167,
      "##ved": 1168,
      "ge": 1169,
      "miss": 1170,
      "sw": 1171,
      "##ivers": 1172,
      "speak": 1173,
      "test": 1174,
      "progress": 1175,
      "great": 1176,
      "##br": 1177,
      "ste": 1178,
      "rub": 1179,
      "##ather": 1180,
      "fbi": 1181,
      "primary": 1182,
      "##ier": 1183,
      "candidates": 1184,
      "problem": 1185,
      "history": 1186,
      "californ": 1187,
      "case": 1188,
      "##pit": 1189,
      "##allen": 1190,
      "must": 1191,
      "since": 1192,
      "home": 1193,
      "##ior": 1194,
      "prom": 1195,
      "conc": 1196,
      "rele": 1197,
      "##stit": 1198,
      "twitter": 1199,
      "##ead": 1200,
      "office": 1201,
      "those": 1202,
      "isn": 1203,
      "lawmakers": 1204,
      "bus": 1205,
      "dist": 1206,
      "fail": 1207,
      "##ave": 1208,
      "action": 1209,
      "person": 1210,
      "##ison": 1211,
      "##iday": 1212,
      "violence": 1213,
      "california": 1214,
      "politics": 1215,
      "ce": 1216,
      "spec": 1217,
      "direct": 1218,
      "##osed": 1219,
      "immigr": 1220,
      "##owing": 1221,
      "terror": 1222,
      "geor": 1223,
      "rubio": 1224,
      "head": 1225,
      "belie": 1226,
      "chief": 1227,
      "find": 1228,
      "dan": 1229,
      "where": 1230,
      "ve": 1231,
      "##we": 1232,
      "united": 1233,
      "order": 1234,
      "##mbers": 1235,
      "watch": 1236,
      "beh": 1237,
      "reform": 1238,
      "aff": 1239,
      "civ": 1240,
      "hard": 1241,
      "##ject": 1242,
      "##ending": 1243,
      "##pr": 1244,
      "##ends": 1245,
      "shooting": 1246,
      "mid": 1247,
      "##isl": 1248,
      "legisl": 1249,
      "som": 1250,
      "##ized": 1251,
      "##iness": 1252,
      "voter": 1253,
      "vir": 1254,
      "voting": 1255,
      "##ber": 1256,
      "##ics": 1257,
      "##ider": 1258,
      "##ster": 1259,
      "commun": 1260,
      "officials": 1261,
      "##self": 1262,
      "reported": 1263,
      "rest": 1264,
      "##itch": 1265,
      "diff": 1266,
      "wall": 1267,
      "hear": 1268,
      "days": 1269,
      "challen": 1270,
      "##ows": 1271,
      "col": 1272,
      "old": 1273,
      "exec": 1274,
      "city": 1275,
      "committee": 1276,
      "abortion": 1277,
      "##less": 1278,
      "got": 1279,
      "##up": 1280,
      "##ria": 1281,
      "less": 1282,
      "del": 1283,
      "question": 1284,
      "sub": 1285,
      "##ased": 1286,
      "bad": 1287,
      "well": 1288,
      "without": 1289,
      "mat": 1290,
      "##lain": 1291,
      "##urr": 1292,
      "##vers": 1293,
      "##ether": 1294,
      "flor": 1295,
      "might": 1296,
      "##ices": 1297,
      "##ought": 1298,
      "civil": 1299,
      "cris": 1300,
      "read": 1301,
      "seem": 1302,
      "life": 1303,
      "claims": 1304,
      "cent": 1305,
      "mis": 1306,
      "pat": 1307,
      "##urs": 1308,
      "##stem": 1309,
      "000": 1310,
      "##ened": 1311,
      "##iving": 1312,
      "somet": 1313,
      "cit": 1314,
      "ext": 1315,
      "better": 1316,
      "system": 1317,
      "nu": 1318,
      "##use": 1319,
      "protect": 1320,
      "##ik": 1321,
      "told": 1322,
      "##ging": 1323,
      "lawy": 1324,
      "claim": 1325,
      "##uth": 1326,
      "business": 1327,
      "florid": 1328,
      "colle": 1329,
      "iran": 1330,
      "##ox": 1331,
      "play": 1332,
      "desp": 1333,
      "military": 1334,
      "##lud": 1335,
      "whether": 1336,
      "short": 1337,
      "##ently": 1338,
      "ide": 1339,
      "getting": 1340,
      "push": 1341,
      "##ces": 1342,
      "##ont": 1343,
      "ll": 1344,
      "use": 1345,
      "##ank": 1346,
      "fore": 1347,
      "social": 1348,
      "emp": 1349,
      "##ared": 1350,
      "florida": 1351,
      "##ense": 1352,
      "tre": 1353,
      "prev": 1354,
      "give": 1355,
      "prov": 1356,
      "##nn": 1357,
      "##oub": 1358,
      "announ": 1359,
      "mom": 1360,
      "pen": 1361,
      "##ising": 1362,
      "##ised": 1363,
      "wel": 1364,
      "latest": 1365,
      "wal": 1366,
      "##cent": 1367,
      "##onn": 1368,
      "decision": 1369,
      "##ams": 1370,
      "friday": 1371,
      "record": 1372,
      "lot": 1373,
      "mike": 1374,
      "same": 1375,
      "children": 1376,
      "repeal": 1377,
      "sou": 1378,
      "##ason": 1379,
      "betwe": 1380,
      "open": 1381,
      "crisis": 1382,
      "between": 1383,
      "priv": 1384,
      "##ines": 1385,
      "##ops": 1386,
      "##emp": 1387,
      "making": 1388,
      "##ocu": 1389,
      "wrong": 1390,
      "ep": 1391,
      "ill": 1392,
      "##gan": 1393,
      "##ony": 1394,
      "##eth": 1395,
      "leader": 1396,
      "control": 1397,
      "mess": 1398,
      "##nes": 1399,
      "effort": 1400,
      "vet": 1401,
      "family": 1402,
      "supporters": 1403,
      "hope": 1404,
      "execut": 1405,
      "yet": 1406,
      "##sh": 1407,
      "muslim": 1408,
      "##ready": 1409,
      "##olog": 1410,
      "##cept": 1411,
      "already": 1412,
      "clear": 1413,
      "##med": 1414,
      "##come": 1415,
      "##hood": 1416,
      "congressman": 1417,
      "compan": 1418,
      "san": 1419,
      "sug": 1420,
      "##res": 1421,
      "trying": 1422,
      "##ime": 1423,
      "percent": 1424,
      "tues": 1425,
      "##ced": 1426,
      "##ana": 1427,
      "appear": 1428,
      "tuesday": 1429,
      "drug": 1430,
      "both": 1431,
      "##bo": 1432,
      "sexual": 1433,
      "hold": 1434,
      "##ds": 1435,
      "##ody": 1436,
      "##gn": 1437,
      "##ality": 1438,
      "##ides": 1439,
      "activ": 1440,
      "key": 1441,
      "conservative": 1442,
      "bor": 1443,
      "##ection": 1444,
      "##by": 1445,
      "gov": 1446,
      "scott": 1447,
      "##ms": 1448,
      "step": 1449,
      "pick": 1450,
      "three": 1451,
      "through": 1452,
      "##ness": 1453,
      "##ugh": 1454,
      "capit": 1455,
      "expect": 1456,
      "past": 1457,
      "suggest": 1458,
      "det": 1459,
      "##uses": 1460,
      "progr": 1461,
      "arr": 1462,
      "##uct": 1463,
      "times": 1464,
      "appro": 1465,
      "##ures": 1466,
      "##ids": 1467,
      "##ount": 1468,
      "russian": 1469,
      "polls": 1470,
      "includ": 1471,
      "foreign": 1472,
      "fut": 1473,
      "ur": 1474,
      "today": 1475,
      "tra": 1476,
      "##reed": 1477,
      "dead": 1478,
      "class": 1479,
      "##red": 1480,
      "free": 1481,
      "red": 1482,
      "thing": 1483,
      "er": 1484,
      "sol": 1485,
      "##ute": 1486,
      "prof": 1487,
      "investigation": 1488,
      "citiz": 1489,
      "##atives": 1490,
      "carol": 1491,
      "something": 1492,
      "bud": 1493,
      "##nc": 1494,
      "requ": 1495,
      "congressional": 1496,
      "differ": 1497,
      "import": 1498,
      "##ij": 1499,
      "##down": 1500,
      "staff": 1501,
      "chair": 1502,
      "running": 1503,
      "##thing": 1504,
      "actually": 1505,
      "ap": 1506,
      "tar": 1507,
      "once": 1508,
      "##ury": 1509,
      "fox": 1510,
      "reportedly": 1511,
      "south": 1512,
      "##rict": 1513,
      "##ises": 1514,
      "marco": 1515,
      "foll": 1516,
      "things": 1517,
      "##ins": 1518,
      "director": 1519,
      "##gu": 1520,
      "##ided": 1521,
      "carolina": 1522,
      "cond": 1523,
      "senators": 1524,
      "future": 1525,
      "fear": 1526,
      "mean": 1527,
      "mark": 1528,
      "students": 1529,
      "##ael": 1530,
      "warren": 1531,
      "##erate": 1532,
      "working": 1533,
      "shows": 1534,
      "emb": 1535,
      "left": 1536,
      "believe": 1537,
      "best": 1538,
      "##ender": 1539,
      "super": 1540,
      "iow": 1541,
      "shut": 1542,
      "union": 1543,
      "gets": 1544,
      "comey": 1545,
      "##ience": 1546,
      "##uthor": 1547,
      "air": 1548,
      "hand": 1549,
      "comes": 1550,
      "advis": 1551,
      "special": 1552,
      "##wer": 1553,
      "##loy": 1554,
      "##ety": 1555,
      "##erry": 1556,
      "sun": 1557,
      "##ote": 1558,
      "workers": 1559,
      "10": 1560,
      "##aine": 1561,
      "##ably": 1562,
      "billion": 1563,
      "probe": 1564,
      "attacks": 1565,
      "found": 1566,
      "ira": 1567,
      "vis": 1568,
      "issue": 1569,
      "michael": 1570,
      "iowa": 1571,
      "los": 1572,
      "host": 1573,
      "constit": 1574,
      "water": 1575,
      "cho": 1576,
      "used": 1577,
      "concern": 1578,
      "rally": 1579,
      "stre": 1580,
      "lar": 1581,
      "sess": 1582,
      "##ef": 1583,
      "likely": 1584,
      "educ": 1585,
      "iraq": 1586,
      "gre": 1587,
      "list": 1588,
      "talk": 1589,
      "##ization": 1590,
      "##ollster": 1591,
      "incre": 1592,
      "##bor": 1593,
      "then": 1594,
      "tom": 1595,
      "cover": 1596,
      "huffpollster": 1597,
      "virgin": 1598,
      "hal": 1599,
      "vide": 1600,
      "##par": 1601,
      "##ys": 1602,
      "convention": 1603,
      "sus": 1604,
      "mem": 1605,
      "consider": 1606,
      "##ark": 1607,
      "around": 1608,
      "decl": 1609,
      "##ault": 1610,
      "rules": 1611,
      "second": 1612,
      "jeb": 1613,
      "jeff": 1614,
      "groups": 1615,
      "agree": 1616,
      "es": 1617,
      "makes": 1618,
      "poss": 1619,
      "##ential": 1620,
      "##opul": 1621,
      "##ittle": 1622,
      "travel": 1623,
      "least": 1624,
      "mayor": 1625,
      "budget": 1626,
      "batt": 1627,
      "##uge": 1628,
      "##bert": 1629,
      "##iting": 1630,
      "proc": 1631,
      "resign": 1632,
      "interest": 1633,
      "away": 1634,
      "little": 1635,
      "night": 1636,
      "talking": 1637,
      "behind": 1638,
      "ah": 1639,
      "ter": 1640,
      "##onse": 1641,
      "questions": 1642,
      "11": 1643,
      "four": 1644,
      "lives": 1645,
      "members": 1646,
      "response": 1647,
      "fire": 1648,
      "ju": 1649,
      "human": 1650,
      "##onnell": 1651,
      "bir": 1652,
      "net": 1653,
      "##aud": 1654,
      "##for": 1655,
      "prison": 1656,
      "planned": 1657,
      "inst": 1658,
      "##ateg": 1659,
      "presid": 1660,
      "march": 1661,
      "address": 1662,
      "welcome": 1663,
      "hon": 1664,
      "##ases": 1665,
      "woman": 1666,
      "issues": 1667,
      "border": 1668,
      "author": 1669,
      "cost": 1670,
      "div": 1671,
      "##ri": 1672,
      "comments": 1673,
      "virginia": 1674,
      "nuc": 1675,
      "story": 1676,
      "insur": 1677,
      "matter": 1678,
      "pos": 1679,
      "##ven": 1680,
      "asked": 1681,
      "point": 1682,
      "meeting": 1683,
      "immigrants": 1684,
      "pence": 1685,
      "rich": 1686,
      "##pir": 1687,
      "##pect": 1688,
      "enough": 1689,
      "exper": 1690,
      "refuge": 1691,
      "##ale": 1692,
      "##ically": 1693,
      "plans": 1694,
      "200": 1695,
      "dav": 1696,
      "nothing": 1697,
      "despite": 1698,
      "nuclear": 1699,
      "intern": 1700,
      "ear": 1701,
      "men": 1702,
      "##sec": 1703,
      "##rael": 1704,
      "aren": 1705,
      "confir": 1706,
      "mcconnell": 1707,
      "eas": 1708,
      "fil": 1709,
      "israel": 1710,
      "team": 1711,
      "serious": 1712,
      "mod": 1713,
      "pot": 1714,
      "##amp": 1715,
      "presidency": 1716,
      "inform": 1717,
      "lawyer": 1718,
      "##unch": 1719,
      "target": 1720,
      "##lic": 1721,
      "##yp": 1722,
      "##ico": 1723,
      "##omb": 1724,
      "access": 1725,
      "executive": 1726,
      "##ening": 1727,
      "##let": 1728,
      "##ama": 1729,
      "block": 1730,
      "become": 1731,
      "interv": 1732,
      "street": 1733,
      "oh": 1734,
      "view": 1735,
      "citizens": 1736,
      "und": 1737,
      "##abeth": 1738,
      "##yl": 1739,
      "##idence": 1740,
      "strateg": 1741,
      "famil": 1742,
      "wed": 1743,
      "##ph": 1744,
      "##izabeth": 1745,
      "est": 1746,
      "full": 1747,
      "dev": 1748,
      "elizabeth": 1749,
      "important": 1750,
      "fri": 1751,
      "needs": 1752,
      "nomination": 1753,
      "chris": 1754,
      "fact": 1755,
      "remain": 1756,
      "dre": 1757,
      "ago": 1758,
      "##augh": 1759,
      "corp": 1760,
      "sent": 1761,
      "force": 1762,
      "among": 1763,
      "progressive": 1764,
      "jan": 1765,
      "##ipp": 1766,
      "trade": 1767,
      "##ots": 1768,
      "fraud": 1769,
      "propos": 1770,
      "##uana": 1771,
      "reve": 1772,
      "##ults": 1773,
      "guns": 1774,
      "break": 1775,
      "##ijuana": 1776,
      "dra": 1777,
      "fee": 1778,
      "james": 1779,
      "sn": 1780,
      "##racy": 1781,
      "##ker": 1782,
      "##oming": 1783,
      "millions": 1784,
      "sessions": 1785,
      "##ask": 1786,
      "youn": 1787,
      "marijuana": 1788,
      "charl": 1789,
      "speaker": 1790,
      "glo": 1791,
      "popul": 1792,
      "##line": 1793,
      "thurs": 1794,
      "education": 1795,
      "thursday": 1796,
      "ball": 1797,
      "ru": 1798,
      "##ient": 1799,
      "##ino": 1800,
      "monday": 1801,
      "recent": 1802,
      "freed": 1803,
      "star": 1804,
      "accused": 1805,
      "##ourn": 1806,
      "##uit": 1807,
      "doing": 1808,
      "retur": 1809,
      "##ocument": 1810,
      "##ham": 1811,
      "##ania": 1812,
      "isis": 1813,
      "nearly": 1814,
      "intell": 1815,
      "defense": 1816,
      "advoc": 1817,
      "video": 1818,
      "birth": 1819,
      "foc": 1820,
      "ple": 1821,
      "##lu": 1822,
      "##app": 1823,
      "##dle": 1824,
      "##overs": 1825,
      "wins": 1826,
      "crimin": 1827,
      "parent": 1828,
      "arrest": 1829,
      "univers": 1830,
      "##izing": 1831,
      "private": 1832,
      "ign": 1833,
      "env": 1834,
      "funding": 1835,
      "battle": 1836,
      "taking": 1837,
      "##oks": 1838,
      "##ange": 1839,
      "repl": 1840,
      "love": 1841,
      "strong": 1842,
      "protesters": 1843,
      "barack": 1844,
      "economic": 1845,
      "hate": 1846,
      "##uch": 1847,
      "##wh": 1848,
      "##ints": 1849,
      "##orse": 1850,
      "##ley": 1851,
      "prosec": 1852,
      "##ific": 1853,
      "cele": 1854,
      "spending": 1855,
      "assault": 1856,
      "danger": 1857,
      "lin": 1858,
      "##imp": 1859,
      "##oke": 1860,
      "##orter": 1861,
      "close": 1862,
      "place": 1863,
      "glob": 1864,
      "though": 1865,
      "##eller": 1866,
      "few": 1867,
      "benef": 1868,
      "wa": 1869,
      "##lam": 1870,
      "regul": 1871,
      "majority": 1872,
      "program": 1873,
      "ahead": 1874,
      "live": 1875,
      "##ls": 1876,
      "organ": 1877,
      "mueller": 1878,
      "months": 1879,
      "corpor": 1880,
      "kell": 1881,
      "saying": 1882,
      "amid": 1883,
      "controvers": 1884,
      "tells": 1885,
      "##ck": 1886,
      "took": 1887,
      "deep": 1888,
      "##ird": 1889,
      "alleg": 1890,
      "kids": 1891,
      "vac": 1892,
      "##ended": 1893,
      "moore": 1894,
      "build": 1895,
      "sure": 1896,
      "exc": 1897,
      "relig": 1898,
      "effect": 1899,
      "victory": 1900,
      "journ": 1901,
      "##isan": 1902,
      "freedom": 1903,
      "pa": 1904,
      "##gia": 1905,
      "##ob": 1906,
      "finally": 1907,
      "community": 1908,
      "##nesday": 1909,
      "wednesday": 1910,
      "val": 1911,
      "##ney": 1912,
      "##oph": 1913,
      "sever": 1914,
      "democracy": 1915,
      "elections": 1916,
      "families": 1917,
      "gay": 1918,
      "pac": 1919,
      "ans": 1920,
      "##rap": 1921,
      "explain": 1922,
      "sunday": 1923,
      "lou": 1924,
      "##oral": 1925,
      "mex": 1926,
      "##rimin": 1927,
      "##ering": 1928,
      "bring": 1929,
      "steve": 1930,
      "idea": 1931,
      "interview": 1932,
      "equ": 1933,
      "##uel": 1934,
      "hour": 1935,
      "deport": 1936,
      "racist": 1937,
      "moment": 1938,
      "capitol": 1939,
      "round": 1940,
      "##fort": 1941,
      "##ming": 1942,
      "##oric": 1943,
      "votes": 1944,
      "##ways": 1945,
      "non": 1946,
      "##iver": 1947,
      "##ew": 1948,
      "repres": 1949,
      "accord": 1950,
      "##rupt": 1951,
      "gra": 1952,
      "reason": 1953,
      "allow": 1954,
      "letter": 1955,
      "georgia": 1956,
      "employ": 1957,
      "epa": 1958,
      "doub": 1959,
      "##ne": 1960,
      "##igence": 1961,
      "himself": 1962,
      "##brief": 1963,
      "college": 1964,
      "veter": 1965,
      "kore": 1966,
      "loc": 1967,
      "lost": 1968,
      "lob": 1969,
      "attemp": 1970,
      "newsbrief": 1971,
      "acr": 1972,
      "service": 1973,
      "middle": 1974,
      "av": 1975,
      "early": 1976,
      "sing": 1977,
      "takes": 1978,
      "##ined": 1979,
      "##iron": 1980,
      "thinks": 1981,
      "young": 1982,
      "parenthood": 1983,
      "fav": 1984,
      "thous": 1985,
      "saf": 1986,
      "term": 1987,
      "ohio": 1988,
      "journal": 1989,
      "##ages": 1990,
      "putin": 1991,
      "##ky": 1992,
      "##ator": 1993,
      "##isc": 1994,
      "##ified": 1995,
      "brown": 1996,
      "calling": 1997,
      "eth": 1998,
      "adviser": 1999,
      "mitch": 2000,
      "pet": 2001,
      "sil": 2002,
      "##ember": 2003,
      "##ones": 2004,
      "##ades": 2005,
      "turn": 2006,
      "schools": 2007,
      "across": 2008,
      "curr": 2009,
      "vice": 2010,
      "##my": 2011,
      "##ars": 2012,
      "toward": 2013,
      "##unt": 2014,
      "mccain": 2015,
      "movement": 2016,
      "name": 2017,
      "west": 2018,
      "##go": 2019,
      "##ission": 2020,
      "george": 2021,
      "intelligence": 2022,
      "criminal": 2023,
      "alle": 2024,
      "using": 2025,
      "##ats": 2026,
      "cauc": 2027,
      "rece": 2028,
      "##ertain": 2029,
      "aw": 2030,
      "fly": 2031,
      "ris": 2032,
      "chec": 2033,
      "cov": 2034,
      "probably": 2035,
      "##book": 2036,
      "environ": 2037,
      "came": 2038,
      "##ump": 2039,
      "begin": 2040,
      "different": 2041,
      "fall": 2042,
      "son": 2043,
      "##lish": 2044,
      "##cement": 2045,
      "alab": 2046,
      "cann": 2047,
      "evidence": 2048,
      "protection": 2049,
      "endorse": 2050,
      "cuts": 2051,
      "15": 2052,
      "pan": 2053,
      "sat": 2054,
      "simp": 2055,
      "coming": 2056,
      "everyone": 2057,
      "surpr": 2058,
      "phot": 2059,
      "legislation": 2060,
      "environment": 2061,
      "bomb": 2062,
      "cnn": 2063,
      "low": 2064,
      "labor": 2065,
      "alm": 2066,
      "politicians": 2067,
      "killed": 2068,
      "christie": 2069,
      "color": 2070,
      "prosecut": 2071,
      "alabama": 2072,
      "hol": 2073,
      "mur": 2074,
      "##bt": 2075,
      "ready": 2076,
      "conservatives": 2077,
      "continue": 2078,
      "cy": 2079,
      "##erence": 2080,
      "islam": 2081,
      "unt": 2082,
      "lib": 2083,
      "scand": 2084,
      "message": 2085,
      "covid": 2086,
      "ferg": 2087,
      "lg": 2088,
      "##stand": 2089,
      "##ences": 2090,
      "discrimin": 2091,
      "jobs": 2092,
      "represent": 2093,
      "lgbt": 2094,
      "##uson": 2095,
      "meas": 2096,
      "role": 2097,
      "carson": 2098,
      "100": 2099,
      "gi": 2100,
      "lim": 2101,
      "##form": 2102,
      "##ris": 2103,
      "endors": 2104,
      "oppos": 2105,
      "thousands": 2106,
      "ferguson": 2107,
      "agency": 2108,
      "outs": 2109,
      "marria": 2110,
      "##ister": 2111,
      "truth": 2112,
      "##ived": 2113,
      "poor": 2114,
      "##ancy": 2115,
      "harass": 2116,
      "process": 2117,
      "jail": 2118,
      "pal": 2119,
      "wrap": 2120,
      "##ired": 2121,
      "lear": 2122,
      "leave": 2123,
      "##ccess": 2124,
      "argu": 2125,
      "teach": 2126,
      "##ape": 2127,
      "policies": 2128,
      "##ugg": 2129,
      "company": 2130,
      "global": 2131,
      "cle": 2132,
      "reject": 2133,
      "respond": 2134,
      "information": 2135,
      "favor": 2136,
      "almost": 2137,
      "line": 2138,
      "met": 2139,
      "##cr": 2140,
      "##ift": 2141,
      "indust": 2142,
      "looking": 2143,
      "continues": 2144,
      "rule": 2145,
      "dat": 2146,
      "hack": 2147,
      "##body": 2148,
      "##utional": 2149,
      "##ured": 2150,
      "lawmaker": 2151,
      "economy": 2152,
      "number": 2153,
      "rom": 2154,
      "##aster": 2155,
      "##rew": 2156,
      "sel": 2157,
      "##iven": 2158,
      "tweets": 2159,
      "paid": 2160,
      "bur": 2161,
      "food": 2162,
      "##umb": 2163,
      "##ories": 2164,
      "neg": 2165,
      "202": 2166,
      "roy": 2167,
      "extrem": 2168,
      "possible": 2169,
      "insurance": 2170,
      "marriage": 2171,
      "jr": 2172,
      "##atch": 2173,
      "##vember": 2174,
      "success": 2175,
      "november": 2176,
      "discuss": 2177,
      "challenge": 2178,
      "dream": 2179,
      "emer": 2180,
      "king": 2181,
      "done": 2182,
      "voted": 2183,
      "##iana": 2184,
      "points": 2185,
      "wrote": 2186,
      "happened": 2187,
      "activists": 2188,
      "ok": 2189,
      "pret": 2190,
      "went": 2191,
      "##asing": 2192,
      "goes": 2193,
      "amend": 2194,
      "five": 2195,
      "having": 2196,
      "cred": 2197,
      "crime": 2198,
      "ent": 2199,
      "##ghan": 2200,
      "biggest": 2201,
      "emails": 2202,
      "release": 2203,
      "hur": 2204,
      "energ": 2205,
      "impe": 2206,
      "dam": 2207,
      "##be": 2208,
      "##ered": 2209,
      "##reg": 2210,
      "##owd": 2211,
      "enfor": 2212,
      "##izon": 2213,
      "always": 2214,
      "results": 2215,
      "##aps": 2216,
      "david": 2217,
      "##cer": 2218,
      "##ators": 2219,
      "instead": 2220,
      "allegations": 2221,
      "according": 2222,
      "data": 2223,
      "hop": 2224,
      "tough": 2225,
      "pred": 2226,
      "##ational": 2227,
      "##ips": 2228,
      "lawsuit": 2229,
      "replace": 2230,
      "dnc": 2231,
      "event": 2232,
      "remo": 2233,
      "minor": 2234,
      "bas": 2235,
      "im": 2236,
      "uk": 2237,
      "##ten": 2238,
      "##ille": 2239,
      "fal": 2240,
      "pu": 2241,
      "##ural": 2242,
      "wee": 2243,
      "##ansas": 2244,
      "elected": 2245,
      "hearing": 2246,
      "several": 2247,
      "until": 2248,
      "ke": 2249,
      "town": 2250,
      "wanted": 2251,
      "##azi": 2252,
      "cia": 2253,
      "lose": 2254,
      "2017": 2255,
      "refugees": 2256,
      "liberal": 2257,
      "impeach": 2258,
      "hit": 2259,
      "##ees": 2260,
      "##opp": 2261,
      "shot": 2262,
      "agend": 2263,
      "##ails": 2264,
      "others": 2265,
      "syria": 2266,
      "victims": 2267,
      "potential": 2268,
      "dangerous": 2269,
      "amendment": 2270,
      "##ted": 2271,
      "words": 2272,
      "##aged": 2273,
      "##ruct": 2274,
      "energy": 2275,
      "weeks": 2276,
      "fake": 2277,
      "hot": 2278,
      "kind": 2279,
      "##term": 2280,
      "ask": 2281,
      "##ibility": 2282,
      "ruling": 2283,
      "released": 2284,
      "seems": 2285,
      "religious": 2286,
      "korea": 2287,
      "##ville": 2288,
      "##lex": 2289,
      "##vey": 2290,
      "hamp": 2291,
      "financ": 2292,
      "student": 2293,
      "afford": 2294,
      "dest": 2295,
      "##pl": 2296,
      "stay": 2297,
      "##aken": 2298,
      "leav": 2299,
      "soon": 2300,
      "strugg": 2301,
      "facebook": 2302,
      "creat": 2303,
      "nra": 2304,
      "rick": 2305,
      "often": 2306,
      "##igan": 2307,
      "china": 2308,
      "weap": 2309,
      "eng": 2310,
      "##rage": 2311,
      "bro": 2312,
      "conspir": 2313,
      "defe": 2314,
      "small": 2315,
      "shutdown": 2316,
      "strategy": 2317,
      "agenda": 2318,
      "fix": 2319,
      "mind": 2320,
      "##aw": 2321,
      "##ocks": 2322,
      "wasn": 2323,
      "save": 2324,
      "reports": 2325,
      "final": 2326,
      "safety": 2327,
      "alleged": 2328,
      "mc": 2329,
      "matt": 2330,
      "##une": 2331,
      "art": 2332,
      "looks": 2333,
      "immigrant": 2334,
      "##val": 2335,
      "##icks": 2336,
      "##iously": 2337,
      "focus": 2338,
      "gar": 2339,
      "sk": 2340,
      "##enn": 2341,
      "clos": 2342,
      "front": 2343,
      "demand": 2344,
      "afghan": 2345,
      "robert": 2346,
      "illeg": 2347,
      "cannot": 2348,
      "self": 2349,
      "opt": 2350,
      "rad": 2351,
      "third": 2352,
      "pra": 2353,
      "##leg": 2354,
      "##ither": 2355,
      "someone": 2356,
      "decades": 2357,
      "michigan": 2358,
      "##shire": 2359,
      "ignor": 2360,
      "hampshire": 2361,
      "aide": 2362,
      "cities": 2363,
      "each": 2364,
      "father": 2365,
      "##oint": 2366,
      "try": 2367,
      "12": 2368,
      "forward": 2369,
      "abs": 2370,
      "arizon": 2371,
      "##ify": 2372,
      "university": 2373,
      "answer": 2374,
      "romney": 2375,
      "amb": 2376,
      "sal": 2377,
      "##orr": 2378,
      "##istan": 2379,
      "##emic": 2380,
      "book": 2381,
      "relations": 2382,
      "visit": 2383,
      "##yn": 2384,
      "##ares": 2385,
      "##ites": 2386,
      "reach": 2387,
      "##ota": 2388,
      "##lect": 2389,
      "such": 2390,
      "##aining": 2391,
      "##ife": 2392,
      "dism": 2393,
      "account": 2394,
      "invol": 2395,
      "anything": 2396,
      "surv": 2397,
      "faces": 2398,
      "treat": 2399,
      "scandal": 2400,
      "arizona": 2401,
      "era": 2402,
      "game": 2403,
      "led": 2404,
      "##over": 2405,
      "tried": 2406,
      "##ada": 2407,
      "##imes": 2408,
      "unf": 2409,
      "level": 2410,
      "##ager": 2411,
      "county": 2412,
      "##selves": 2413,
      "fighting": 2414,
      "lobby": 2415,
      "##ield": 2416,
      "warns": 2417,
      "walker": 2418,
      "efforts": 2419,
      "jim": 2420,
      "late": 2421,
      "##earch": 2422,
      "research": 2423,
      "ground": 2424,
      "commission": 2425,
      "understand": 2426,
      "jew": 2427,
      "respons": 2428,
      "slams": 2429,
      "##nsyl": 2430,
      "pennsyl": 2431,
      "honor": 2432,
      "controversial": 2433,
      "roundup": 2434,
      "pennsylv": 2435,
      "certain": 2436,
      "gave": 2437,
      "rand": 2438,
      "wage": 2439,
      "##uary": 2440,
      "##bs": 2441,
      "thought": 2442,
      "##tern": 2443,
      "fired": 2444,
      "counsel": 2445,
      "critics": 2446,
      "prevent": 2447,
      "half": 2448,
      "false": 2449,
      "ties": 2450,
      "##inc": 2451,
      "##ett": 2452,
      "unc": 2453,
      "##ability": 2454,
      "hero": 2455,
      "everything": 2456,
      "racism": 2457,
      "muslims": 2458,
      "finds": 2459,
      "industry": 2460,
      "pennsylvania": 2461,
      "##non": 2462,
      "##umer": 2463,
      "##hen": 2464,
      "tro": 2465,
      "##ially": 2466,
      "launch": 2467,
      "coal": 2468,
      "huge": 2469,
      "flag": 2470,
      "reality": 2471,
      "accept": 2472,
      "july": 2473,
      "charlott": 2474,
      "avo": 2475,
      "roll": 2476,
      "##omes": 2477,
      "expected": 2478,
      "harassment": 2479,
      "main": 2480,
      "##och": 2481,
      "helped": 2482,
      "inside": 2483,
      "land": 2484,
      "##icul": 2485,
      "2014": 2486,
      "defend": 2487,
      "bank": 2488,
      "anyone": 2489,
      "polling": 2490,
      "guy": 2491,
      "oppon": 2492,
      "personal": 2493,
      "##ocumented": 2494,
      "fair": 2495,
      "gives": 2496,
      "toget": 2497,
      "deleg": 2498,
      "peace": 2499,
      "##iction": 2500,
      "complain": 2501,
      "boe": 2502,
      "paris": 2503,
      "charges": 2504,
      "district": 2505,
      "companies": 2506,
      "following": 2507,
      "together": 2508,
      "hund": 2509,
      "##ders": 2510,
      "##arr": 2511,
      "seen": 2512,
      "flint": 2513,
      "ways": 2514,
      "coron": 2515,
      "terrorism": 2516,
      "including": 2517,
      "confirm": 2518,
      "hours": 2519,
      "hundred": 2520,
      "pel": 2521,
      "vo": 2522,
      "##estic": 2523,
      "##ained": 2524,
      "##osi": 2525,
      "influ": 2526,
      "apolog": 2527,
      "choice": 2528,
      "feel": 2529,
      "advocates": 2530,
      "cre": 2531,
      "stat": 2532,
      "##irus": 2533,
      "##ards": 2534,
      "maybe": 2535,
      "##avirus": 2536,
      "countries": 2537,
      "longer": 2538,
      "facing": 2539,
      "powerful": 2540,
      "green": 2541,
      "local": 2542,
      "single": 2543,
      "coronavirus": 2544,
      "held": 2545,
      "seek": 2546,
      "##artisan": 2547,
      "##ctions": 2548,
      "2015": 2549,
      "bannon": 2550,
      "medical": 2551,
      "mexico": 2552,
      "##atic": 2553,
      "ine": 2554,
      "inj": 2555,
      "##asts": 2556,
      "conn": 2557,
      "doj": 2558,
      "means": 2559,
      "course": 2560,
      "##ensive": 2561,
      "remember": 2562,
      "indep": 2563,
      "veterans": 2564,
      "flynn": 2565,
      "pelosi": 2566,
      "independ": 2567,
      "fem": 2568,
      "ten": 2569,
      "wisc": 2570,
      "##gender": 2571,
      "##ued": 2572,
      "##ature": 2573,
      "##alia": 2574,
      "inau": 2575,
      "troub": 2576,
      "true": 2577,
      "seat": 2578,
      "abuse": 2579,
      "##ished": 2580,
      "else": 2581,
      "transgender": 2582,
      "failed": 2583,
      "caucus": 2584,
      "inaug": 2585,
      "dom": 2586,
      "kas": 2587,
      "##los": 2588,
      "##aries": 2589,
      "##itive": 2590,
      "trad": 2591,
      "##read": 2592,
      "##amed": 2593,
      "heart": 2594,
      "leading": 2595,
      "##onsin": 2596,
      "protests": 2597,
      "wisconsin": 2598,
      "fel": 2599,
      "##itions": 2600,
      "worst": 2601,
      "louis": 2602,
      "oil": 2603,
      "##urch": 2604,
      "##ulian": 2605,
      "leak": 2606,
      "##ocked": 2607,
      "##esville": 2608,
      "trust": 2609,
      "frank": 2610,
      "tech": 2611,
      "grand": 2612,
      "attention": 2613,
      "undocumented": 2614,
      "ballot": 2615,
      "conspiracy": 2616,
      "side": 2617,
      "##ki": 2618,
      "##ining": 2619,
      "##iding": 2620,
      "##ago": 2621,
      "suggests": 2622,
      "gold": 2623,
      "lie": 2624,
      "pull": 2625,
      "##idents": 2626,
      "haw": 2627,
      "hasn": 2628,
      "wouldn": 2629,
      "debt": 2630,
      "happy": 2631,
      "happen": 2632,
      "reveal": 2633,
      "ethics": 2634,
      "current": 2635,
      "2020": 2636,
      "charlottesville": 2637,
      "bal": 2638,
      "rnc": 2639,
      "yes": 2640,
      "##ler": 2641,
      "##arks": 2642,
      "growing": 2643,
      "science": 2644,
      "leadership": 2645,
      "##ucky": 2646,
      "eric": 2647,
      "agreement": 2648,
      "lies": 2649,
      "sad": 2650,
      "##ental": 2651,
      "##oman": 2652,
      "##ets": 2653,
      "donors": 2654,
      "##hner": 2655,
      "bull": 2656,
      "teachers": 2657,
      "pretty": 2658,
      "ukr": 2659,
      "domestic": 2660,
      "iv": 2661,
      "wing": 2662,
      "##iate": 2663,
      "##den": 2664,
      "##bur": 2665,
      "##using": 2666,
      "##usion": 2667,
      "able": 2668,
      "arab": 2669,
      "##icted": 2670,
      "appar": 2671,
      "common": 2672,
      "review": 2673,
      "restrict": 2674,
      "proposal": 2675,
      "corporate": 2676,
      "graham": 2677,
      "discrimination": 2678,
      "ho": 2679,
      "mag": 2680,
      "pun": 2681,
      "##bin": 2682,
      "##back": 2683,
      "anth": 2684,
      "storm": 2685,
      "##utions": 2686,
      "##ado": 2687,
      "##izes": 2688,
      "defends": 2689,
      "deliver": 2690,
      "condem": 2691,
      "##lete": 2692,
      "financial": 2693,
      "kasich": 2694,
      "kush": 2695,
      "lack": 2696,
      "pip": 2697,
      "tort": 2698,
      "##kes": 2699,
      "##any": 2700,
      "##icago": 2701,
      "chicago": 2702,
      "wealth": 2703,
      "exist": 2704,
      "spent": 2705,
      "doct": 2706,
      "center": 2707,
      "friends": 2708,
      "based": 2709,
      "##ried": 2710,
      "##work": 2711,
      "##alty": 2712,
      "itself": 2713,
      "send": 2714,
      "sense": 2715,
      "##oken": 2716,
      "shouldn": 2717,
      "johnson": 2718,
      "racial": 2719,
      "experts": 2720,
      "arrested": 2721,
      "cub": 2722,
      "ey": 2723,
      "##uitt": 2724,
      "pruitt": 2725,
      "form": 2726,
      "kushner": 2727,
      "50": 2728,
      "fur": 2729,
      "kent": 2730,
      "ut": 2731,
      "wild": 2732,
      "tot": 2733,
      "gener": 2734,
      "##velop": 2735,
      "increasing": 2736,
      "vacc": 2737,
      "hundreds": 2738,
      "bip": 2739,
      "rh": 2740,
      "rather": 2741,
      "sit": 2742,
      "##omp": 2743,
      "##uce": 2744,
      "worse": 2745,
      "thanks": 2746,
      "chance": 2747,
      "officer": 2748,
      "evening": 2749,
      "parents": 2750,
      "proposed": 2751,
      "estab": 2752,
      "boehner": 2753,
      "cast": 2754,
      "fig": 2755,
      "hall": 2756,
      "mist": 2757,
      "sound": 2758,
      "six": 2759,
      "##rop": 2760,
      "##aring": 2761,
      "intr": 2762,
      "reb": 2763,
      "lew": 2764,
      "##ipl": 2765,
      "changes": 2766,
      "oper": 2767,
      "opin": 2768,
      "risk": 2769,
      "environmental": 2770,
      "##crib": 2771,
      "afghanistan": 2772,
      "eur": 2773,
      "gl": 2774,
      "kim": 2775,
      "ran": 2776,
      "rid": 2777,
      "trial": 2778,
      "crack": 2779,
      "##room": 2780,
      "later": 2781,
      "threats": 2782,
      "numbers": 2783,
      "concerns": 2784,
      "satur": 2785,
      "bra": 2786,
      "cult": 2787,
      "giving": 2788,
      "##iety": 2789,
      "##aire": 2790,
      "##erve": 2791,
      "price": 2792,
      "develop": 2793,
      "##ocking": 2794,
      "word": 2795,
      "##icaid": 2796,
      "supremac": 2797,
      "officers": 2798,
      "medicaid": 2799,
      "##erto": 2800,
      "respect": 2801,
      "turned": 2802,
      "losing": 2803,
      "constitution": 2804,
      "##aughter": 2805,
      "kelly": 2806,
      "cases": 2807,
      "path": 2808,
      "##iet": 2809,
      "##ever": 2810,
      "brief": 2811,
      "winning": 2812,
      "criticism": 2813,
      "actions": 2814,
      "memo": 2815,
      "puerto": 2816,
      "saturday": 2817,
      "ren": 2818,
      "##woman": 2819,
      "che": 2820,
      "chuck": 2821,
      "##ortun": 2822,
      "demon": 2823,
      "doll": 2824,
      "saud": 2825,
      "opportun": 2826,
      "coverage": 2827,
      "establish": 2828,
      "aid": 2829,
      "fun": 2830,
      "##port": 2831,
      "init": 2832,
      "mel": 2833,
      "along": 2834,
      "bob": 2835,
      "conference": 2836,
      "below": 2837,
      "minim": 2838,
      "passed": 2839,
      "appears": 2840,
      "june": 2841,
      "##illing": 2842,
      "##olf": 2843,
      "reporter": 2844,
      "suff": 2845,
      "member": 2846,
      "killing": 2847,
      "chairman": 2848,
      "popular": 2849,
      "impeachment": 2850,
      "cu": 2851,
      "foot": 2852,
      "hands": 2853,
      "mitt": 2854,
      "##bc": 2855,
      "##olution": 2856,
      "enc": 2857,
      "##eline": 2858,
      "##aper": 2859,
      "problems": 2860,
      "panel": 2861,
      "photo": 2862,
      "negot": 2863,
      "east": 2864,
      "kh": 2865,
      "nancy": 2866,
      "##ners": 2867,
      "safe": 2868,
      "allies": 2869,
      "expand": 2870,
      "boost": 2871,
      "board": 2872,
      "medic": 2873,
      "confed": 2874,
      "##anka": 2875,
      "celeb": 2876,
      "kentucky": 2877,
      "18": 2878,
      "overs": 2879,
      "##ma": 2880,
      "troll": 2881,
      "known": 2882,
      "lawyers": 2883,
      "large": 2884,
      "easy": 2885,
      "deportation": 2886,
      "attempt": 2887,
      "da": 2888,
      "fa": 2889,
      "port": 2890,
      "taken": 2891,
      "wife": 2892,
      "##lict": 2893,
      "##ric": 2894,
      "##of": 2895,
      "bey": 2896,
      "conway": 2897,
      "unp": 2898,
      "enter": 2899,
      "taxes": 2900,
      "##ances": 2901,
      "massive": 2902,
      "promises": 2903,
      "measure": 2904,
      "inaugur": 2905,
      "hos": 2906,
      "trip": 2907,
      "##aca": 2908,
      "sean": 2909,
      "asks": 2910,
      "income": 2911,
      "weekend": 2912,
      "judic": 2913,
      "international": 2914,
      "friend": 2915,
      "giulian": 2916,
      "ivanka": 2917,
      "europe": 2918,
      "giuliani": 2919,
      "lind": 2920,
      "##sy": 2921,
      "##iter": 2922,
      "##urb": 2923,
      "##ador": 2924,
      "repe": 2925,
      "afr": 2926,
      "##aging": 2927,
      "boy": 2928,
      "daca": 2929,
      "koch": 2930,
      "pract": 2931,
      "##irc": 2932,
      "##ushing": 2933,
      "sher": 2934,
      "project": 2935,
      "##que": 2936,
      "profess": 2937,
      "benefits": 2938,
      "colorado": 2939,
      "fuel": 2940,
      "gir": 2941,
      "given": 2942,
      "horr": 2943,
      "mad": 2944,
      "##ste": 2945,
      "##okes": 2946,
      "themselves": 2947,
      "fundra": 2948,
      "delay": 2949,
      "follow": 2950,
      "hospit": 2951,
      "hyp": 2952,
      "##uff": 2953,
      "franc": 2954,
      "coup": 2955,
      "##ival": 2956,
      "ads": 2957,
      "offer": 2958,
      "blame": 2959,
      "convers": 2960,
      "historic": 2961,
      "facts": 2962,
      "enforcement": 2963,
      "confederate": 2964,
      "25": 2965,
      "circ": 2966,
      "either": 2967,
      "jers": 2968,
      "mr": 2969,
      "mal": 2970,
      "mary": 2971,
      "##care": 2972,
      "##amb": 2973,
      "##ires": 2974,
      "dose": 2975,
      "upd": 2976,
      "whose": 2977,
      "resist": 2978,
      "scient": 2979,
      "##itting": 2980,
      "contrib": 2981,
      "terrible": 2982,
      "raise": 2983,
      "promise": 2984,
      "suspect": 2985,
      "esp": 2986,
      "outside": 2987,
      "clean": 2988,
      "ukraine": 2989,
      "inauguration": 2990,
      "jersey": 2991,
      "cop": 2992,
      "dark": 2993,
      "occ": 2994,
      "sold": 2995,
      "tv": 2996,
      "##lement": 2997,
      "cross": 2998,
      "pled": 2999,
      "events": 3000,
      "changed": 3001,
      "##ogn": 3002,
      "phil": 3003,
      "progressives": 3004,
      "request": 3005,
      "billionaire": 3006,
      "minority": 3007,
      "saudi": 3008,
      "30": 3009,
      "docu": 3010,
      "dipl": 3011,
      "hurr": 3012,
      "norm": 3013,
      "sar": 3014,
      "##iam": 3015,
      "##arian": 3016,
      "##uty": 3017,
      "##sey": 3018,
      "sell": 3019,
      "dems": 3020,
      "##ully": 3021,
      "misc": 3022,
      "##ikes": 3023,
      "announced": 3024,
      "protections": 3025,
      "minimum": 3026,
      "documents": 3027,
      "diplom": 3028,
      "kansas": 3029,
      "##ai": 3030,
      "##sequ": 3031,
      "god": 3032,
      "cance": 3033,
      "##agon": 3034,
      "appe": 3035,
      "accus": 3036,
      "sett": 3037,
      "check": 3038,
      "bipartisan": 3039,
      "rhet": 3040,
      "base": 3041,
      "jared": 3042,
      "sim": 3043,
      "##iot": 3044,
      "##gency": 3045,
      "##arch": 3046,
      "anal": 3047,
      "##aced": 3048,
      "chee": 3049,
      "##ains": 3050,
      "comb": 3051,
      "orders": 3052,
      "bills": 3053,
      "indiana": 3054,
      "describ": 3055,
      "infr": 3056,
      "slam": 3057,
      "affect": 3058,
      "claimed": 3059,
      "hopeful": 3060,
      "position": 3061,
      "reveals": 3062,
      "endorsement": 3063,
      "affordable": 3064,
      "torture": 3065,
      "francis": 3066,
      "age": 3067,
      "aud": 3068,
      "mer": 3069,
      "##ral": 3070,
      "##hold": 3071,
      "##orial": 3072,
      "##icip": 3073,
      "exact": 3074,
      "crowd": 3075,
      "recogn": 3076,
      "legacy": 3077,
      "pressure": 3078,
      "approach": 3079,
      "susp": 3080,
      "views": 3081,
      "returns": 3082,
      "apparently": 3083,
      "sheriff": 3084,
      "hurrican": 3085,
      "core": 3086,
      "died": 3087,
      "lan": 3088,
      "##ez": 3089,
      "##cil": 3090,
      "##ball": 3091,
      "##ink": 3092,
      "nev": 3093,
      "##thy": 3094,
      "obs": 3095,
      "##ground": 3096,
      "quick": 3097,
      "flo": 3098,
      "conflict": 3099,
      "##ruction": 3100,
      "serve": 3101,
      "celebr": 3102,
      "endorses": 3103,
      "illegal": 3104,
      "cops": 3105,
      "##lier": 3106,
      "##utes": 3107,
      "hell": 3108,
      "cause": 3109,
      "teen": 3110,
      "residents": 3111,
      "scr": 3112,
      "prep": 3113,
      "provide": 3114,
      "penalty": 3115,
      "##stein": 3116,
      "mor": 3117,
      "mart": 3118,
      "rico": 3119,
      "sour": 3120,
      "wish": 3121,
      "unl": 3122,
      "##grap": 3123,
      "cancer": 3124,
      "##ifican": 3125,
      "warning": 3126,
      "scalia": 3127,
      "users": 3128,
      "2018": 3129,
      "complete": 3130,
      "remarks": 3131,
      "signs": 3132,
      "significan": 3133,
      "embr": 3134,
      "murder": 3135,
      "troops": 3136,
      "demonst": 3137,
      "cam": 3138,
      "prior": 3139,
      "##ively": 3140,
      "count": 3141,
      "##action": 3142,
      "schumer": 3143,
      "knows": 3144,
      "shootings": 3145,
      "ceo": 3146,
      "##ructure": 3147,
      "cheeky": 3148,
      "hun": 3149,
      "hits": 3150,
      "loss": 3151,
      "##fully": 3152,
      "track": 3153,
      "reid": 3154,
      "##aces": 3155,
      "impro": 3156,
      "charged": 3157,
      "##aska": 3158,
      "simply": 3159,
      "broad": 3160,
      "infrast": 3161,
      "13": 3162,
      "aim": 3163,
      "mand": 3164,
      "oreg": 3165,
      "pur": 3166,
      "till": 3167,
      "##erman": 3168,
      "##ang": 3169,
      "##icult": 3170,
      "##akota": 3171,
      "within": 3172,
      "statement": 3173,
      "helping": 3174,
      "##onduct": 3175,
      "buy": 3176,
      "tweeted": 3177,
      "ambass": 3178,
      "pipeline": 3179,
      "negoti": 3180,
      "beyond": 3181,
      "misconduct": 3182,
      "rhetoric": 3183,
      "infrastructure": 3184,
      "oregon": 3185,
      "17": 3186,
      "die": 3187,
      "dakota": 3188,
      "gather": 3189,
      "ken": 3190,
      "ny": 3191,
      "##lor": 3192,
      "##ilities": 3193,
      "##ivid": 3194,
      "prod": 3195,
      "##elle": 3196,
      "strike": 3197,
      "became": 3198,
      "syr": 3199,
      "study": 3200,
      "threatens": 3201,
      "revers": 3202,
      "sanctions": 3203,
      "values": 3204,
      "weapons": 3205,
      "gone": 3206,
      "jack": 3207,
      "##dog": 3208,
      "##off": 3209,
      "##mas": 3210,
      "##eng": 3211,
      "heard": 3212,
      "##uster": 3213,
      "arg": 3214,
      "temp": 3215,
      "disaster": 3216,
      "##ouri": 3217,
      "park": 3218,
      "signed": 3219,
      "corrupt": 3220,
      "announces": 3221,
      "constitutional": 3222,
      "palest": 3223,
      "dismiss": 3224,
      "confirmation": 3225,
      "lindsey": 3226,
      "nevada": 3227,
      "21": 3228,
      "mother": 3229,
      "##icer": 3230,
      "trib": 3231,
      "##uters": 3232,
      "cha": 3233,
      "##ilar": 3234,
      "sept": 3235,
      "##ghazi": 3236,
      "appoint": 3237,
      "rob": 3238,
      "electoral": 3239,
      "standing": 3240,
      "missouri": 3241,
      "capital": 3242,
      "concerned": 3243,
      "building": 3244,
      "exactly": 3245,
      "hurricane": 3246,
      "14": 3247,
      "ham": 3248,
      "jones": 3249,
      "##atory": 3250,
      "##asons": 3251,
      "consequ": 3252,
      "##raw": 3253,
      "keeps": 3254,
      "services": 3255,
      "communities": 3256,
      "esc": 3257,
      "opposition": 3258,
      "entire": 3259,
      "destro": 3260,
      "opportunity": 3261,
      "appeals": 3262,
      "significant": 3263,
      "din": 3264,
      "due": 3265,
      "gors": 3266,
      "nat": 3267,
      "oct": 3268,
      "pope": 3269,
      "rud": 3270,
      "sick": 3271,
      "##ron": 3272,
      "##afort": 3273,
      "##ann": 3274,
      "##icking": 3275,
      "church": 3276,
      "hous": 3277,
      "manafort": 3278,
      "contest": 3279,
      "##yanne": 3280,
      "benghazi": 3281,
      "programs": 3282,
      "kellyanne": 3283,
      "ambassador": 3284,
      "gorsuch": 3285,
      "apr": 3286,
      "alex": 3287,
      "fast": 3288,
      "jon": 3289,
      "moral": 3290,
      "rips": 3291,
      "##oud": 3292,
      "##verty": 3293,
      "dog": 3294,
      "##rated": 3295,
      "comment": 3296,
      "backed": 3297,
      "needed": 3298,
      "poverty": 3299,
      "critical": 3300,
      "annivers": 3301,
      "##others": 3302,
      "details": 3303,
      "daughter": 3304,
      "ice": 3305,
      "living": 3306,
      "nom": 3307,
      "ron": 3308,
      "##oma": 3309,
      "andrew": 3310,
      "##ther": 3311,
      "sem": 3312,
      "sue": 3313,
      "army": 3314,
      "michelle": 3315,
      "failure": 3316,
      "earlier": 3317,
      "hotel": 3318,
      "jewish": 3319,
      "female": 3320,
      "anthony": 3321,
      "april": 3322,
      "pard": 3323,
      "##pay": 3324,
      "##iation": 3325,
      "reasons": 3326,
      "join": 3327,
      "appeal": 3328,
      "recently": 3329,
      "decide": 3330,
      "individ": 3331,
      "society": 3332,
      "##ology": 3333,
      "okl": 3334,
      "avoid": 3335,
      "pers": 3336,
      "##iest": 3337,
      "##istic": 3338,
      "spread": 3339,
      "spicer": 3340,
      "express": 3341,
      "underm": 3342,
      "charge": 3343,
      "violent": 3344,
      "harry": 3345,
      "harvey": 3346,
      "colleag": 3347,
      "##where": 3348,
      "allowed": 3349,
      "emergency": 3350,
      "introd": 3351,
      "establishment": 3352,
      "anniversary": 3353,
      "aug": 3354,
      "mult": 3355,
      "##ias": 3356,
      "##ented": 3357,
      "##omo": 3358,
      "manager": 3359,
      "moves": 3360,
      "taxpay": 3361,
      "funds": 3362,
      "turns": 3363,
      "christmas": 3364,
      "midterm": 3365,
      "require": 3366,
      "wait": 3367,
      "organization": 3368,
      "employees": 3369,
      "matters": 3370,
      "treatment": 3371,
      "sor": 3372,
      "##berg": 3373,
      "dece": 3374,
      "except": 3375,
      "cohen": 3376,
      "cabin": 3377,
      "worried": 3378,
      "overt": 3379,
      "teac": 3380,
      "thank": 3381,
      "##inees": 3382,
      "dropp": 3383,
      "road": 3384,
      "paying": 3385,
      "raised": 3386,
      "terrorist": 3387,
      "increase": 3388,
      "seriously": 3389,
      "extreme": 3390,
      "##ropri": 3391,
      "sarah": 3392,
      "nominees": 3393,
      "oklah": 3394,
      "gas": 3395,
      "light": 3396,
      "mot": 3397,
      "mos": 3398,
      "pent": 3399,
      "vers": 3400,
      "##lin": 3401,
      "##iers": 3402,
      "spokes": 3403,
      "##ifying": 3404,
      "brought": 3405,
      "knew": 3406,
      "interior": 3407,
      "remind": 3408,
      "stopp": 3409,
      "speaking": 3410,
      "remains": 3411,
      "draw": 3412,
      "surprise": 3413,
      "techn": 3414,
      "further": 3415,
      "increasingly": 3416,
      "dinner": 3417,
      "bath": 3418,
      "##band": 3419,
      "##ane": 3420,
      "##oug": 3421,
      "##owers": 3422,
      "asking": 3423,
      "justices": 3424,
      "disapp": 3425,
      "however": 3426,
      "nations": 3427,
      "##encies": 3428,
      "records": 3429,
      "return": 3430,
      "doubt": 3431,
      "islamic": 3432,
      "hurt": 3433,
      "involved": 3434,
      "tillerson": 3435,
      "document": 3436,
      "##oted": 3437,
      "princ": 3438,
      "##ading": 3439,
      "uns": 3440,
      "reporters": 3441,
      "room": 3442,
      "wonder": 3443,
      "opio": 3444,
      "talks": 3445,
      "seeking": 3446,
      "ident": 3447,
      "happens": 3448,
      "started": 3449,
      "market": 3450,
      "prosecutors": 3451,
      "delegates": 3452,
      "oklahoma": 3453,
      "aut": 3454,
      "lady": 3455,
      "pain": 3456,
      "pushing": 3457,
      "rock": 3458,
      "tens": 3459,
      "vs": 3460,
      "wake": 3461,
      "##ients": 3462,
      "##mo": 3463,
      "##hs": 3464,
      "cap": 3465,
      "plat": 3466,
      "wars": 3467,
      "huck": 3468,
      "##ecially": 3469,
      "higher": 3470,
      "massac": 3471,
      "christian": 3472,
      "activist": 3473,
      "largest": 3474,
      "received": 3475,
      "created": 3476,
      "cuomo": 3477,
      "especially": 3478,
      "cabinet": 3479,
      "pentagon": 3480,
      "body": 3481,
      "cust": 3482,
      "##fect": 3483,
      "##ole": 3484,
      "##cing": 3485,
      "asian": 3486,
      "summ": 3487,
      "uncon": 3488,
      "scar": 3489,
      "debates": 3490,
      "anyway": 3491,
      "homeland": 3492,
      "january": 3493,
      "allegedly": 3494,
      "closer": 3495,
      "influence": 3496,
      "doug": 3497,
      "field": 3498,
      "##cess": 3499,
      "island": 3500,
      "##iring": 3501,
      "near": 3502,
      "webs": 3503,
      "whole": 3504,
      "blow": 3505,
      "blames": 3506,
      "firing": 3507,
      "impact": 3508,
      "##stitutional": 3509,
      "danie": 3510,
      "internet": 3511,
      "##ophob": 3512,
      "inequ": 3513,
      "opinion": 3514,
      "dollars": 3515,
      "african": 3516,
      "consequences": 3517,
      "bathroom": 3518,
      "16": 3519,
      "page": 3520,
      "rate": 3521,
      "riot": 3522,
      "sac": 3523,
      "##vin": 3524,
      "##ble": 3525,
      "##rect": 3526,
      "forces": 3527,
      "stands": 3528,
      "stories": 3529,
      "##ately": 3530,
      "doz": 3531,
      "disp": 3532,
      "congresswoman": 3533,
      "couldn": 3534,
      "supporting": 3535,
      "guil": 3536,
      "ideas": 3537,
      "divided": 3538,
      "richard": 3539,
      "dreamers": 3540,
      "leaving": 3541,
      "hawai": 3542,
      "cuba": 3543,
      "syrian": 3544,
      "palestin": 3545,
      "opioid": 3546,
      "dad": 3547,
      "pand": 3548,
      "vol": 3549,
      "veg": 3550,
      "##fl": 3551,
      "##ront": 3552,
      "##ouse": 3553,
      "inn": 3554,
      "necess": 3555,
      "seven": 3556,
      "sum": 3557,
      "worry": 3558,
      "##abee": 3559,
      "orig": 3560,
      "backs": 3561,
      "complic": 3562,
      "reflect": 3563,
      "phone": 3564,
      "passes": 3565,
      "challenges": 3566,
      "learn": 3567,
      "hopes": 3568,
      "surviv": 3569,
      "huckabee": 3570,
      "golf": 3571,
      "lower": 3572,
      "ske": 3573,
      "##ny": 3574,
      "##yle": 3575,
      "weigh": 3576,
      "spoke": 3577,
      "planning": 3578,
      "becomes": 3579,
      "thinking": 3580,
      "feds": 3581,
      "assoc": 3582,
      "previously": 3583,
      "announcement": 3584,
      "fears": 3585,
      "experience": 3586,
      "create": 3587,
      "connect": 3588,
      "hypoc": 3589,
      "martin": 3590,
      "names": 3591,
      "picks": 3592,
      "##uation": 3593,
      "##iders": 3594,
      "share": 3595,
      "weak": 3596,
      "lif": 3597,
      "outrage": 3598,
      "armed": 3599,
      "##agan": 3600,
      "decided": 3601,
      "ending": 3602,
      "refuses": 3603,
      "worked": 3604,
      "judges": 3605,
      "deaths": 3606,
      "retire": 3607,
      "denies": 3608,
      "century": 3609,
      "playing": 3610,
      "urges": 3611,
      "considering": 3612,
      "devos": 3613,
      "benefit": 3614,
      "absol": 3615,
      "punish": 3616,
      "medicare": 3617,
      "faith": 3618,
      "hospital": 3619,
      "vegas": 3620,
      "cal": 3621,
      "tick": 3622,
      "ul": 3623,
      "##oen": 3624,
      "##uing": 3625,
      "##isions": 3626,
      "##stant": 3627,
      "##struction": 3628,
      "beat": 3629,
      "##imony": 3630,
      "shift": 3631,
      "haven": 3632,
      "attend": 3633,
      "council": 3634,
      "2012": 3635,
      "relief": 3636,
      "highl": 3637,
      "investigate": 3638,
      "behav": 3639,
      "##ika": 3640,
      "include": 3641,
      "deeply": 3642,
      "leaves": 3643,
      "defeat": 3644,
      "culture": 3645,
      "sorry": 3646,
      "princip": 3647,
      "fior": 3648,
      "jury": 3649,
      "nix": 3650,
      "sides": 3651,
      "##lus": 3652,
      "##oes": 3653,
      "##icle": 3654,
      "pray": 3655,
      "dear": 3656,
      "stage": 3657,
      "shame": 3658,
      "##pped": 3659,
      "enem": 3660,
      "parties": 3661,
      "uses": 3662,
      "##rog": 3663,
      "patri": 3664,
      "businesses": 3665,
      "treas": 3666,
      "appeared": 3667,
      "radical": 3668,
      "rudy": 3669,
      "fiorina": 3670,
      "fell": 3671,
      "hus": 3672,
      "pack": 3673,
      "##mont": 3674,
      "##ery": 3675,
      "##arily": 3676,
      "forget": 3677,
      "neut": 3678,
      "##iling": 3679,
      "search": 3680,
      "spl": 3681,
      "altern": 3682,
      "particul": 3683,
      "firm": 3684,
      "terrorists": 3685,
      "believes": 3686,
      "affair": 3687,
      "difficult": 3688,
      "approval": 3689,
      "citizenship": 3690,
      "holiday": 3691,
      "opponents": 3692,
      "housing": 3693,
      "inequality": 3694,
      "guilty": 3695,
      "rig": 3696,
      "##la": 3697,
      "##nel": 3698,
      "##de": 3699,
      "##more": 3700,
      "##wide": 3701,
      "##bel": 3702,
      "##itness": 3703,
      "reuters": 3704,
      "##ola": 3705,
      "withd": 3706,
      "dod": 3707,
      "##anted": 3708,
      "grow": 3709,
      "broken": 3710,
      "##ibly": 3711,
      "mont": 3712,
      "supposed": 3713,
      "commit": 3714,
      "carry": 3715,
      "perfect": 3716,
      "inspir": 3717,
      "prepar": 3718,
      "##ahu": 3719,
      "testimony": 3720,
      "netany": 3721,
      "costs": 3722,
      "explains": 3723,
      "journalists": 3724,
      "imag": 3725,
      "##burg": 3726,
      "conversation": 3727,
      "unlike": 3728,
      "netanyahu": 3729,
      "cur": 3730,
      "eb": 3731,
      "fill": 3732,
      "native": 3733,
      "##0s": 3734,
      "##acts": 3735,
      "saw": 3736,
      "willing": 3737,
      "worth": 3738,
      "tele": 3739,
      "##enced": 3740,
      "related": 3741,
      "puts": 3742,
      "vermont": 3743,
      "seeks": 3744,
      "investigating": 3745,
      "promised": 3746,
      "distr": 3747,
      "central": 3748,
      "illino": 3749,
      "suggested": 3750,
      "interests": 3751,
      "melania": 3752,
      "maryland": 3753,
      "combat": 3754,
      "platform": 3755,
      "massacre": 3756,
      "origin": 3757,
      "illinois": 3758,
      "dig": 3759,
      "named": 3760,
      "wind": 3761,
      "##bl": 3762,
      "##kn": 3763,
      "tries": 3764,
      "began": 3765,
      "heav": 3766,
      "presidents": 3767,
      "suit": 3768,
      "spot": 3769,
      "spend": 3770,
      "partisan": 3771,
      "design": 3772,
      "##otten": 3773,
      "surve": 3774,
      "primaries": 3775,
      "faced": 3776,
      "hearings": 3777,
      "holding": 3778,
      "deadly": 3779,
      "relationship": 3780,
      "encou": 3781,
      "daily": 3782,
      "normal": 3783,
      "camer": 3784,
      "destroy": 3785,
      "hawaii": 3786,
      "absolute": 3787,
      "24": 3788,
      "eg": 3789,
      "##ters": 3790,
      "##haps": 3791,
      "##ination": 3792,
      "senior": 3793,
      "door": 3794,
      "##key": 3795,
      "##ounts": 3796,
      "blue": 3797,
      "quiet": 3798,
      "refused": 3799,
      "admits": 3800,
      "perhaps": 3801,
      "finance": 3802,
      "harm": 3803,
      "histor": 3804,
      "latino": 3805,
      "criticized": 3806,
      "##ashes": 3807,
      "##resp": 3808,
      "solution": 3809,
      "network": 3810,
      "certainly": 3811,
      "voice": 3812,
      "langu": 3813,
      "website": 3814,
      "40": 3815,
      "bow": 3816,
      "fat": 3817,
      "jerry": 3818,
      "las": 3819,
      "angr": 3820,
      "reagan": 3821,
      "proud": 3822,
      "determ": 3823,
      "##aming": 3824,
      "spr": 3825,
      "liber": 3826,
      "ups": 3827,
      "moving": 3828,
      "showed": 3829,
      "guard": 3830,
      "199": 3831,
      "posted": 3832,
      "waiting": 3833,
      "supremacists": 3834,
      "repeated": 3835,
      "born": 3836,
      "gender": 3837,
      "ms": 3838,
      "##ov": 3839,
      "##ober": 3840,
      "##iny": 3841,
      "##ench": 3842,
      "##oms": 3843,
      "forced": 3844,
      "online": 3845,
      "neigh": 3846,
      "##iled": 3847,
      "laugh": 3848,
      "blasts": 3849,
      "nobody": 3850,
      "counter": 3851,
      "slow": 3852,
      "surge": 3853,
      "regard": 3854,
      "keeping": 3855,
      "communic": 3856,
      "##ught": 3857,
      "jump": 3858,
      "davis": 3859,
      "##ipped": 3860,
      "mexican": 3861,
      "equality": 3862,
      "prosecutor": 3863,
      "##play": 3864,
      "garland": 3865,
      "trouble": 3866,
      "franken": 3867,
      "utah": 3868,
      "october": 3869,
      "august": 3870,
      "summer": 3871,
      "divers": 3872,
      "kerry": 3873,
      "nar": 3874,
      "nav": 3875,
      "purs": 3876,
      "##rom": 3877,
      "##eed": 3878,
      "##ala": 3879,
      "anim": 3880,
      "##omm": 3881,
      "##uts": 3882,
      "separ": 3883,
      "unions": 3884,
      "coop": 3885,
      "offers": 3886,
      "warned": 3887,
      "accuses": 3888,
      "mob": 3889,
      "becoming": 3890,
      "insist": 3891,
      "putting": 3892,
      "watchdog": 3893,
      "patr": 3894,
      "nonp": 3895,
      "silence": 3896,
      "giant": 3897,
      "learned": 3898,
      "independent": 3899,
      "vaccine": 3900,
      "december": 3901,
      "der": 3902,
      "fine": 3903,
      "mental": 3904,
      "tact": 3905,
      "vows": 3906,
      "##tim": 3907,
      "theory": 3908,
      "##asio": 3909,
      "##see": 3910,
      "sens": 3911,
      "crimes": 3912,
      "blood": 3913,
      "brut": 3914,
      "campaigns": 3915,
      "backing": 3916,
      "accomp": 3917,
      "##itted": 3918,
      "##ensus": 3919,
      "ends": 3920,
      "register": 3921,
      "victim": 3922,
      "walk": 3923,
      "epid": 3924,
      "modern": 3925,
      "please": 3926,
      "regulations": 3927,
      "corporations": 3928,
      "lgbtq": 3929,
      "restrictions": 3930,
      "initi": 3931,
      "teacher": 3932,
      "husband": 3933,
      "domin": 3934,
      "fre": 3935,
      "nice": 3936,
      "squ": 3937,
      "neil": 3938,
      "ability": 3939,
      "demands": 3940,
      "adop": 3941,
      "agencies": 3942,
      "##enders": 3943,
      "meg": 3944,
      "flood": 3945,
      "recover": 3946,
      "supports": 3947,
      "interf": 3948,
      "advice": 3949,
      "guide": 3950,
      "turning": 3951,
      "feb": 3952,
      "embarr": 3953,
      "linked": 3954,
      "simple": 3955,
      "photos": 3956,
      "responsibility": 3957,
      "rebu": 3958,
      "similar": 3959,
      "corruption": 3960,
      "pardon": 3961,
      "colleagues": 3962,
      "behavior": 3963,
      "embarrass": 3964,
      "lands": 3965,
      "merr": 3966,
      "maine": 3967,
      "rising": 3968,
      "sle": 3969,
      "##wers": 3970,
      "##isp": 3971,
      "forg": 3972,
      "style": 3973,
      "works": 3974,
      "result": 3975,
      "blocks": 3976,
      "quite": 3977,
      "contract": 3978,
      "revolution": 3979,
      "testify": 3980,
      "protecting": 3981,
      "listen": 3982,
      "targeted": 3983,
      "draft": 3984,
      "organiz": 3985,
      "cyber": 3986,
      "opponent": 3987,
      "renew": 3988,
      "resistance": 3989,
      "aides": 3990,
      "va": 3991,
      "vul": 3992,
      "##pa": 3993,
      "##he": 3994,
      "##house": 3995,
      "ones": 3996,
      "##ils": 3997,
      "disgr": 3998,
      "partners": 3999,
      "particip": 4000,
      "scen": 4001,
      "##uced": 4002,
      "supporter": 4003,
      "drop": 4004,
      "carl": 4005,
      "edit": 4006,
      "denoun": 4007,
      "harder": 4008,
      "conduct": 4009,
      "fourth": 4010,
      "plead": 4011,
      "##graph": 4012,
      "pandemic": 4013,
      "epidemic": 4014,
      "german": 4015,
      "hat": 4016,
      "liter": 4017,
      "rap": 4018,
      "##dling": 4019,
      "##men": 4020,
      "##coming": 4021,
      "thom": 4022,
      "touch": 4023,
      "stance": 4024,
      "beg": 4025,
      "clar": 4026,
      "##pper": 4027,
      "##ieb": 4028,
      "##iece": 4029,
      "alar": 4030,
      "ark": 4031,
      "##iance": 4032,
      "brother": 4033,
      "expert": 4034,
      "flip": 4035,
      "amaz": 4036,
      "assist": 4037,
      "##ression": 4038,
      "telling": 4039,
      "##ucker": 4040,
      "fails": 4041,
      "##owski": 4042,
      "sanct": 4043,
      "detention": 4044,
      "positive": 4045,
      "refugee": 4046,
      "veteran": 4047,
      "argument": 4048,
      "baltim": 4049,
      "unconstitutional": 4050,
      "nixon": 4051,
      "treasury": 4052,
      "ebola": 4053,
      "baltimore": 4054,
      "cas": 4055,
      "cash": 4056,
      "eight": 4057,
      "nun": 4058,
      "perry": 4059,
      "rall": 4060,
      "yem": 4061,
      "##lad": 4062,
      "##fare": 4063,
      "##sa": 4064,
      "##ediate": 4065,
      "traged": 4066,
      "##ession": 4067,
      "##ester": 4068,
      "##ander": 4069,
      "examp": 4070,
      "craz": 4071,
      "##asted": 4072,
      "joke": 4073,
      "hum": 4074,
      "newsp": 4075,
      "carly": 4076,
      "immediate": 4077,
      "russians": 4078,
      "aclu": 4079,
      "ruled": 4080,
      "legislative": 4081,
      "profit": 4082,
      "foundation": 4083,
      "devast": 4084,
      "credit": 4085,
      "celebrat": 4086,
      "ult": 4087,
      "patriot": 4088,
      "yemen": 4089,
      "aver": 4090,
      "bab": 4091,
      "bure": 4092,
      "gard": 4093,
      "vlad": 4094,
      "##ove": 4095,
      "##arant": 4096,
      "##ishing": 4097,
      "ange": 4098,
      "anger": 4099,
      "trail": 4100,
      "stra": 4101,
      "##owed": 4102,
      "##uted": 4103,
      "chen": 4104,
      "##ials": 4105,
      "##astr": 4106,
      "monu": 4107,
      "qualif": 4108,
      "changing": 4109,
      "compet": 4110,
      "career": 4111,
      "sched": 4112,
      "confront": 4113,
      "highest": 4114,
      "oppose": 4115,
      "starting": 4116,
      "served": 4117,
      "tests": 4118,
      "greater": 4119,
      "##nessee": 4120,
      "meaning": 4121,
      "choose": 4122,
      "honest": 4123,
      "positions": 4124,
      "2008": 4125,
      "##ipping": 4126,
      "tennessee": 4127,
      "judicial": 4128,
      "quickly": 4129,
      "split": 4130,
      "withdraw": 4131,
      "cat": 4132,
      "gerry": 4133,
      "holl": 4134,
      "om": 4135,
      "pict": 4136,
      "rod": 4137,
      "typ": 4138,
      "wire": 4139,
      "witness": 4140,
      "##ium": 4141,
      "##aust": 4142,
      "##nbc": 4143,
      "##inder": 4144,
      "inm": 4145,
      "anton": 4146,
      "##imir": 4147,
      "##ceed": 4148,
      "##aker": 4149,
      "season": 4150,
      "sues": 4151,
      "##ieve": 4152,
      "prove": 4153,
      "ens": 4154,
      "offered": 4155,
      "tea": 4156,
      "grass": 4157,
      "brothers": 4158,
      "appl": 4159,
      "strikes": 4160,
      "ended": 4161,
      "indic": 4162,
      "raises": 4163,
      "##ashed": 4164,
      "smart": 4165,
      "subs": 4166,
      "model": 4167,
      "##going": 4168,
      "begins": 4169,
      "predict": 4170,
      "replacement": 4171,
      "weapon": 4172,
      "revealed": 4173,
      "arabia": 4174,
      "wealthy": 4175,
      "fundraising": 4176,
      "chaos": 4177,
      "angry": 4178,
      "merrick": 4179,
      "thomas": 4180,
      "vladimir": 4181,
      "cheney": 4182,
      "bit": 4183,
      "fol": 4184,
      "os": 4185,
      "ug": 4186,
      "vp": 4187,
      "wil": 4188,
      "##ries": 4189,
      "##gers": 4190,
      "##arre": 4191,
      "rex": 4192,
      "##otus": 4193,
      "champ": 4194,
      "##orts": 4195,
      "unless": 4196,
      "exch": 4197,
      "agents": 4198,
      "alt": 4199,
      "##eless": 4200,
      "mostly": 4201,
      "bigger": 4202,
      "betsy": 4203,
      "attacking": 4204,
      "write": 4205,
      "phys": 4206,
      "races": 4207,
      "threatened": 4208,
      "farm": 4209,
      "sometimes": 4210,
      "difference": 4211,
      "easier": 4212,
      "##risy": 4213,
      "louisiana": 4214,
      "condemn": 4215,
      "eyes": 4216,
      "crackdown": 4217,
      "analy": 4218,
      "celebrate": 4219,
      "##ength": 4220,
      "hypocrisy": 4221,
      "neutr": 4222,
      "absolutely": 4223,
      "language": 4224,
      "arkansas": 4225,
      "60": 4226,
      "award": 4227,
      "dies": 4228,
      "kick": 4229,
      "lock": 4230,
      "mention": 4231,
      "nazi": 4232,
      "pund": 4233,
      "wide": 4234,
      "##tion": 4235,
      "##oy": 4236,
      "##wor": 4237,
      "##itarian": 4238,
      "##lection": 4239,
      "obv": 4240,
      "alaska": 4241,
      "arpa": 4242,
      "dram": 4243,
      "showing": 4244,
      "##nedy": 4245,
      "minister": 4246,
      "standard": 4247,
      "pushed": 4248,
      "urged": 4249,
      "authority": 4250,
      "controversy": 4251,
      "doctor": 4252,
      "totally": 4253,
      "girl": 4254,
      "kennedy": 4255,
      "overtur": 4256,
      "stopped": 4257,
      "liberty": 4258,
      "tragedy": 4259,
      "gerrym": 4260,
      "neutrality": 4261,
      "arpaio": 4262,
      "card": 4263,
      "ell": 4264,
      "gut": 4265,
      "hom": 4266,
      "##iar": 4267,
      "##iary": 4268,
      "##rant": 4269,
      "##oo": 4270,
      "##anch": 4271,
      "##itud": 4272,
      "instit": 4273,
      "training": 4274,
      "##oting": 4275,
      "stup": 4276,
      "##usal": 4277,
      "chines": 4278,
      "present": 4279,
      "newt": 4280,
      "joins": 4281,
      "resc": 4282,
      "##ague": 4283,
      "brit": 4284,
      "legit": 4285,
      "deputy": 4286,
      "emot": 4287,
      "attacked": 4288,
      "harris": 4289,
      "issued": 4290,
      "annual": 4291,
      "transpar": 4292,
      "abortions": 4293,
      "drugs": 4294,
      "citizen": 4295,
      "ess": 4296,
      "ignore": 4297,
      "journalist": 4298,
      "kevin": 4299,
      "tradition": 4300,
      "francisco": 4301,
      "##ropriate": 4302,
      "literally": 4303,
      "straight": 4304,
      "chinese": 4305,
      "bol": 4306,
      "breat": 4307,
      "na": 4308,
      "nfl": 4309,
      "od": 4310,
      "rare": 4311,
      "##tain": 4312,
      "##well": 4313,
      "##col": 4314,
      "##inking": 4315,
      "##itz": 4316,
      "##itional": 4317,
      "##enty": 4318,
      "prieb": 4319,
      "##acter": 4320,
      "##oses": 4321,
      "orland": 4322,
      "##ously": 4323,
      "courts": 4324,
      "expl": 4325,
      "leads": 4326,
      "actual": 4327,
      "comprom": 4328,
      "raising": 4329,
      "breaking": 4330,
      "denied": 4331,
      "lessons": 4332,
      "moments": 4333,
      "reduce": 4334,
      "solid": 4335,
      "loses": 4336,
      "confirmed": 4337,
      "birther": 4338,
      "##whel": 4339,
      "##atorial": 4340,
      "sales": 4341,
      "heroin": 4342,
      "total": 4343,
      "figure": 4344,
      "floor": 4345,
      "summit": 4346,
      "daniels": 4347,
      "sanctuary": 4348,
      "priebus": 4349,
      "orlando": 4350,
      "22": 4351,
      "ach": 4352,
      "cold": 4353,
      "du": 4354,
      "lay": 4355,
      "nine": 4356,
      "##wood": 4357,
      "##ater": 4358,
      "##oring": 4359,
      "tour": 4360,
      "donations": 4361,
      "sud": 4362,
      "aggress": 4363,
      "alone": 4364,
      "upon": 4365,
      "disag": 4366,
      "politically": 4367,
      "defending": 4368,
      "planet": 4369,
      "survey": 4370,
      "belief": 4371,
      "fundam": 4372,
      "prime": 4373,
      "collect": 4374,
      "proper": 4375,
      "speaks": 4376,
      "legislature": 4377,
      "desperate": 4378,
      "classified": 4379,
      "cyc": 4380,
      "favorite": 4381,
      "engage": 4382,
      "status": 4383,
      "mistake": 4384,
      "september": 4385,
      "ticket": 4386,
      "##lusive": 4387,
      "gerrymand": 4388,
      "stupid": 4389,
      "mig": 4390,
      "mach": 4391,
      "piv": 4392,
      "prem": 4393,
      "rat": 4394,
      "zika": 4395,
      "##poen": 4396,
      "##lines": 4397,
      "##iated": 4398,
      "##een": 4399,
      "##cy": 4400,
      "##inary": 4401,
      "##instein": 4402,
      "##esh": 4403,
      "traff": 4404,
      "##idge": 4405,
      "##rees": 4406,
      "pros": 4407,
      "stone": 4408,
      "stock": 4409,
      "stuff": 4410,
      "##owled": 4411,
      "##illy": 4412,
      "##ulation": 4413,
      "suc": 4414,
      "##antage": 4415,
      "allowing": 4416,
      "##raid": 4417,
      "arms": 4418,
      "statements": 4419,
      "disab": 4420,
      "politician": 4421,
      "backl": 4422,
      "candidacy": 4423,
      "conflic": 4424,
      "winner": 4425,
      "perm": 4426,
      "ackn": 4427,
      "owners": 4428,
      "swing": 4429,
      "challenger": 4430,
      "subject": 4431,
      "subpoen": 4432,
      "israeli": 4433,
      "targets": 4434,
      "surprising": 4435,
      "measures": 4436,
      "endorsed": 4437,
      "article": 4438,
      "option": 4439,
      "felt": 4440,
      "eye": 4441,
      "undermine": 4442,
      "multip": 4443,
      "folks": 4444,
      "conflicts": 4445,
      "acknowled": 4446,
      "23": 4447,
      "ber": 4448,
      "fif": 4449,
      "kaine": 4450,
      "lic": 4451,
      "lines": 4452,
      "rape": 4453,
      "sam": 4454,
      "react": 4455,
      "whist": 4456,
      "shar": 4457,
      "##pping": 4458,
      "une": 4459,
      "plot": 4460,
      "places": 4461,
      "afraid": 4462,
      "background": 4463,
      "defin": 4464,
      "carter": 4465,
      "anymore": 4466,
      "myth": 4467,
      "fewer": 4468,
      "missing": 4469,
      "played": 4470,
      "apart": 4471,
      "greg": 4472,
      "memorial": 4473,
      "terms": 4474,
      "earth": 4475,
      "blocked": 4476,
      "fully": 4477,
      "breaks": 4478,
      "focused": 4479,
      "plea": 4480,
      "caucuses": 4481,
      "beginning": 4482,
      "basic": 4483,
      "stormy": 4484,
      "khan": 4485,
      "improve": 4486,
      "fellow": 4487,
      "rigged": 4488,
      "vulner": 4489,
      "sudden": 4490,
      "gins": 4491,
      "zin": 4492,
      "##roll": 4493,
      "##disp": 4494,
      "##oon": 4495,
      "##inger": 4496,
      "##ital": 4497,
      "##asc": 4498,
      "reince": 4499,
      "truly": 4500,
      "##etts": 4501,
      "##ilt": 4502,
      "unity": 4503,
      "lee": 4504,
      "overwhel": 4505,
      "warn": 4506,
      "drops": 4507,
      "corresp": 4508,
      "elimin": 4509,
      "transition": 4510,
      "series": 4511,
      "homeless": 4512,
      "ordered": 4513,
      "stephen": 4514,
      "southern": 4515,
      "tomdisp": 4516,
      "susan": 4517,
      "considered": 4518,
      "feeling": 4519,
      "answers": 4520,
      "scientists": 4521,
      "sacr": 4522,
      "rallies": 4523,
      "crazy": 4524,
      "ginsburg": 4525,
      "zinke": 4526,
      "correspond": 4527,
      "tomdispatch": 4528,
      "bed": 4529,
      "dick": 4530,
      "dying": 4531,
      "gary": 4532,
      "kid": 4533,
      "lyn": 4534,
      "rural": 4535,
      "rival": 4536,
      "tack": 4537,
      "##atures": 4538,
      "##ored": 4539,
      "heat": 4540,
      "shr": 4541,
      "closed": 4542,
      "diss": 4543,
      "loves": 4544,
      "broke": 4545,
      "scotus": 4546,
      "strength": 4547,
      "banks": 4548,
      "pregn": 4549,
      "deserve": 4550,
      "publicly": 4551,
      "correct": 4552,
      "regist": 4553,
      "standards": 4554,
      "disturb": 4555,
      "misle": 4556,
      "steps": 4557,
      "representatives": 4558,
      "situation": 4559,
      "mandate": 4560,
      "dropped": 4561,
      "alternative": 4562,
      "montana": 4563,
      "encoura": 4564,
      "msnbc": 4565,
      "cooper": 4566,
      "newspaper": 4567,
      "whistle": 4568,
      "biz": 4569,
      "boss": 4570,
      "fan": 4571,
      "lying": 4572,
      "##ding": 4573,
      "##yers": 4574,
      "##arthy": 4575,
      "##outs": 4576,
      "##sters": 4577,
      "##acing": 4578,
      "##illion": 4579,
      "##iles": 4580,
      "weird": 4581,
      "##aks": 4582,
      "club": 4583,
      "fred": 4584,
      "area": 4585,
      "twice": 4586,
      "campus": 4587,
      "quit": 4588,
      "soft": 4589,
      "decade": 4590,
      "healthcare": 4591,
      "##encing": 4592,
      "##issipp": 4593,
      "runner": 4594,
      "##veland": 4595,
      "bump": 4596,
      "turkey": 4597,
      "latin": 4598,
      "minute": 4599,
      "opposed": 4600,
      "mccarthy": 4601,
      "196": 4602,
      "mississipp": 4603,
      "failing": 4604,
      "extra": 4605,
      "estate": 4606,
      "receive": 4607,
      "cleveland": 4608,
      "damage": 4609,
      "struggle": 4610,
      "oversight": 4611,
      "european": 4612,
      "tempor": 4613,
      "communications": 4614,
      "example": 4615,
      "multiple": 4616,
      "27": 4617,
      "bott": 4618,
      "gub": 4619,
      "gift": 4620,
      "mail": 4621,
      "none": 4622,
      "ros": 4623,
      "rush": 4624,
      "tit": 4625,
      "##pan": 4626,
      "##ax": 4627,
      "##ban": 4628,
      "trick": 4629,
      "deals": 4630,
      "stamp": 4631,
      "##olic": 4632,
      "##usetts": 4633,
      "goal": 4634,
      "proof": 4635,
      "spin": 4636,
      "lago": 4637,
      "adam": 4638,
      "libert": 4639,
      "grad": 4640,
      "##ernatorial": 4641,
      "consum": 4642,
      "##enses": 4643,
      "driving": 4644,
      "##achusetts": 4645,
      "contemp": 4646,
      "published": 4647,
      "character": 4648,
      "deserv": 4649,
      "minutes": 4650,
      "attorneys": 4651,
      "massachusetts": 4652,
      "heads": 4653,
      "urge": 4654,
      "proposals": 4655,
      "kept": 4656,
      "lobbyist": 4657,
      "jimmy": 4658,
      "voices": 4659,
      "ridicul": 4660,
      "largely": 4661,
      "palestinian": 4662,
      "necessary": 4663,
      "neighbor": 4664,
      "ultimate": 4665,
      "bureau": 4666,
      "vulnerable": 4667,
      "mississippi": 4668,
      "gubernatorial": 4669,
      "aust": 4670,
      "corn": 4671,
      "kar": 4672,
      "naz": 4673,
      "wound": 4674,
      "##zz": 4675,
      "##na": 4676,
      "##yr": 4677,
      "##kward": 4678,
      "##xon": 4679,
      "##aled": 4680,
      "stun": 4681,
      "##ched": 4682,
      "frust": 4683,
      "cruc": 4684,
      "caught": 4685,
      "##oked": 4686,
      "drilling": 4687,
      "defic": 4688,
      "##issions": 4689,
      "insists": 4690,
      "millenn": 4691,
      "committed": 4692,
      "directly": 4693,
      "previous": 4694,
      "clearly": 4695,
      "##uctive": 4696,
      "staffer": 4697,
      "staffers": 4698,
      "airport": 4699,
      "resignation": 4700,
      "equal": 4701,
      "silent": 4702,
      "limits": 4703,
      "hoping": 4704,
      "praise": 4705,
      "development": 4706,
      "occup": 4707,
      "completely": 4708,
      "escal": 4709,
      "retirement": 4710,
      "accomplish": 4711,
      "bizarre": 4712,
      "catch": 4713,
      "duck": 4714,
      "hide": 4715,
      "hunt": 4716,
      "kam": 4717,
      "map": 4718,
      "sant": 4719,
      "site": 4720,
      "sitting": 4721,
      "tear": 4722,
      "tied": 4723,
      "##uits": 4724,
      "##erc": 4725,
      "suic": 4726,
      "coast": 4727,
      "capt": 4728,
      "warming": 4729,
      "##oking": 4730,
      "2013": 4731,
      "advantage": 4732,
      "funded": 4733,
      "phar": 4734,
      "convicted": 4735,
      "##ruary": 4736,
      "sweep": 4737,
      "declared": 4738,
      "targeting": 4739,
      "##while": 4740,
      "pacific": 4741,
      "peter": 4742,
      "awkward": 4743,
      "removed": 4744,
      "struggling": 4745,
      "unfair": 4746,
      "independence": 4747,
      "generation": 4748,
      "sounds": 4749,
      "brag": 4750,
      "skept": 4751,
      "february": 4752,
      "bail": 4753,
      "ded": 4754,
      "dhs": 4755,
      "wave": 4756,
      "##pet": 4757,
      "##uf": 4758,
      "##uals": 4759,
      "##xit": 4760,
      "##atter": 4761,
      "##asion": 4762,
      "trumpcare": 4763,
      "##ston": 4764,
      "##ivals": 4765,
      "##ode": 4766,
      "offensive": 4767,
      "dise": 4768,
      "brain": 4769,
      "##ension": 4770,
      "decisions": 4771,
      "rober": 4772,
      "reminder": 4773,
      "perfor": 4774,
      "insult": 4775,
      "nationalist": 4776,
      "highly": 4777,
      "discl": 4778,
      "disclos": 4779,
      "minnes": 4780,
      "barr": 4781,
      "198": 4782,
      "throw": 4783,
      "denying": 4784,
      "serving": 4785,
      "smith": 4786,
      "legalization": 4787,
      "releases": 4788,
      "##onna": 4789,
      "filib": 4790,
      "thoughts": 4791,
      "bringing": 4792,
      "rejects": 4793,
      "hacking": 4794,
      "radio": 4795,
      "praises": 4796,
      "leaked": 4797,
      "doctors": 4798,
      "prepared": 4799,
      "embrace": 4800,
      "spokesman": 4801,
      "survivors": 4802,
      "telev": 4803,
      "picture": 4804,
      "roberts": 4805,
      "minnesota": 4806,
      "bans": 4807,
      "dir": 4808,
      "foss": 4809,
      "jer": 4810,
      "kir": 4811,
      "meth": 4812,
      "nbc": 4813,
      "rates": 4814,
      "ruth": 4815,
      "vision": 4816,
      "##lant": 4817,
      "##ique": 4818,
      "##time": 4819,
      "##aver": 4820,
      "##gment": 4821,
      "##do": 4822,
      "##wr": 4823,
      "##icts": 4824,
      "whate": 4825,
      "##ols": 4826,
      "cong": 4827,
      "##ocaust": 4828,
      "weed": 4829,
      "unw": 4830,
      "exxon": 4831,
      "agreed": 4832,
      "commer": 4833,
      "jokes": 4834,
      "loy": 4835,
      "marks": 4836,
      "scre": 4837,
      "defund": 4838,
      "compared": 4839,
      "##erred": 4840,
      "##umn": 4841,
      "symb": 4842,
      "officially": 4843,
      "##anced": 4844,
      "buying": 4845,
      "investigations": 4846,
      "collins": 4847,
      "ramp": 4848,
      "watching": 4849,
      "legislators": 4850,
      "announce": 4851,
      "veto": 4852,
      "included": 4853,
      "declares": 4854,
      "lincol": 4855,
      "religion": 4856,
      "currently": 4857,
      "holocaust": 4858,
      "palin": 4859,
      "##place": 4860,
      "launches": 4861,
      "supremacist": 4862,
      "unpre": 4863,
      "judiciary": 4864,
      "girls": 4865,
      "described": 4866,
      "slammed": 4867,
      "version": 4868,
      "dozens": 4869,
      "backlash": 4870,
      "lynch": 4871,
      "performan": 4872,
      "fossil": 4873,
      "whatever": 4874,
      "lincoln": 4875,
      "26": 4876,
      "500": 4877,
      "bost": 4878,
      "jason": 4879,
      "mix": 4880,
      "row": 4881,
      "tight": 4882,
      "yell": 4883,
      "##ih": 4884,
      "##aut": 4885,
      "##hib": 4886,
      "##ingly": 4887,
      "##stone": 4888,
      "##ills": 4889,
      "hey": 4890,
      "sees": 4891,
      "courage": 4892,
      "spir": 4893,
      "agent": 4894,
      "meant": 4895,
      "likes": 4896,
      "joined": 4897,
      "brand": 4898,
      "evange": 4899,
      "governors": 4900,
      "##avan": 4901,
      "box": 4902,
      "meddling": 4903,
      "perman": 4904,
      "added": 4905,
      "retired": 4906,
      "deny": 4907,
      "swamp": 4908,
      "reforms": 4909,
      "privile": 4910,
      "resigns": 4911,
      "prisoners": 4912,
      "lobb": 4913,
      "holder": 4914,
      "mcd": 4915,
      "responsible": 4916,
      "trolls": 4917,
      "practice": 4918,
      "update": 4919,
      "sources": 4920,
      "demonstrat": 4921,
      "argue": 4922,
      "mobil": 4923,
      "disgrace": 4924,
      "nunes": 4925,
      "wiret": 4926,
      "subsid": 4927,
      "ugly": 4928,
      "registration": 4929,
      "boston": 4930,
      "ath": 4931,
      "dump": 4932,
      "mas": 4933,
      "mate": 4934,
      "porn": 4935,
      "paper": 4936,
      "##per": 4937,
      "##iod": 4938,
      "##te": 4939,
      "##ray": 4940,
      "##rist": 4941,
      "##rich": 4942,
      "##af": 4943,
      "##ucc": 4944,
      "##ypt": 4945,
      "stake": 4946,
      "##amo": 4947,
      "repr": 4948,
      "donor": 4949,
      "##though": 4950,
      "unve": 4951,
      "hispan": 4952,
      "saved": 4953,
      "entr": 4954,
      "ally": 4955,
      "although": 4956,
      "overd": 4957,
      "##ounder": 4958,
      "##tro": 4959,
      "resour": 4960,
      "blank": 4961,
      "incumb": 4962,
      "##road": 4963,
      "threatening": 4964,
      "meanwhile": 4965,
      "constitu": 4966,
      "filed": 4967,
      "checks": 4968,
      "limit": 4969,
      "remove": 4970,
      "accountable": 4971,
      "couple": 4972,
      "malley": 4973,
      "innoc": 4974,
      "particularly": 4975,
      "imagine": 4976,
      "repeatedly": 4977,
      "succeed": 4978,
      "kamala": 4979,
      "aims": 4980,
      "bare": 4981,
      "fool": 4982,
      "lond": 4983,
      "ped": 4984,
      "piece": 4985,
      "ton": 4986,
      "tired": 4987,
      "##pts": 4988,
      "##iant": 4989,
      "##wise": 4990,
      "##anamo": 4991,
      "##icious": 4992,
      "trillion": 4993,
      "rein": 4994,
      "promin": 4995,
      "stall": 4996,
      "shocking": 4997,
      "aband": 4998,
      "suing": 4999,
      "##osing": 5000,
      "##antanamo": 5001,
      "ali": 5002,
      "grab": 5003,
      "complex": 5004,
      "moved": 5005,
      "imper": 5006,
      "bigot": 5007,
      "amount": 5008,
      "remark": 5009,
      "period": 5010,
      "everybody": 5011,
      "guantanamo": 5012,
      "headline": 5013,
      "welfare": 5014,
      "opening": 5015,
      "privacy": 5016,
      "##ological": 5017,
      "requires": 5018,
      "##loyment": 5019,
      "haley": 5020,
      "starts": 5021,
      "effective": 5022,
      "turnout": 5023,
      "islamophob": 5024,
      "##crip": 5025,
      "selling": 5026,
      "parkland": 5027,
      "individual": 5028,
      "gardner": 5029,
      "london": 5030,
      "fate": 5031,
      "fier": 5032,
      "fought": 5033,
      "gap": 5034,
      "gonna": 5035,
      "hers": 5036,
      "kob": 5037,
      "psy": 5038,
      "sought": 5039,
      "tam": 5040,
      "wy": 5041,
      "##lusion": 5042,
      "##rying": 5043,
      "##cast": 5044,
      "##ero": 5045,
      "##ara": 5046,
      "tower": 5047,
      "##isons": 5048,
      "##acle": 5049,
      "##aching": 5050,
      "##amucc": 5051,
      "##sea": 5052,
      "##urd": 5053,
      "##urate": 5054,
      "##vert": 5055,
      "##essed": 5056,
      "##eston": 5057,
      "##ches": 5058,
      "asyl": 5059,
      "cler": 5060,
      "atlant": 5061,
      "unn": 5062,
      "spons": 5063,
      "sports": 5064,
      "manuf": 5065,
      "consumer": 5066,
      "acting": 5067,
      "roger": 5068,
      "##athy": 5069,
      "banning": 5070,
      "supremacy": 5071,
      "worker": 5072,
      "contrad": 5073,
      "pref": 5074,
      "prec": 5075,
      "charles": 5076,
      "seeing": 5077,
      "barb": 5078,
      "meets": 5079,
      "cutting": 5080,
      "mission": 5081,
      "err": 5082,
      "nightm": 5083,
      "birthday": 5084,
      "value": 5085,
      "attempts": 5086,
      "##umpt": 5087,
      "responds": 5088,
      "existing": 5089,
      "lewis": 5090,
      "pledge": 5091,
      "accusations": 5092,
      "recognize": 5093,
      "corey": 5094,
      "purp": 5095,
      "scaramucc": 5096,
      "compromise": 5097,
      "cycle": 5098,
      "pivot": 5099,
      "nazis": 5100,
      "crucial": 5101,
      "performance": 5102,
      "asylum": 5103,
      "manufact": 5104,
      "bay": 5105,
      "cert": 5106,
      "fcc": 5107,
      "ii": 5108,
      "mount": 5109,
      "tap": 5110,
      "##list": 5111,
      "##ss": 5112,
      "##nd": 5113,
      "##uction": 5114,
      "##wart": 5115,
      "##isive": 5116,
      "##rection": 5117,
      "##semb": 5118,
      "##adel": 5119,
      "neo": 5120,
      "sect": 5121,
      "select": 5122,
      "##aint": 5123,
      "laur": 5124,
      "comed": 5125,
      "upcoming": 5126,
      "orange": 5127,
      "canada": 5128,
      "overh": 5129,
      "loan": 5130,
      "fires": 5131,
      "##ecess": 5132,
      "drive": 5133,
      "chances": 5134,
      "refusing": 5135,
      "poison": 5136,
      "indict": 5137,
      "myster": 5138,
      "##ume": 5139,
      "otherwise": 5140,
      "guarant": 5141,
      "passing": 5142,
      "lawsuits": 5143,
      "greatest": 5144,
      "lesson": 5145,
      "deadline": 5146,
      "advisers": 5147,
      "larry": 5148,
      "divide": 5149,
      "moderate": 5150,
      "towards": 5151,
      "minorities": 5152,
      "keith": 5153,
      "uncertain": 5154,
      "sending": 5155,
      "soldiers": 5156,
      "scrut": 5157,
      "negotiations": 5158,
      "nyc": 5159,
      "jackson": 5160,
      "taxpayer": 5161,
      "taxpayers": 5162,
      "volunt": 5163,
      "inspired": 5164,
      "initiative": 5165,
      "holly": 5166,
      "ratings": 5167,
      "scaramucci": 5168,
      "census": 5169,
      "dia": 5170,
      "fle": 5171,
      "kat": 5172,
      "nik": 5173,
      "narr": 5174,
      "nsa": 5175,
      "pow": 5176,
      "var": 5177,
      "wer": 5178,
      "##lig": 5179,
      "##gul": 5180,
      "##inting": 5181,
      "##arity": 5182,
      "anch": 5183,
      "train": 5184,
      "neither": 5185,
      "chel": 5186,
      "chap": 5187,
      "##andowski": 5188,
      "assemb": 5189,
      "unemp": 5190,
      "noted": 5191,
      "spar": 5192,
      "label": 5193,
      "lied": 5194,
      "resol": 5195,
      "dish": 5196,
      "secure": 5197,
      "manage": 5198,
      "##manuel": 5199,
      "recomm": 5200,
      "##itten": 5201,
      "##acted": 5202,
      "incar": 5203,
      "confident": 5204,
      "letting": 5205,
      "owner": 5206,
      "payments": 5207,
      "addiction": 5208,
      "continued": 5209,
      "finding": 5210,
      "restore": 5211,
      "column": 5212,
      "bader": 5213,
      "iranian": 5214,
      "pushes": 5215,
      "##cedented": 5216,
      "holds": 5217,
      "approved": 5218,
      "sentence": 5219,
      "charleston": 5220,
      "advocate": 5221,
      "bombing": 5222,
      "rejected": 5223,
      "responded": 5224,
      "minds": 5225,
      "illegally": 5226,
      "ignored": 5227,
      "complaint": 5228,
      "lewandowski": 5229,
      "##ricts": 5230,
      "individuals": 5231,
      "preparing": 5232,
      "surveill": 5233,
      "sleep": 5234,
      "immediately": 5235,
      "exchange": 5236,
      "disagree": 5237,
      "sharp": 5238,
      "misleading": 5239,
      "filibuster": 5240,
      "unprecedented": 5241,
      "psych": 5242,
      "chelsea": 5243,
      "cory": 5244,
      "fasc": 5245,
      "gain": 5246,
      "sort": 5247,
      "##eer": 5248,
      "##xic": 5249,
      "prices": 5250,
      "ongoing": 5251,
      "##aded": 5252,
      "sued": 5253,
      "newly": 5254,
      "note": 5255,
      "##osh": 5256,
      "resort": 5257,
      "gray": 5258,
      "brings": 5259,
      "billions": 5260,
      "nationwide": 5261,
      "recip": 5262,
      "supported": 5263,
      "implement": 5264,
      "admit": 5265,
      "##aires": 5266,
      "surr": 5267,
      "speed": 5268,
      "happening": 5269,
      "feud": 5270,
      "brexit": 5271,
      "christians": 5272,
      "missed": 5273,
      "patients": 5274,
      "claiming": 5275,
      "authorities": 5276,
      "drag": 5277,
      "arguments": 5278,
      "options": 5279,
      "coalition": 5280,
      "friendly": 5281,
      "complicated": 5282,
      "unlikely": 5283,
      "editorial": 5284,
      "hollywood": 5285,
      "weren": 5286,
      "incarcer": 5287,
      "surveillance": 5288,
      "31": 5289,
      "300": 5290,
      "cd": 5291,
      "cell": 5292,
      "dumb": 5293,
      "duty": 5294,
      "fet": 5295,
      "fans": 5296,
      "fights": 5297,
      "founder": 5298,
      "ging": 5299,
      "gains": 5300,
      "pitch": 5301,
      "rout": 5302,
      "tpp": 5303,
      "van": 5304,
      "vast": 5305,
      "##ps": 5306,
      "##to": 5307,
      "##nam": 5308,
      "##da": 5309,
      "##bre": 5310,
      "##icut": 5311,
      "ree": 5312,
      "##rets": 5313,
      "shared": 5314,
      "presumpt": 5315,
      "##uled": 5316,
      "##rative": 5317,
      "plant": 5318,
      "##oductive": 5319,
      "##anship": 5320,
      "expans": 5321,
      "boo": 5322,
      "incident": 5323,
      "symp": 5324,
      "talked": 5325,
      "violate": 5326,
      "##iffs": 5327,
      "dealing": 5328,
      "aca": 5329,
      "transport": 5330,
      "sets": 5331,
      "testing": 5332,
      "seemed": 5333,
      "protected": 5334,
      "##hoods": 5335,
      "##phia": 5336,
      "charlie": 5337,
      "ballots": 5338,
      "##ification": 5339,
      "regulation": 5340,
      "double": 5341,
      "argued": 5342,
      "##etta": 5343,
      "magaz": 5344,
      "boyc": 5345,
      "philadel": 5346,
      "source": 5347,
      "reverse": 5348,
      "connecticut": 5349,
      "growth": 5350,
      "overwhelming": 5351,
      "whistlebl": 5352,
      "latinos": 5353,
      "ridiculous": 5354,
      "disease": 5355,
      "gingrich": 5356,
      "philadelphia": 5357,
      "dict": 5358,
      "lam": 5359,
      "ment": 5360,
      "mir": 5361,
      "mocked": 5362,
      "powers": 5363,
      "rice": 5364,
      "rating": 5365,
      "##egr": 5366,
      "##how": 5367,
      "##inform": 5368,
      "##anger": 5369,
      "inapp": 5370,
      "reaction": 5371,
      "##str": 5372,
      "french": 5373,
      "##ulf": 5374,
      "##acking": 5375,
      "##usting": 5376,
      "space": 5377,
      "enth": 5378,
      "arm": 5379,
      "loans": 5380,
      "intim": 5381,
      "integr": 5382,
      "recount": 5383,
      "writing": 5384,
      "cruel": 5385,
      "harv": 5386,
      "denial": 5387,
      "missile": 5388,
      "promote": 5389,
      "virt": 5390,
      "execution": 5391,
      "colleges": 5392,
      "treated": 5393,
      "appearance": 5394,
      "##board": 5395,
      "session": 5396,
      "videos": 5397,
      "successful": 5398,
      "reached": 5399,
      "lobbyists": 5400,
      "launched": 5401,
      "apology": 5402,
      "football": 5403,
      "highlights": 5404,
      "enemy": 5405,
      "commitment": 5406,
      "recovery": 5407,
      "champion": 5408,
      "achieve": 5409,
      "fundamental": 5410,
      "suddenly": 5411,
      "disclose": 5412,
      "television": 5413,
      "hispanic": 5414,
      "incumbent": 5415,
      "constituents": 5416,
      "abandon": 5417,
      "kobach": 5418,
      "nikki": 5419,
      "anchor": 5420,
      "cdc": 5421,
      "presumptive": 5422,
      "cath": 5423,
      "file": 5424,
      "gotten": 5425,
      "mask": 5426,
      "##light": 5427,
      "##dy": 5428,
      "##kin": 5429,
      "##orate": 5430,
      "##arter": 5431,
      "##armed": 5432,
      "shad": 5433,
      "above": 5434,
      "abroad": 5435,
      "obstruction": 5436,
      "enroll": 5437,
      "disg": 5438,
      "exposed": 5439,
      "2010": 5440,
      "acts": 5441,
      "defended": 5442,
      "struck": 5443,
      "incred": 5444,
      "admitted": 5445,
      "emissions": 5446,
      "opens": 5447,
      "built": 5448,
      "##attle": 5449,
      "challenging": 5450,
      "players": 5451,
      "includes": 5452,
      "files": 5453,
      "##fortun": 5454,
      "limited": 5455,
      "struggles": 5456,
      "creating": 5457,
      "skin": 5458,
      "levels": 5459,
      "understanding": 5460,
      "delegate": 5461,
      "connection": 5462,
      "delivered": 5463,
      "figures": 5464,
      "opinions": 5465,
      "professor": 5466,
      "updates": 5467,
      "upset": 5468,
      "tactics": 5469,
      "antonin": 5470,
      "ensure": 5471,
      "dramatic": 5472,
      "emotional": 5473,
      "gerrymandering": 5474,
      "machine": 5475,
      "privilege": 5476,
      "innocent": 5477,
      "prominent": 5478,
      "overhaul": 5479,
      "enthus": 5480,
      "45": 5481,
      "ba": 5482,
      "ditch": 5483,
      "fant": 5484,
      "jong": 5485,
      "jap": 5486,
      "kiss": 5487,
      "lor": 5488,
      "rant": 5489,
      "rivals": 5490,
      "size": 5491,
      "table": 5492,
      "wis": 5493,
      "wik": 5494,
      "zero": 5495,
      "##kk": 5496,
      "prisons": 5497,
      "whom": 5498,
      "shake": 5499,
      "shares": 5500,
      "wearing": 5501,
      "##unk": 5502,
      "fresh": 5503,
      "unus": 5504,
      "spect": 5505,
      "##elf": 5506,
      "blocking": 5507,
      "blasio": 5508,
      "##eme": 5509,
      "flake": 5510,
      "refuse": 5511,
      "impress": 5512,
      "implic": 5513,
      "viet": 5514,
      "slaver": 5515,
      "shooter": 5516,
      "region": 5517,
      "setting": 5518,
      "continuing": 5519,
      "districts": 5520,
      "viral": 5521,
      "listening": 5522,
      "confirms": 5523,
      "populist": 5524,
      "exclusive": 5525,
      "petition": 5526,
      "basically": 5527,
      "ignoring": 5528,
      "reaches": 5529,
      "hook": 5530,
      "suffering": 5531,
      "fuels": 5532,
      "fundrais": 5533,
      "contributions": 5534,
      "settlement": 5535,
      "autom": 5536,
      "affairs": 5537,
      "originally": 5538,
      "egypt": 5539,
      "diversity": 5540,
      "brutal": 5541,
      "inmates": 5542,
      "pundits": 5543,
      "widely": 5544,
      "transparency": 5545,
      "disabilities": 5546,
      "disturbing": 5547,
      "consumers": 5548,
      "deserves": 5549,
      "suicide": 5550,
      "congrat": 5551,
      "lobbying": 5552,
      "japan": 5553,
      "70": 5554,
      "fallen": 5555,
      "lu": 5556,
      "mn": 5557,
      "rough": 5558,
      "tor": 5559,
      "tay": 5560,
      "task": 5561,
      "vowed": 5562,
      "##van": 5563,
      "##aur": 5564,
      "##gent": 5565,
      "##ograph": 5566,
      "##math": 5567,
      "##hal": 5568,
      "##orum": 5569,
      "toss": 5570,
      "toxic": 5571,
      "trag": 5572,
      "##idel": 5573,
      "revel": 5574,
      "##reh": 5575,
      "forec": 5576,
      "nebr": 5577,
      "aside": 5578,
      "unfortun": 5579,
      "youth": 5580,
      "exam": 5581,
      "exerc": 5582,
      "promp": 5583,
      "sends": 5584,
      "adults": 5585,
      "plenty": 5586,
      "##els": 5587,
      "arch": 5588,
      "aftermath": 5589,
      "##agger": 5590,
      "dispar": 5591,
      "loved": 5592,
      "governments": 5593,
      "apply": 5594,
      "backf": 5595,
      "##rett": 5596,
      "controll": 5597,
      "content": 5598,
      "pollsters": 5599,
      "protester": 5600,
      "protesting": 5601,
      "bars": 5602,
      "text": 5603,
      "specif": 5604,
      "questioning": 5605,
      "centers": 5606,
      "keystone": 5607,
      "solutions": 5608,
      "conditions": 5609,
      "handle": 5610,
      "stronger": 5611,
      "negative": 5612,
      "extremism": 5613,
      "discussion": 5614,
      "image": 5615,
      "##opping": 5616,
      "expanding": 5617,
      "prepare": 5618,
      "product": 5619,
      "argues": 5620,
      "custody": 5621,
      "bowl": 5622,
      "celebrating": 5623,
      "essential": 5624,
      "odds": 5625,
      "correspondents": 5626,
      "tonight": 5627,
      "intimid": 5628,
      "slavery": 5629,
      "dar": 5630,
      "homes": 5631,
      "kavan": 5632,
      "yester": 5633,
      "zucker": 5634,
      "##dom": 5635,
      "##mark": 5636,
      "##inated": 5637,
      "##atically": 5638,
      "##ores": 5639,
      "##itism": 5640,
      "##ashing": 5641,
      "##otes": 5642,
      "##etz": 5643,
      "##iment": 5644,
      "conce": 5645,
      "unarmed": 5646,
      "spy": 5647,
      "sab": 5648,
      "william": 5649,
      "##ables": 5650,
      "##izz": 5651,
      "uphold": 5652,
      "outcome": 5653,
      "margin": 5654,
      "manch": 5655,
      "intended": 5656,
      "ourselves": 5657,
      "2011": 5658,
      "somehow": 5659,
      "reporting": 5660,
      "accounts": 5661,
      "reck": 5662,
      "recall": 5663,
      "compass": 5664,
      "imposs": 5665,
      "indicted": 5666,
      "runs": 5667,
      "famous": 5668,
      "realize": 5669,
      "investigated": 5670,
      "edge": 5671,
      "197": 5672,
      "reven": 5673,
      "##aza": 5674,
      "stein": 5675,
      "personally": 5676,
      "headed": 5677,
      "watched": 5678,
      "repealing": 5679,
      "possibility": 5680,
      "insurrection": 5681,
      "streets": 5682,
      "strategist": 5683,
      "population": 5684,
      "##uchin": 5685,
      "effects": 5686,
      "korean": 5687,
      "avail": 5688,
      "hackers": 5689,
      "liberals": 5690,
      "heroes": 5691,
      "practices": 5692,
      "diplomatic": 5693,
      "cancel": 5694,
      "natural": 5695,
      "semitic": 5696,
      "highlight": 5697,
      "partnership": 5698,
      "germany": 5699,
      "qualified": 5700,
      "fifth": 5701,
      "resources": 5702,
      "barely": 5703,
      "scrutiny": 5704,
      "transportation": 5705,
      "mnuchin": 5706,
      "kavanaugh": 5707,
      "yesterday": 5708,
      "28": 5709,
      "29": 5710,
      "bound": 5711,
      "bund": 5712,
      "gill": 5713,
      "gear": 5714,
      "jill": 5715,
      "pod": 5716,
      "witch": 5717,
      "##pread": 5718,
      "##ze": 5719,
      "thir": 5720,
      "theories": 5721,
      "##ese": 5722,
      "##aning": 5723,
      "##asy": 5724,
      "##illed": 5725,
      "##istent": 5726,
      "##under": 5727,
      "areas": 5728,
      "code": 5729,
      "agrees": 5730,
      "##itely": 5731,
      "allows": 5732,
      "jose": 5733,
      "resolution": 5734,
      "##iful": 5735,
      "##ucing": 5736,
      "intel": 5737,
      "channel": 5738,
      "compares": 5739,
      "sandy": 5740,
      "roe": 5741,
      "##ileaks": 5742,
      "bernard": 5743,
      "perpet": 5744,
      "written": 5745,
      "info": 5746,
      "guess": 5747,
      "sexually": 5748,
      "breach": 5749,
      "columb": 5750,
      "picked": 5751,
      "detained": 5752,
      "urban": 5753,
      "profile": 5754,
      "required": 5755,
      "##ysis": 5756,
      "authorization": 5757,
      "estim": 5758,
      "arrests": 5759,
      "strongly": 5760,
      "deeper": 5761,
      "risks": 5762,
      "optim": 5763,
      "praised": 5764,
      "accountability": 5765,
      "gathering": 5766,
      "technology": 5767,
      "determine": 5768,
      "spring": 5769,
      "baby": 5770,
      "grassley": 5771,
      "prospect": 5772,
      "subpoena": 5773,
      "millennials": 5774,
      "nightmare": 5775,
      "expansion": 5776,
      "wikileaks": 5777,
      "nebraska": 5778,
      "zuckerberg": 5779,
      "400": 5780,
      "locked": 5781,
      "male": 5782,
      "nyp": 5783,
      "ow": 5784,
      "song": 5785,
      "##ties": 5786,
      "##dd": 5787,
      "##cow": 5788,
      "##outh": 5789,
      "stakes": 5790,
      "shif": 5791,
      "shock": 5792,
      "seattle": 5793,
      "abus": 5794,
      "##usted": 5795,
      "saving": 5796,
      "object": 5797,
      "butt": 5798,
      "caused": 5799,
      "outl": 5800,
      "blo": 5801,
      "blind": 5802,
      "disrupt": 5803,
      "log": 5804,
      "brian": 5805,
      "warm": 5806,
      "mogul": 5807,
      "refer": 5808,
      "##rof": 5809,
      "muse": 5810,
      "parts": 5811,
      "investment": 5812,
      "violated": 5813,
      "comeback": 5814,
      "buff": 5815,
      "threaten": 5816,
      "##wards": 5817,
      "edition": 5818,
      "tweeting": 5819,
      "raid": 5820,
      "throws": 5821,
      "direction": 5822,
      "conced": 5823,
      "restaur": 5824,
      "substant": 5825,
      "provided": 5826,
      "messages": 5827,
      "follows": 5828,
      "losers": 5829,
      "halt": 5830,
      "resigned": 5831,
      "firear": 5832,
      "experi": 5833,
      "battleground": 5834,
      "severe": 5835,
      "momentum": 5836,
      "falls": 5837,
      "potentially": 5838,
      "unclear": 5839,
      "settle": 5840,
      "hopefuls": 5841,
      "significantly": 5842,
      "moscow": 5843,
      "outrageous": 5844,
      "punishment": 5845,
      "principles": 5846,
      "enemies": 5847,
      "heavy": 5848,
      "embarrassing": 5849,
      "organizations": 5850,
      "wilson": 5851,
      "british": 5852,
      "beliefs": 5853,
      "deficit": 5854,
      "clerk": 5855,
      "assembly": 5856,
      "unemployment": 5857,
      "nypd": 5858,
      "bon": 5859,
      "bias": 5860,
      "curb": 5861,
      "date": 5862,
      "dall": 5863,
      "lit": 5864,
      "mock": 5865,
      "mocks": 5866,
      "oc": 5867,
      "rif": 5868,
      "wides": 5869,
      "##eo": 5870,
      "##nic": 5871,
      "##die": 5872,
      "##bon": 5873,
      "##bie": 5874,
      "##ington": 5875,
      "stick": 5876,
      "chem": 5877,
      "fron": 5878,
      "unac": 5879,
      "goog": 5880,
      "cry": 5881,
      "ord": 5882,
      "joint": 5883,
      "##ipe": 5884,
      "blamed": 5885,
      "expensive": 5886,
      "quarter": 5887,
      "strange": 5888,
      "healthy": 5889,
      "poised": 5890,
      "parks": 5891,
      "##ogue": 5892,
      "##ancing": 5893,
      "harsh": 5894,
      "conviction": 5895,
      "##attled": 5896,
      "criticize": 5897,
      "steven": 5898,
      "civilians": 5899,
      "reading": 5900,
      "proced": 5901,
      "addressing": 5902,
      "internal": 5903,
      "##phy": 5904,
      "proposes": 5905,
      "loud": 5906,
      "employee": 5907,
      "journalism": 5908,
      "representative": 5909,
      "credible": 5910,
      "##orrow": 5911,
      "apologizes": 5912,
      "greene": 5913,
      "injust": 5914,
      "goldman": 5915,
      "pulled": 5916,
      "unpopul": 5917,
      "analysis": 5918,
      "draws": 5919,
      "disappoint": 5920,
      "navy": 5921,
      "interference": 5922,
      "scheduled": 5923,
      "overturn": 5924,
      "##itude": 5925,
      "solidarity": 5926,
      "property": 5927,
      "sweeping": 5928,
      "mixed": 5929,
      "reproductive": 5930,
      "herself": 5931,
      "harvard": 5932,
      "congratul": 5933,
      "museum": 5934,
      "dallas": 5935,
      "widespread": 5936,
      "ble": 5937,
      "dub": 5938,
      "gab": 5939,
      "hatch": 5940,
      "jur": 5941,
      "kris": 5942,
      "lad": 5943,
      "mine": 5944,
      "pap": 5945,
      "tone": 5946,
      "ven": 5947,
      "##page": 5948,
      "##giving": 5949,
      "##bit": 5950,
      "todd": 5951,
      "truck": 5952,
      "fort": 5953,
      "deg": 5954,
      "##lyn": 5955,
      "beach": 5956,
      "##ocal": 5957,
      "##anda": 5958,
      "obst": 5959,
      "republic": 5960,
      "plag": 5961,
      "houston": 5962,
      "comfort": 5963,
      "teens": 5964,
      "reserve": 5965,
      "screw": 5966,
      "##ictions": 5967,
      "apple": 5968,
      "flaw": 5969,
      "##ounding": 5970,
      "consc": 5971,
      "recru": 5972,
      "endanger": 5973,
      "workplace": 5974,
      "nominate": 5975,
      "waterg": 5976,
      "tale": 5977,
      "corker": 5978,
      "assaul": 5979,
      "guys": 5980,
      "pays": 5981,
      "payer": 5982,
      "criticizes": 5983,
      "irs": 5984,
      "adds": 5985,
      "posts": 5986,
      "speeches": 5987,
      "arrived": 5988,
      "declar": 5989,
      "devin": 5990,
      "##aught": 5991,
      "feels": 5992,
      "##apping": 5993,
      "western": 5994,
      "murphy": 5995,
      "enforce": 5996,
      "dismant": 5997,
      "commissioner": 5998,
      "apologize": 5999,
      "felony": 6000,
      "leaks": 6001,
      "dollar": 6002,
      "delays": 6003,
      "priorities": 6004,
      "nato": 6005,
      "semitism": 6006,
      "dropping": 6007,
      "association": 6008,
      "quietly": 6009,
      "separate": 6010,
      "patrol": 6011,
      "nonpartisan": 6012,
      "nonprof": 6013,
      "monuments": 6014,
      "kicked": 6015,
      "ellison": 6016,
      "breath": 6017,
      "sacrif": 6018,
      "bottom": 6019,
      "bigotry": 6020,
      "tammy": 6021,
      "diagn": 6022,
      "magazine": 6023,
      "taylor": 6024,
      "controlled": 6025,
      "sabot": 6026,
      "bold": 6027,
      "cere": 6028,
      "fit": 6029,
      "hann": 6030,
      "porter": 6031,
      "rum": 6032,
      "vig": 6033,
      "wade": 6034,
      "wolf": 6035,
      "##lical": 6036,
      "##tained": 6037,
      "##nis": 6038,
      "##mon": 6039,
      "##war": 6040,
      "##bed": 6041,
      "##kish": 6042,
      "##jo": 6043,
      "##jection": 6044,
      "##iner": 6045,
      "##itb": 6046,
      "##rec": 6047,
      "stee": 6048,
      "stood": 6049,
      "beaut": 6050,
      "shout": 6051,
      "shape": 6052,
      "wear": 6053,
      "##aked": 6054,
      "abb": 6055,
      "prohib": 6056,
      "crash": 6057,
      "lift": 6058,
      "offsh": 6059,
      "##astic": 6060,
      "alive": 6061,
      "display": 6062,
      "usual": 6063,
      "somebody": 6064,
      "knee": 6065,
      "accident": 6066,
      "strip": 6067,
      "compl": 6068,
      "mov": 6069,
      "impl": 6070,
      "##athan": 6071,
      "confidence": 6072,
      "yourself": 6073,
      "indeed": 6074,
      "longtime": 6075,
      "guest": 6076,
      "highway": 6077,
      "elig": 6078,
      "regime": 6079,
      "criticizing": 6080,
      "smear": 6081,
      "virus": 6082,
      "pattern": 6083,
      "provision": 6084,
      "providing": 6085,
      "throughout": 6086,
      "detail": 6087,
      "visits": 6088,
      "loser": 6089,
      "declare": 6090,
      "informant": 6091,
      "silver": 6092,
      "panic": 6093,
      "scandals": 6094,
      "opposes": 6095,
      "demanding": 6096,
      "jews": 6097,
      "mainst": 6098,
      "injured": 6099,
      "thanksgiving": 6100,
      "ranking": 6101,
      "soldier": 6102,
      "affected": 6103,
      "expressed": 6104,
      "reminds": 6105,
      "dispute": 6106,
      "heavily": 6107,
      "animal": 6108,
      "pleads": 6109,
      "average": 6110,
      "angeles": 6111,
      "physic": 6112,
      "institutions": 6113,
      "contempt": 6114,
      "masks": 6115,
      "dishon": 6116,
      "boycott": 6117,
      "inappropriate": 6118,
      "integrity": 6119,
      "unusual": 6120,
      "vietnam": 6121,
      "tragic": 6122,
      "compassion": 6123,
      "impossible": 6124,
      "available": 6125,
      "bernardino": 6126,
      "google": 6127,
      "watergate": 6128,
      "35": 6129,
      "90": 6130,
      "cot": 6131,
      "cow": 6132,
      "gree": 6133,
      "gaza": 6134,
      "jay": 6135,
      "kkk": 6136,
      "mac": 6137,
      "oath": 6138,
      "pere": 6139,
      "punch": 6140,
      "purch": 6141,
      "qat": 6142,
      "wood": 6143,
      "##ule": 6144,
      "##ca": 6145,
      "##athing": 6146,
      "##ene": 6147,
      "##aly": 6148,
      "touts": 6149,
      "##icated": 6150,
      "##mpeo": 6151,
      "trig": 6152,
      "##ctic": 6153,
      "weather": 6154,
      "##unction": 6155,
      "sust": 6156,
      "lepage": 6157,
      "##iel": 6158,
      "proves": 6159,
      "spell": 6160,
      "liar": 6161,
      "offering": 6162,
      "##asty": 6163,
      "##ounting": 6164,
      "grop": 6165,
      "compar": 6166,
      "books": 6167,
      "helps": 6168,
      "pompeo": 6169,
      "indian": 6170,
      "downplay": 6171,
      "##ocket": 6172,
      "advances": 6173,
      "charity": 6174,
      "judgment": 6175,
      "surrog": 6176,
      "regret": 6177,
      "##ultz": 6178,
      "191": 6179,
      "additional": 6180,
      "breitb": 6181,
      "veh": 6182,
      "empty": 6183,
      "##shell": 6184,
      "solve": 6185,
      "embattled": 6186,
      "interested": 6187,
      "pointed": 6188,
      "sentenced": 6189,
      "link": 6190,
      "excited": 6191,
      "safer": 6192,
      "pete": 6193,
      "awa": 6194,
      "surprised": 6195,
      "##iveness": 6196,
      "defeated": 6197,
      "defeats": 6198,
      "mattis": 6199,
      "garner": 6200,
      "balance": 6201,
      "briefing": 6202,
      "circuit": 6203,
      "audience": 6204,
      "observ": 6205,
      "scramb": 6206,
      "dismissed": 6207,
      "tribute": 6208,
      "tensions": 6209,
      "dozen": 6210,
      "prayers": 6211,
      "package": 6212,
      "regarding": 6213,
      "narrative": 6214,
      "patrick": 6215,
      "assistance": 6216,
      "obviously": 6217,
      "legitimate": 6218,
      "duke": 6219,
      "santorum": 6220,
      "certific": 6221,
      "loretta": 6222,
      "injustice": 6223,
      "mainstre": 6224,
      "perez": 6225,
      "qatar": 6226,
      "breitbart": 6227,
      "bond": 6228,
      "cort": 6229,
      "ec": 6230,
      "gates": 6231,
      "han": 6232,
      "krem": 6233,
      "mic": 6234,
      "mul": 6235,
      "master": 6236,
      "ol": 6237,
      "pill": 6238,
      "tape": 6239,
      "wid": 6240,
      "##zy": 6241,
      "##han": 6242,
      "##here": 6243,
      "##yder": 6244,
      "toll": 6245,
      "##isa": 6246,
      "##itation": 6247,
      "anx": 6248,
      "##acc": 6249,
      "detro": 6250,
      "stocks": 6251,
      "##etic": 6252,
      "bear": 6253,
      "##oles": 6254,
      "shap": 6255,
      "attr": 6256,
      "unins": 6257,
      "notice": 6258,
      "sav": 6259,
      "oblig": 6260,
      "crow": 6261,
      "adult": 6262,
      "##ifies": 6263,
      "disastr": 6264,
      "bridge": 6265,
      "suppression": 6266,
      "backers": 6267,
      "incoming": 6268,
      "invasion": 6269,
      "banned": 6270,
      "schiff": 6271,
      "anywhere": 6272,
      "##roots": 6273,
      "showdown": 6274,
      "runoff": 6275,
      "administrat": 6276,
      "policing": 6277,
      "signal": 6278,
      "convince": 6279,
      "acad": 6280,
      "elite": 6281,
      "discover": 6282,
      "passage": 6283,
      "raids": 6284,
      "victories": 6285,
      "server": 6286,
      "##urred": 6287,
      "citing": 6288,
      "soul": 6289,
      "urging": 6290,
      "markets": 6291,
      "billionaires": 6292,
      "increased": 6293,
      "tomorrow": 6294,
      "possibly": 6295,
      "authoritarian": 6296,
      "easily": 6297,
      "filing": 6298,
      "moder": 6299,
      "intervention": 6300,
      "snyder": 6301,
      "globe": 6302,
      "explained": 6303,
      "falling": 6304,
      "emerged": 6305,
      "credibility": 6306,
      "images": 6307,
      "survive": 6308,
      "operation": 6309,
      "funeral": 6310,
      "suspended": 6311,
      "##grapher": 6312,
      "aimed": 6313,
      "motiv": 6314,
      "survivor": 6315,
      "filled": 6316,
      "cameras": 6317,
      "begun": 6318,
      "amazing": 6319,
      "bolton": 6320,
      "tackle": 6321,
      "title": 6322,
      "entry": 6323,
      "reelection": 6324,
      "whistleblower": 6325,
      "##information": 6326,
      "catholic": 6327,
      "beautiful": 6328,
      "kremlin": 6329,
      "detroit": 6330,
      "bi": 6331,
      "bag": 6332,
      "cp": 6333,
      "cited": 6334,
      "eve": 6335,
      "ech": 6336,
      "hud": 6337,
      "kicks": 6338,
      "mothers": 6339,
      "nons": 6340,
      "oval": 6341,
      "wages": 6342,
      "##win": 6343,
      "##alf": 6344,
      "##iced": 6345,
      "ford": 6346,
      "dean": 6347,
      "chaff": 6348,
      "shocked": 6349,
      "france": 6350,
      "##uls": 6351,
      "doors": 6352,
      "cool": 6353,
      "cable": 6354,
      "arctic": 6355,
      "blaming": 6356,
      "looph": 6357,
      "partner": 6358,
      "marine": 6359,
      "scal": 6360,
      "intent": 6361,
      "explo": 6362,
      "consult": 6363,
      "drone": 6364,
      "rose": 6365,
      "##achs": 6366,
      "carbon": 6367,
      "debbie": 6368,
      "schultz": 6369,
      "confused": 6370,
      "writes": 6371,
      "assad": 6372,
      "sexist": 6373,
      "looked": 6374,
      "killer": 6375,
      "sweet": 6376,
      "promoting": 6377,
      "colbert": 6378,
      "questioned": 6379,
      "subm": 6380,
      "mater": 6381,
      "match": 6382,
      "systems": 6383,
      "expectations": 6384,
      "approves": 6385,
      "ern": 6386,
      "solar": 6387,
      "importance": 6388,
      "embass": 6389,
      "handling": 6390,
      "earned": 6391,
      "##letes": 6392,
      "familiar": 6393,
      "remaining": 6394,
      "sentences": 6395,
      "pacs": 6396,
      "opposing": 6397,
      "discussed": 6398,
      "removal": 6399,
      "engaged": 6400,
      "closing": 6401,
      "involving": 6402,
      "complaints": 6403,
      "influential": 6404,
      "cuban": 6405,
      "pledges": 6406,
      "priority": 6407,
      "camera": 6408,
      "amazon": 6409,
      "##astroph": 6410,
      "monument": 6411,
      "catastroph": 6412,
      "farmers": 6413,
      "explan": 6414,
      "aggressive": 6415,
      "migrant": 6416,
      "licenses": 6417,
      "temporary": 6418,
      "libertarian": 6419,
      "disclosure": 6420,
      "method": 6421,
      "spirit": 6422,
      "barbara": 6423,
      "chemical": 6424,
      "hannity": 6425,
      "mainstream": 6426,
      "cortez": 6427,
      "disastrous": 6428,
      "chaffetz": 6429,
      "36": 6430,
      "ax": 6431,
      "aar": 6432,
      "ale": 6433,
      "cart": 6434,
      "eld": 6435,
      "finger": 6436,
      "gian": 6437,
      "hy": 6438,
      "hired": 6439,
      "hang": 6440,
      "picking": 6441,
      "##fall": 6442,
      "##rent": 6443,
      "##right": 6444,
      "##rants": 6445,
      "##rum": 6446,
      "##vit": 6447,
      "##ba": 6448,
      "##eness": 6449,
      "trend": 6450,
      "rewr": 6451,
      "forum": 6452,
      "sting": 6453,
      "steal": 6454,
      "onto": 6455,
      "##uting": 6456,
      "##imb": 6457,
      "constant": 6458,
      "construction": 6459,
      "shith": 6460,
      "##andria": 6461,
      "fright": 6462,
      "##ieg": 6463,
      "waste": 6464,
      "exit": 6465,
      "##antly": 6466,
      "clinics": 6467,
      "##izr": 6468,
      "canad": 6469,
      "nov": 6470,
      "attended": 6471,
      "manip": 6472,
      "evil": 6473,
      "explos": 6474,
      "herit": 6475,
      "flight": 6476,
      "accuse": 6477,
      "##mma": 6478,
      "drinking": 6479,
      "endless": 6480,
      "incomp": 6481,
      "careful": 6482,
      "scheme": 6483,
      "anybody": 6484,
      "winners": 6485,
      "contenders": 6486,
      "myself": 6487,
      "lets": 6488,
      "sexism": 6489,
      "feinstein": 6490,
      "##cover": 6491,
      "ceos": 6492,
      "heading": 6493,
      "behalf": 6494,
      "plays": 6495,
      "forever": 6496,
      "moms": 6497,
      "approve": 6498,
      "redist": 6499,
      "iraqi": 6500,
      "increases": 6501,
      "memory": 6502,
      "interesting": 6503,
      "snowd": 6504,
      "##hamed": 6505,
      "regular": 6506,
      "organized": 6507,
      "vacation": 6508,
      "effectively": 6509,
      "employer": 6510,
      "successor": 6511,
      "absurd": 6512,
      "rolls": 6513,
      "bankrupt": 6514,
      "troubling": 6515,
      "golden": 6516,
      "condemns": 6517,
      "mistakes": 6518,
      "braz": 6519,
      "funny": 6520,
      "suffer": 6521,
      "footage": 6522,
      "khizr": 6523,
      "madness": 6524,
      "couples": 6525,
      "baseball": 6526,
      "gathered": 6527,
      "alexandria": 6528,
      "introduced": 6529,
      "documentary": 6530,
      "palestinians": 6531,
      "designed": 6532,
      "diverse": 6533,
      "registered": 6534,
      "megyn": 6535,
      "forgotten": 6536,
      "carlson": 6537,
      "hatred": 6538,
      "obvious": 6539,
      "##usalem": 6540,
      "acknowledge": 6541,
      "wounded": 6542,
      "jerusalem": 6543,
      "kirst": 6544,
      "demonstrators": 6545,
      "indictment": 6546,
      "narrow": 6547,
      "recommend": 6548,
      "declaration": 6549,
      "movie": 6550,
      "cotton": 6551,
      "trigger": 6552,
      "cpac": 6553,
      "snowden": 6554,
      "dian": 6555,
      "jes": 6556,
      "ly": 6557,
      "lived": 6558,
      "ripped": 6559,
      "sachs": 6560,
      "##lers": 6561,
      "##fr": 6562,
      "##author": 6563,
      "##night": 6564,
      "reop": 6565,
      "reilly": 6566,
      "##rey": 6567,
      "##omed": 6568,
      "trumps": 6569,
      "##state": 6570,
      "cham": 6571,
      "wass": 6572,
      "polar": 6573,
      "##trun": 6574,
      "##ifer": 6575,
      "grant": 6576,
      "grown": 6577,
      "looming": 6578,
      "looms": 6579,
      "branch": 6580,
      "scam": 6581,
      "scathing": 6582,
      "user": 6583,
      "usually": 6584,
      "##ucks": 6585,
      "quiz": 6586,
      "driver": 6587,
      "##aves": 6588,
      "defam": 6589,
      "##quir": 6590,
      "compreh": 6591,
      "plane": 6592,
      "huffington": 6593,
      "schol": 6594,
      "winter": 6595,
      "contender": 6596,
      "##umes": 6597,
      "miller": 6598,
      "advance": 6599,
      "slain": 6600,
      "violates": 6601,
      "max": 6602,
      "feat": 6603,
      "feed": 6604,
      "transform": 6605,
      "meetings": 6606,
      "revol": 6607,
      "sworn": 6608,
      "believed": 6609,
      "extend": 6610,
      "emph": 6611,
      "lots": 6612,
      "covered": 6613,
      "bombshell": 6614,
      "outsider": 6615,
      "damning": 6616,
      "##owdy": 6617,
      "tougher": 6618,
      "##ructive": 6619,
      "ignorance": 6620,
      "involve": 6621,
      "inevit": 6622,
      "trusted": 6623,
      "glenn": 6624,
      "celebration": 6625,
      "canceled": 6626,
      "obsc": 6627,
      "appointed": 6628,
      "contested": 6629,
      "identity": 6630,
      "particular": 6631,
      "surveys": 6632,
      "insisted": 6633,
      "denounce": 6634,
      "analyst": 6635,
      "rescue": 6636,
      "trafficking": 6637,
      "pregnant": 6638,
      "pharma": 6639,
      "dirty": 6640,
      "evangelical": 6641,
      "permanent": 6642,
      "subsidies": 6643,
      "atlanta": 6644,
      "unnecess": 6645,
      "purpose": 6646,
      "sector": 6647,
      "incarceration": 6648,
      "fantasy": 6649,
      "##vaney": 6650,
      "unfortunately": 6651,
      "frontrun": 6652,
      "unpopular": 6653,
      "greece": 6654,
      "mulvaney": 6655,
      "uninsured": 6656,
      "shithole": 6657,
      "heritage": 6658,
      "bin": 6659,
      "fare": 6660,
      "fisc": 6661,
      "games": 6662,
      "hij": 6663,
      "icon": 6664,
      "jih": 6665,
      "lamb": 6666,
      "mere": 6667,
      "miam": 6668,
      "mouth": 6669,
      "ram": 6670,
      "ride": 6671,
      "rah": 6672,
      "sight": 6673,
      "tan": 6674,
      "tucker": 6675,
      "##li": 6676,
      "##liest": 6677,
      "##iking": 6678,
      "##rin": 6679,
      "##rate": 6680,
      "##rison": 6681,
      "##oil": 6682,
      "##ware": 6683,
      "##onald": 6684,
      "##icles": 6685,
      "##isf": 6686,
      "##itary": 6687,
      "##itious": 6688,
      "trem": 6689,
      "rely": 6690,
      "##igieg": 6691,
      "stuck": 6692,
      "##uter": 6693,
      "##uther": 6694,
      "##uries": 6695,
      "heck": 6696,
      "shir": 6697,
      "shel": 6698,
      "shown": 6699,
      "##terms": 6700,
      "web": 6701,
      "seats": 6702,
      "clock": 6703,
      "##ighter": 6704,
      "##ulated": 6705,
      "unique": 6706,
      "##osen": 6707,
      "##endous": 6708,
      "overr": 6709,
      "overall": 6710,
      "granted": 6711,
      "howard": 6712,
      "explor": 6713,
      "##mann": 6714,
      "appropriate": 6715,
      "commander": 6716,
      "active": 6717,
      "##encer": 6718,
      "legally": 6719,
      "offices": 6720,
      "probes": 6721,
      "perform": 6722,
      "contain": 6723,
      "everywhere": 6724,
      "india": 6725,
      "##ogyn": 6726,
      "preced": 6727,
      "signing": 6728,
      "##soff": 6729,
      "stops": 6730,
      "convent": 6731,
      "territ": 6732,
      "turkish": 6733,
      "##attan": 6734,
      "investigators": 6735,
      "payment": 6736,
      "propag": 6737,
      "iron": 6738,
      "dennis": 6739,
      "serves": 6740,
      "switch": 6741,
      "affir": 6742,
      "midterms": 6743,
      "misogyn": 6744,
      "larger": 6745,
      "covering": 6746,
      "proceed": 6747,
      "undo": 6748,
      "sentencing": 6749,
      "drawn": 6750,
      "universe": 6751,
      "150": 6752,
      "dreamer": 6753,
      "brook": 6754,
      "unfit": 6755,
      "falsely": 6756,
      "flags": 6757,
      "landmark": 6758,
      "troubled": 6759,
      "anthem": 6760,
      "operations": 6761,
      "africa": 6762,
      "suspected": 6763,
      "diplomacy": 6764,
      "accuser": 6765,
      "describe": 6766,
      "audio": 6767,
      "wishes": 6768,
      "introduce": 6769,
      "spokeswoman": 6770,
      "associated": 6771,
      "historical": 6772,
      "rebuke": 6773,
      "ossoff": 6774,
      "legitim": 6775,
      "disgraceful": 6776,
      "islamophobia": 6777,
      "wyoming": 6778,
      "overwhelmingly": 6779,
      "wisdom": 6780,
      "fundraiser": 6781,
      "bundy": 6782,
      "joseph": 6783,
      "buttigieg": 6784,
      "firearms": 6785,
      "ocasio": 6786,
      "sacrifice": 6787,
      "administrator": 6788,
      "chamber": 6789,
      "wasserman": 6790,
      "jihad": 6791,
      "miami": 6792,
      "75": 6793,
      "bald": 6794,
      "eat": 6795,
      "gif": 6796,
      "hid": 6797,
      "hint": 6798,
      "jord": 6799,
      "oly": 6800,
      "pil": 6801,
      "ring": 6802,
      "ray": 6803,
      "sot": 6804,
      "sky": 6805,
      "##ford": 6806,
      "##vent": 6807,
      "##vant": 6808,
      "##eak": 6809,
      "##gs": 6810,
      "##mony": 6811,
      "theor": 6812,
      "##ouch": 6813,
      "inacc": 6814,
      "tri": 6815,
      "##otic": 6816,
      "beating": 6817,
      "##opher": 6818,
      "conyers": 6819,
      "##ilton": 6820,
      "weinstein": 6821,
      "weiner": 6822,
      "sea": 6823,
      "clash": 6824,
      "unite": 6825,
      "##acks": 6826,
      "laid": 6827,
      "enab": 6828,
      "plus": 6829,
      "alter": 6830,
      "alike": 6831,
      "##mble": 6832,
      "grows": 6833,
      "disability": 6834,
      "brenn": 6835,
      "##uci": 6836,
      "apprent": 6837,
      "recre": 6838,
      "decides": 6839,
      "refusal": 6840,
      "##ption": 6841,
      "cares": 6842,
      "depend": 6843,
      "underc": 6844,
      "slight": 6845,
      "violation": 6846,
      "convin": 6847,
      "owned": 6848,
      "##ahl": 6849,
      "fees": 6850,
      "propose": 6851,
      "music": 6852,
      "retreat": 6853,
      "conclud": 6854,
      "distance": 6855,
      "colin": 6856,
      "subst": 6857,
      "socialist": 6858,
      "proven": 6859,
      "provides": 6860,
      "providers": 6861,
      "walked": 6862,
      "openly": 6863,
      "##ception": 6864,
      "clearance": 6865,
      "suggesting": 6866,
      "##ainees": 6867,
      "choices": 6868,
      "meme": 6869,
      "battles": 6870,
      "divisive": 6871,
      "##pected": 6872,
      "snow": 6873,
      "intellect": 6874,
      "advocacy": 6875,
      "##apped": 6876,
      "excuse": 6877,
      "reasonable": 6878,
      "receiving": 6879,
      "awful": 6880,
      "cannab": 6881,
      "cyn": 6882,
      "extremists": 6883,
      "hurts": 6884,
      "hurting": 6885,
      "magn": 6886,
      "castro": 6887,
      "horror": 6888,
      "horrific": 6889,
      "followed": 6890,
      "scientist": 6891,
      "escape": 6892,
      "dogs": 6893,
      "##iasm": 6894,
      "stopping": 6895,
      "drawing": 6896,
      "weighs": 6897,
      "original": 6898,
      "derail": 6899,
      "devastating": 6900,
      "patriotism": 6901,
      "##worth": 6902,
      "engagement": 6903,
      "eliminate": 6904,
      "dissent": 6905,
      "freddie": 6906,
      "extraord": 6907,
      "gradu": 6908,
      "tears": 6909,
      "loyal": 6910,
      "fierce": 6911,
      "error": 6912,
      "guarantee": 6913,
      "flee": 6914,
      "shadow": 6915,
      "enrollment": 6916,
      "manchin": 6917,
      "unaccept": 6918,
      "disappointed": 6919,
      "abbott": 6920,
      "explanation": 6921,
      "##franch": 6922,
      "frontrunner": 6923,
      "jordan": 6924,
      "olymp": 6925,
      "brennan": 6926,
      "band": 6927,
      "cant": 6928,
      "dut": 6929,
      "gh": 6930,
      "gore": 6931,
      "gowdy": 6932,
      "hed": 6933,
      "hates": 6934,
      "hog": 6935,
      "hiding": 6936,
      "jab": 6937,
      "ka": 6938,
      "lt": 6939,
      "lunch": 6940,
      "mort": 6941,
      "nature": 6942,
      "pit": 6943,
      "pact": 6944,
      "ral": 6945,
      "rab": 6946,
      "rip": 6947,
      "via": 6948,
      "##side": 6949,
      "##gate": 6950,
      "##uous": 6951,
      "##weet": 6952,
      "##comes": 6953,
      "##anim": 6954,
      "##isanship": 6955,
      "inquir": 6956,
      "trey": 6957,
      "##idy": 6958,
      "stark": 6959,
      "##ament": 6960,
      "##ldon": 6961,
      "##ocrat": 6962,
      "sham": 6963,
      "reput": 6964,
      "aspect": 6965,
      "##ung": 6966,
      "##ortion": 6967,
      "notor": 6968,
      "advert": 6969,
      "##keley": 6970,
      "clinic": 6971,
      "##raged": 6972,
      "overcome": 6973,
      "blast": 6974,
      "blog": 6975,
      "twist": 6976,
      "scary": 6977,
      "manh": 6978,
      "usa": 6979,
      "campaigning": 6980,
      "counting": 6981,
      "consensus": 6982,
      "accurate": 6983,
      "recon": 6984,
      "actor": 6985,
      "##icken": 6986,
      "boasts": 6987,
      "sheldon": 6988,
      "carr": 6989,
      "gunman": 6990,
      "parade": 6991,
      "anticip": 6992,
      "genoc": 6993,
      "##seless": 6994,
      "violations": 6995,
      "violating": 6996,
      "belong": 6997,
      "reluct": 6998,
      "electing": 6999,
      "goodby": 7000,
      "collusion": 7001,
      "conservation": 7002,
      "##fta": 7003,
      "childhood": 7004,
      "transf": 7005,
      "stepping": 7006,
      "older": 7007,
      "badly": 7008,
      "collection": 7009,
      "ideology": 7010,
      "empower": 7011,
      "prevention": 7012,
      "walking": 7013,
      "activity": 7014,
      "choosing": 7015,
      "decline": 7016,
      "humanity": 7017,
      "eastern": 7018,
      "viewers": 7019,
      "##phone": 7020,
      "valley": 7021,
      "grave": 7022,
      "alleges": 7023,
      "##standing": 7024,
      "opposite": 7025,
      "learning": 7026,
      "hacked": 7027,
      "entit": 7028,
      "honored": 7029,
      "rolling": 7030,
      "peaceful": 7031,
      "bully": 7032,
      "wildf": 7033,
      "hospitals": 7034,
      "counties": 7035,
      "negotiating": 7036,
      "temper": 7037,
      "21st": 7038,
      "tribe": 7039,
      "hamilton": 7040,
      "calm": 7041,
      "sensitive": 7042,
      "##itudes": 7043,
      "nafta": 7044,
      "traffic": 7045,
      "berkeley": 7046,
      "unex": 7047,
      "duckworth": 7048,
      "commerc": 7049,
      "symbol": 7050,
      "mcdonald": 7051,
      "prefer": 7052,
      "manufacturing": 7053,
      "comedian": 7054,
      "powell": 7055,
      "sparked": 7056,
      "management": 7057,
      "enthusiasm": 7058,
      "specifically": 7059,
      "dishonest": 7060,
      "defamation": 7061,
      "comprehensive": 7062,
      "emphas": 7063,
      "tremendous": 7064,
      "triump": 7065,
      "convinced": 7066,
      "80": 7067,
      "bash": 7068,
      "bought": 7069,
      "bunch": 7070,
      "cens": 7071,
      "cbo": 7072,
      "dere": 7073,
      "eu": 7074,
      "eager": 7075,
      "emanuel": 7076,
      "fest": 7077,
      "fault": 7078,
      "fda": 7079,
      "ga": 7080,
      "gall": 7081,
      "hiring": 7082,
      "josh": 7083,
      "krist": 7084,
      "nasty": 7085,
      "rent": 7086,
      "sale": 7087,
      "uber": 7088,
      "##rory": 7089,
      "##zar": 7090,
      "##due": 7091,
      "##joy": 7092,
      "threw": 7093,
      "##atism": 7094,
      "##orable": 7095,
      "##enfranch": 7096,
      "inh": 7097,
      "forms": 7098,
      "##acies": 7099,
      "ster": 7100,
      "heal": 7101,
      "heated": 7102,
      "sho": 7103,
      "shield": 7104,
      "prescrip": 7105,
      "##merous": 7106,
      "abol": 7107,
      "##ular": 7108,
      "##ulate": 7109,
      "haunt": 7110,
      "unle": 7111,
      "exemp": 7112,
      "spoken": 7113,
      "coff": 7114,
      "##ude": 7115,
      "liz": 7116,
      "alliance": 7117,
      "alert": 7118,
      "disenfranch": 7119,
      "loving": 7120,
      "warrant": 7121,
      "applic": 7122,
      "quality": 7123,
      "command": 7124,
      "sandra": 7125,
      "bog": 7126,
      "amy": 7127,
      "knowled": 7128,
      "confine": 7129,
      "wonders": 7130,
      "##ords": 7131,
      "nominated": 7132,
      "indef": 7133,
      "betray": 7134,
      "infam": 7135,
      "buzz": 7136,
      "longest": 7137,
      "acqu": 7138,
      "mccrory": 7139,
      "miles": 7140,
      "tweeters": 7141,
      "kills": 7142,
      "throwing": 7143,
      "retail": 7144,
      "speculation": 7145,
      "headlines": 7146,
      "delib": 7147,
      "civilian": 7148,
      "numerous": 7149,
      "provider": 7150,
      "##onym": 7151,
      "detainees": 7152,
      "solitary": 7153,
      "profits": 7154,
      "requiring": 7155,
      "hosts": 7156,
      "declined": 7157,
      "humanitarian": 7158,
      "honors": 7159,
      "film": 7160,
      "##omberg": 7161,
      "##leted": 7162,
      "undec": 7163,
      "dreams": 7164,
      "deported": 7165,
      "deportations": 7166,
      "ethnic": 7167,
      "endorsing": 7168,
      "arguing": 7169,
      "burn": 7170,
      "discussing": 7171,
      "damaging": 7172,
      "destruction": 7173,
      "ambitious": 7174,
      "troop": 7175,
      "avoided": 7176,
      "pulling": 7177,
      "apparent": 7178,
      "utter": 7179,
      "generations": 7180,
      "halls": 7181,
      "glass": 7182,
      "cheer": 7183,
      "initial": 7184,
      "popularity": 7185,
      "overse": 7186,
      "fauci": 7187,
      "entering": 7188,
      "horrible": 7189,
      "pledged": 7190,
      "hunger": 7191,
      "nyt": 7192,
      "identified": 7193,
      "shameful": 7194,
      "##laim": 7195,
      "prepares": 7196,
      "destroyed": 7197,
      "pursue": 7198,
      "pursuing": 7199,
      "animals": 7200,
      "tactic": 7201,
      "scenes": 7202,
      "casino": 7203,
      "celebrates": 7204,
      "grassroots": 7205,
      "analyt": 7206,
      "rosen": 7207,
      "ultimately": 7208,
      "stunning": 7209,
      "frustration": 7210,
      "accomplished": 7211,
      "overdose": 7212,
      "booed": 7213,
      "virtually": 7214,
      "revelations": 7215,
      "bloomberg": 7216,
      "restaurant": 7217,
      "ordinary": 7218,
      "ceremony": 7219,
      "comparison": 7220,
      "canadian": 7221,
      "fiscal": 7222,
      "propaganda": 7223,
      "brooklyn": 7224,
      "unacceptable": 7225,
      "unexpected": 7226,
      "knowledge": 7227,
      "42": 7228,
      "ast": 7229,
      "amm": 7230,
      "bitter": 7231,
      "bask": 7232,
      "cards": 7233,
      "gamb": 7234,
      "hob": 7235,
      "lisa": 7236,
      "pin": 7237,
      "rain": 7238,
      "rises": 7239,
      "range": 7240,
      "sites": 7241,
      "vicious": 7242,
      "yates": 7243,
      "##dahl": 7244,
      "##ointing": 7245,
      "##ht": 7246,
      "##just": 7247,
      "ther": 7248,
      "reaching": 7249,
      "##omers": 7250,
      "forcing": 7251,
      "##oler": 7252,
      "sharing": 7253,
      "##unity": 7254,
      "unanim": 7255,
      "league": 7256,
      "##oster": 7257,
      "spencer": 7258,
      "lap": 7259,
      "##igned": 7260,
      "coord": 7261,
      "button": 7262,
      "obamas": 7263,
      "##kel": 7264,
      "plaint": 7265,
      "libr": 7266,
      "joy": 7267,
      "eleph": 7268,
      "blasted": 7269,
      "marjor": 7270,
      "scared": 7271,
      "monop": 7272,
      "incidents": 7273,
      "invited": 7274,
      "reme": 7275,
      "contrast": 7276,
      "contacts": 7277,
      "insults": 7278,
      "belt": 7279,
      "christopher": 7280,
      "northern": 7281,
      "swear": 7282,
      "stewart": 7283,
      "releasing": 7284,
      "challenged": 7285,
      "patient": 7286,
      "businessman": 7287,
      "empire": 7288,
      "epis": 7289,
      "borr": 7290,
      "urgent": 7291,
      "differences": 7292,
      "condition": 7293,
      "addressed": 7294,
      "##appy": 7295,
      "vacancy": 7296,
      "attempted": 7297,
      "receives": 7298,
      "bombs": 7299,
      "represented": 7300,
      "responding": 7301,
      "burden": 7302,
      "extremist": 7303,
      "##regation": 7304,
      "hoped": 7305,
      "removing": 7306,
      "hitler": 7307,
      "sooner": 7308,
      "engine": 7309,
      "absent": 7310,
      "creates": 7311,
      "inaugural": 7312,
      "trading": 7313,
      "traditional": 7314,
      "sadd": 7315,
      "suffered": 7316,
      "portland": 7317,
      "recognition": 7318,
      "celebrities": 7319,
      "losses": 7320,
      "mandatory": 7321,
      "entirely": 7322,
      "requirements": 7323,
      "extremely": 7324,
      "versus": 7325,
      "dougl": 7326,
      "spotlight": 7327,
      "historically": 7328,
      "fatal": 7329,
      "regardless": 7330,
      "schedule": 7331,
      "inmate": 7332,
      "definition": 7333,
      "encouraged": 7334,
      "stamps": 7335,
      "commerce": 7336,
      "japanese": 7337,
      "laden": 7338,
      "sabotage": 7339,
      "offshore": 7340,
      "embassy": 7341,
      "incompet": 7342,
      "redistrict": 7343,
      "dianne": 7344,
      "unnecessary": 7345,
      "cannabis": 7346,
      "inquiry": 7347,
      "manhattan": 7348,
      "confinement": 7349,
      "##onymous": 7350,
      "overseas": 7351,
      "marjorie": 7352,
      "boun": 7353,
      "bach": 7354,
      "bible": 7355,
      "berg": 7356,
      "buck": 7357,
      "dun": 7358,
      "erupt": 7359,
      "gott": 7360,
      "hints": 7361,
      "hilar": 7362,
      "lone": 7363,
      "luther": 7364,
      "mick": 7365,
      "pad": 7366,
      "pak": 7367,
      "pour": 7368,
      "sally": 7369,
      "taps": 7370,
      "vill": 7371,
      "ye": 7372,
      "##pret": 7373,
      "##agr": 7374,
      "##ele": 7375,
      "##dles": 7376,
      "##water": 7377,
      "##bers": 7378,
      "deter": 7379,
      "stunt": 7380,
      "isol": 7381,
      "whee": 7382,
      "##etime": 7383,
      "##ader": 7384,
      "##opou": 7385,
      "##tert": 7386,
      "seize": 7387,
      "ash": 7388,
      "##ulting": 7389,
      "unse": 7390,
      "##arters": 7391,
      "demag": 7392,
      "hastert": 7393,
      "crush": 7394,
      "##kee": 7395,
      "placed": 7396,
      "offenders": 7397,
      "##elson": 7398,
      "joining": 7399,
      "reserv": 7400,
      "scale": 7401,
      "congressmen": 7402,
      "manning": 7403,
      "politico": 7404,
      "##uces": 7405,
      "intoler": 7406,
      "mayors": 7407,
      "quits": 7408,
      "quote": 7409,
      "actress": 7410,
      "defender": 7411,
      "nowhere": 7412,
      "striking": 7413,
      "referred": 7414,
      "cars": 7415,
      "knowing": 7416,
      "everyday": 7417,
      "inspect": 7418,
      "nationalists": 7419,
      "lethal": 7420,
      "infect": 7421,
      "signature": 7422,
      "regrets": 7423,
      "studies": 7424,
      "facilities": 7425,
      "denier": 7426,
      "economics": 7427,
      "smoking": 7428,
      "legalize": 7429,
      "tested": 7430,
      "failures": 7431,
      "ceiling": 7432,
      "hardly": 7433,
      "crises": 7434,
      "penal": 7435,
      "walter": 7436,
      "epic": 7437,
      "illust": 7438,
      "executions": 7439,
      "executives": 7440,
      "advisory": 7441,
      "visa": 7442,
      "hosted": 7443,
      "grew": 7444,
      "division": 7445,
      "criminals": 7446,
      "fallout": 7447,
      "discriminatory": 7448,
      "burns": 7449,
      "successfully": 7450,
      "damn": 7451,
      "basis": 7452,
      "destructive": 7453,
      "##aware": 7454,
      "demanded": 7455,
      "ignorant": 7456,
      "unfold": 7457,
      "grounds": 7458,
      "responses": 7459,
      "honoring": 7460,
      "complains": 7461,
      "felons": 7462,
      "celebrated": 7463,
      "profession": 7464,
      "conversations": 7465,
      "requests": 7466,
      "teenager": 7467,
      "demonstration": 7468,
      "pardons": 7469,
      "spreading": 7470,
      "innov": 7471,
      "necessarily": 7472,
      "principle": 7473,
      "brutality": 7474,
      "editor": 7475,
      "withdrawal": 7476,
      "applaud": 7477,
      "rescind": 7478,
      "premium": 7479,
      "shrug": 7480,
      "temporarily": 7481,
      "frustrated": 7482,
      "skeptic": 7483,
      "skeptical": 7484,
      "loyalty": 7485,
      "wiretapping": 7486,
      "tapes": 7487,
      "recipients": 7488,
      "disgusting": 7489,
      "columbia": 7490,
      "estimated": 7491,
      "nonprofit": 7492,
      "sustain": 7493,
      "nonsense": 7494,
      "scalise": 7495,
      "ernst": 7496,
      "involvement": 7497,
      "ralph": 7498,
      "goodbye": 7499,
      "sterling": 7500,
      "undecided": 7501,
      "redistricting": 7502,
      "bergdahl": 7503,
      "pakistan": 7504,
      "4th": 7505,
      "bot": 7506,
      "cass": 7507,
      "dur": 7508,
      "dign": 7509,
      "fab": 7510,
      "gaff": 7511,
      "jen": 7512,
      "julian": 7513,
      "mall": 7514,
      "rail": 7515,
      "tiny": 7516,
      "taught": 7517,
      "vow": 7518,
      "vital": 7519,
      "##iat": 7520,
      "##iating": 7521,
      "##za": 7522,
      "##ext": 7523,
      "##gue": 7524,
      "theft": 7525,
      "##ano": 7526,
      "##alo": 7527,
      "tool": 7528,
      "toler": 7529,
      "##itor": 7530,
      "reun": 7531,
      "##otyp": 7532,
      "pride": 7533,
      "prize": 7534,
      "##acp": 7535,
      "stir": 7536,
      "stem": 7537,
      "##amin": 7538,
      "chose": 7539,
      "##tha": 7540,
      "##thew": 7541,
      "##aki": 7542,
      "##akers": 7543,
      "ashamed": 7544,
      "##orted": 7545,
      "frame": 7546,
      "fracking": 7547,
      "unre": 7548,
      "##iab": 7549,
      "obtained": 7550,
      "cra": 7551,
      "crus": 7552,
      "adelson": 7553,
      "cook": 7554,
      "outraged": 7555,
      "justify": 7556,
      "elev": 7557,
      "resur": 7558,
      "grim": 7559,
      "##apol": 7560,
      "supply": 7561,
      "sole": 7562,
      "accusing": 7563,
      "driven": 7564,
      "##qualif": 7565,
      "roof": 7566,
      "plants": 7567,
      "imprison": 7568,
      "deplor": 7569,
      "mull": 7570,
      "parl": 7571,
      "opened": 7572,
      "underst": 7573,
      "waters": 7574,
      "signals": 7575,
      "assess": 7576,
      "relative": 7577,
      "electorate": 7578,
      "phr": 7579,
      "acce": 7580,
      "turmo": 7581,
      "idah": 7582,
      "irony": 7583,
      "adding": 7584,
      "killings": 7585,
      "setback": 7586,
      "busy": 7587,
      "personality": 7588,
      "##pres": 7589,
      "restoring": 7590,
      "wallace": 7591,
      "delivers": 7592,
      "subt": 7593,
      "matthew": 7594,
      "misinformation": 7595,
      "cites": 7596,
      "privat": 7597,
      "suggestion": 7598,
      "detain": 7599,
      "profound": 7600,
      "tariffs": 7601,
      "hostile": 7602,
      "consideration": 7603,
      "insurers": 7604,
      "2009": 7605,
      "earn": 7606,
      "israelis": 7607,
      "drew": 7608,
      "populism": 7609,
      "stars": 7610,
      "universal": 7611,
      "##ophy": 7612,
      "ethical": 7613,
      "mcm": 7614,
      "focusing": 7615,
      "salv": 7616,
      "preventing": 7617,
      "falsehoods": 7618,
      "accepted": 7619,
      "statue": 7620,
      "pulls": 7621,
      "condemned": 7622,
      "briefings": 7623,
      "opportunities": 7624,
      "initially": 7625,
      "photographer": 7626,
      "expanded": 7627,
      "projects": 7628,
      "professional": 7629,
      "circum": 7630,
      "scientific": 7631,
      "suspects": 7632,
      "diplomats": 7633,
      "accusers": 7634,
      "hunting": 7635,
      "broader": 7636,
      "dismisses": 7637,
      "alexander": 7638,
      "ronald": 7639,
      "colleague": 7640,
      "reminded": 7641,
      "daniel": 7642,
      "prayer": 7643,
      "adopt": 7644,
      "rebuild": 7645,
      "rapid": 7646,
      "alarm": 7647,
      "casual": 7648,
      "humil": 7649,
      "omar": 7650,
      "naacp": 7651,
      "definitely": 7652,
      "austin": 7653,
      "corner": 7654,
      "occupation": 7655,
      "implications": 7656,
      "exercise": 7657,
      "thirds": 7658,
      "substantial": 7659,
      "accidentally": 7660,
      "eligible": 7661,
      "recreational": 7662,
      "genocide": 7663,
      "turmoil": 7664,
      "idaho": 7665,
      "41": 7666,
      "600": 7667,
      "ais": 7668,
      "bes": 7669,
      "bio": 7670,
      "dile": 7671,
      "fold": 7672,
      "gina": 7673,
      "hb": 7674,
      "hire": 7675,
      "jam": 7676,
      "jake": 7677,
      "kr": 7678,
      "math": 7679,
      "mounting": 7680,
      "nur": 7681,
      "pop": 7682,
      "sinc": 7683,
      "tall": 7684,
      "vand": 7685,
      "vague": 7686,
      "wend": 7687,
      "##iw": 7688,
      "##ius": 7689,
      "##ios": 7690,
      "##function": 7691,
      "##away": 7692,
      "##west": 7693,
      "##bing": 7694,
      "##kowski": 7695,
      "##xy": 7696,
      "##inct": 7697,
      "##icing": 7698,
      "##icop": 7699,
      "##isher": 7700,
      "##reach": 7701,
      "##acity": 7702,
      "repair": 7703,
      "donate": 7704,
      "donation": 7705,
      "##think": 7706,
      "seg": 7707,
      "client": 7708,
      "frag": 7709,
      "abuses": 7710,
      "hait": 7711,
      "unh": 7712,
      "##iell": 7713,
      "goals": 7714,
      "exists": 7715,
      "spying": 7716,
      "causing": 7717,
      "##antis": 7718,
      "plug": 7719,
      "##rah": 7720,
      "##asters": 7721,
      "scrap": 7722,
      "timing": 7723,
      "intention": 7724,
      "##ibr": 7725,
      "expose": 7726,
      "governing": 7727,
      "##aph": 7728,
      "commem": 7729,
      "##eck": 7730,
      "knock": 7731,
      "considers": 7732,
      "recons": 7733,
      "recession": 7734,
      "drama": 7735,
      "##ques": 7736,
      "stress": 7737,
      "computer": 7738,
      "boom": 7739,
      "boast": 7740,
      "boys": 7741,
      "interrog": 7742,
      "contrace": 7743,
      "contact": 7744,
      "insp": 7745,
      "secretly": 7746,
      "charter": 7747,
      "finish": 7748,
      "##makers": 7749,
      "elites": 7750,
      "##rupts": 7751,
      "edward": 7752,
      "retiring": 7753,
      "deniers": 7754,
      "swift": 7755,
      "personnel": 7756,
      "cease": 7757,
      "ideological": 7758,
      "rallying": 7759,
      "2001": 7760,
      "returning": 7761,
      "excess": 7762,
      "employers": 7763,
      "doubles": 7764,
      "petra": 7765,
      "aware": 7766,
      "murkowski": 7767,
      "cybers": 7768,
      "ignores": 7769,
      "uncle": 7770,
      "accepting": 7771,
      "statues": 7772,
      "sadly": 7773,
      "maga": 7774,
      "punished": 7775,
      "briefly": 7776,
      "bobby": 7777,
      "##iament": 7778,
      "audit": 7779,
      "warnings": 7780,
      "reversal": 7781,
      "mosque": 7782,
      "distract": 7783,
      "initiatives": 7784,
      "square": 7785,
      "flooding": 7786,
      "scenar": 7787,
      "alarming": 7788,
      "physical": 7789,
      "pundit": 7790,
      "newtown": 7791,
      "lays": 7792,
      "subpoenas": 7793,
      "surprisingly": 7794,
      "license": 7795,
      "reactions": 7796,
      "pregnancy": 7797,
      "karen": 7798,
      "pharm": 7799,
      "insulted": 7800,
      "dirt": 7801,
      "athletes": 7802,
      "alien": 7803,
      "mystery": 7804,
      "uncertainty": 7805,
      "columnist": 7806,
      "concealed": 7807,
      "reckless": 7808,
      "rifle": 7809,
      "degree": 7810,
      "conscience": 7811,
      "vigil": 7812,
      "surrogate": 7813,
      "shaping": 7814,
      "loophole": 7815,
      "aaron": 7816,
      "farewell": 7817,
      "legitimacy": 7818,
      "baldwin": 7819,
      "apprentice": 7820,
      "substance": 7821,
      "reputation": 7822,
      "basket": 7823,
      "##opoulos": 7824,
      "cassidy": 7825,
      "parliament": 7826,
      "vandal": 7827,
      "43": 7828,
      "91": 7829,
      "ay": 7830,
      "agr": 7831,
      "brett": 7832,
      "dys": 7833,
      "daugh": 7834,
      "dyn": 7835,
      "fo": 7836,
      "fence": 7837,
      "gaining": 7838,
      "gang": 7839,
      "gulf": 7840,
      "hike": 7841,
      "horse": 7842,
      "jet": 7843,
      "jind": 7844,
      "kany": 7845,
      "nick": 7846,
      "pocket": 7847,
      "qa": 7848,
      "qan": 7849,
      "rican": 7850,
      "rage": 7851,
      "rour": 7852,
      "sin": 7853,
      "sons": 7854,
      "sister": 7855,
      "tend": 7856,
      "zones": 7857,
      "##pel": 7858,
      "##iams": 7859,
      "##field": 7860,
      "##ev": 7861,
      "##ex": 7862,
      "##eus": 7863,
      "##cend": 7864,
      "##hill": 7865,
      "##bage": 7866,
      "##box": 7867,
      "##oning": 7868,
      "##oration": 7869,
      "##eda": 7870,
      "tools": 7871,
      "##oul": 7872,
      "##icter": 7873,
      "inher": 7874,
      "inner": 7875,
      "ang": 7876,
      "anonymous": 7877,
      "trap": 7878,
      "trau": 7879,
      "##omen": 7880,
      "##acon": 7881,
      "dea": 7882,
      "whit": 7883,
      "##opard": 7884,
      "shots": 7885,
      "##cell": 7886,
      "weight": 7887,
      "climb": 7888,
      "##unting": 7889,
      "preserve": 7890,
      "##ula": 7891,
      "hav": 7892,
      "habit": 7893,
      "leaning": 7894,
      "##osis": 7895,
      "hasht": 7896,
      "span": 7897,
      "enorm": 7898,
      "enlist": 7899,
      "##uded": 7900,
      "causes": 7901,
      "wors": 7902,
      "##odies": 7903,
      "##aste": 7904,
      "arrog": 7905,
      "gross": 7906,
      "##agers": 7907,
      "##ongering": 7908,
      "brill": 7909,
      "scor": 7910,
      "score": 7911,
      "##eman": 7912,
      "manner": 7913,
      "intense": 7914,
      "governance": 7915,
      "drain": 7916,
      "drones": 7917,
      "##aved": 7918,
      "strict": 7919,
      "stricter": 7920,
      "rove": 7921,
      "carrying": 7922,
      "tapper": 7923,
      "interpret": 7924,
      "depends": 7925,
      "medal": 7926,
      "context": 7927,
      "nominating": 7928,
      "insider": 7929,
      "insane": 7930,
      "hadn": 7931,
      "##umed": 7932,
      "desantis": 7933,
      "jeopard": 7934,
      "##otted": 7935,
      "##gery": 7936,
      "surf": 7937,
      "fines": 7938,
      "takeover": 7939,
      "maher": 7940,
      "phony": 7941,
      "turner": 7942,
      "mining": 7943,
      "barry": 7944,
      "conservatism": 7945,
      "retweet": 7946,
      "revive": 7947,
      "revised": 7948,
      "militants": 7949,
      "species": 7950,
      "chiefs": 7951,
      "colon": 7952,
      "extension": 7953,
      "despair": 7954,
      "vetoes": 7955,
      "executed": 7956,
      "airlines": 7957,
      "visited": 7958,
      "waterboard": 7959,
      "halts": 7960,
      "addresses": 7961,
      "##licals": 7962,
      "strategic": 7963,
      "younger": 7964,
      "links": 7965,
      "closely": 7966,
      "allegation": 7967,
      "represents": 7968,
      "doubled": 7969,
      "attempting": 7970,
      "favors": 7971,
      "checking": 7972,
      "jailed": 7973,
      "burning": 7974,
      "prediction": 7975,
      "skills": 7976,
      "complained": 7977,
      "injection": 7978,
      "injury": 7979,
      "bullying": 7980,
      "ukrain": 7981,
      "generally": 7982,
      "memoir": 7983,
      "oversee": 7984,
      "entered": 7985,
      "contribution": 7986,
      "occurred": 7987,
      "cancels": 7988,
      "describes": 7989,
      "suspends": 7990,
      "embraced": 7991,
      "capitalism": 7992,
      "disappear": 7993,
      "customs": 7994,
      "holidays": 7995,
      "dodges": 7996,
      "determined": 7997,
      "jumps": 7998,
      "narc": 7999,
      "dominated": 8000,
      "frequ": 8001,
      "contractors": 8002,
      "renewable": 8003,
      "participate": 8004,
      "denounced": 8005,
      "babies": 8006,
      "meaningful": 8007,
      "type": 8008,
      "britain": 8009,
      "collective": 8010,
      "permission": 8011,
      "cooperation": 8012,
      "permanently": 8013,
      "stalled": 8014,
      "remarkable": 8015,
      "laura": 8016,
      "fascist": 8017,
      "fetal": 8018,
      "##breaking": 8019,
      "contentious": 8020,
      "gillibr": 8021,
      "podcast": 8022,
      "abusers": 8023,
      "papers": 8024,
      "endangered": 8025,
      "macron": 8026,
      "attract": 8027,
      "academ": 8028,
      "rewrite": 8029,
      "hidden": 8030,
      "inaccurate": 8031,
      "extraordinary": 8032,
      "hedge": 8033,
      "carrier": 8034,
      "plaintiffs": 8035,
      "yeah": 8036,
      "skepticism": 8037,
      "dilemma": 8038,
      "petraeus": 8039,
      "jindal": 8040,
      "kanye": 8041,
      "qanon": 8042,
      "rourke": 8043,
      "hashtag": 8044,
      "gillibrand": 8045,
      "47": 8046,
      "aids": 8047,
      "bat": 8048,
      "baker": 8049,
      "fulf": 8050,
      "gent": 8051,
      "hen": 8052,
      "hay": 8053,
      "kate": 8054,
      "les": 8055,
      "lights": 8056,
      "mocking": 8057,
      "nas": 8058,
      "nerv": 8059,
      "pens": 8060,
      "ri": 8061,
      "si": 8062,
      "xen": 8063,
      "zone": 8064,
      "zeal": 8065,
      "##ped": 8066,
      "##lands": 8067,
      "##life": 8068,
      "##iates": 8069,
      "##fri": 8070,
      "##rd": 8071,
      "##rest": 8072,
      "##rial": 8073,
      "##nell": 8074,
      "##dled": 8075,
      "##oly": 8076,
      "##mos": 8077,
      "##mel": 8078,
      "##yd": 8079,
      "##yer": 8080,
      "##eds": 8081,
      "##itate": 8082,
      "insec": 8083,
      "retr": 8084,
      "reass": 8085,
      "##omfort": 8086,
      "anderson": 8087,
      "stere": 8088,
      "beau": 8089,
      "concept": 8090,
      "##ocracy": 8091,
      "chosen": 8092,
      "##esty": 8093,
      "shell": 8094,
      "##tered": 8095,
      "##ching": 8096,
      "abd": 8097,
      "hair": 8098,
      "notion": 8099,
      "demograph": 8100,
      "excell": 8101,
      "proved": 8102,
      "spends": 8103,
      "lav": 8104,
      "enact": 8105,
      "enjoy": 8106,
      "williams": 8107,
      "cave": 8108,
      "caut": 8109,
      "##endum": 8110,
      "##abe": 8111,
      "liby": 8112,
      "offense": 8113,
      "2000": 8114,
      "bland": 8115,
      "grid": 8116,
      "loose": 8117,
      "brid": 8118,
      "marsh": 8119,
      "##elled": 8120,
      "export": 8121,
      "counts": 8122,
      "quo": 8123,
      "quarant": 8124,
      "default": 8125,
      "struct": 8126,
      "rogue": 8127,
      "theme": 8128,
      "contrary": 8129,
      "contracts": 8130,
      "insiders": 8131,
      "##ogy": 8132,
      "pollution": 8133,
      "slip": 8134,
      "electric": 8135,
      "phoen": 8136,
      "convictions": 8137,
      "terry": 8138,
      "terrifying": 8139,
      "discred": 8140,
      "racists": 8141,
      "departure": 8142,
      "194": 8143,
      "smoke": 8144,
      "##bridge": 8145,
      "stepped": 8146,
      "centrist": 8147,
      "treason": 8148,
      "recording": 8149,
      "activism": 8150,
      "solic": 8151,
      "handed": 8152,
      "travelers": 8153,
      "juan": 8154,
      "divor": 8155,
      "richest": 8156,
      "informed": 8157,
      "wedding": 8158,
      "universities": 8159,
      "prosecution": 8160,
      "interviews": 8161,
      "equity": 8162,
      "##forte": 8163,
      "responders": 8164,
      "industries": 8165,
      "discussions": 8166,
      "enforcing": 8167,
      "predicts": 8168,
      "baseless": 8169,
      "towns": 8170,
      "english": 8171,
      "fixing": 8172,
      "maint": 8173,
      "apologized": 8174,
      "remembering": 8175,
      "tenure": 8176,
      "felon": 8177,
      "mistaken": 8178,
      "developing": 8179,
      "cheap": 8180,
      "melt": 8181,
      "medicine": 8182,
      "delayed": 8183,
      "250": 8184,
      "circle": 8185,
      "cambridge": 8186,
      "priorit": 8187,
      "purge": 8188,
      "reverses": 8189,
      "appointment": 8190,
      "appointee": 8191,
      "teaching": 8192,
      "capacity": 8193,
      "searching": 8194,
      "encourage": 8195,
      "slowly": 8196,
      "landsc": 8197,
      "scene": 8198,
      "competitive": 8199,
      "transparent": 8200,
      "traditionally": 8201,
      "dedicated": 8202,
      "contradict": 8203,
      "volunte": 8204,
      "chapter": 8205,
      "surrounding": 8206,
      "routine": 8207,
      "mentally": 8208,
      "incredible": 8209,
      "impressive": 8210,
      "roughly": 8211,
      "##idelines": 8212,
      "products": 8213,
      "logic": 8214,
      "assaulting": 8215,
      "gianforte": 8216,
      "jesus": 8217,
      "rahm": 8218,
      "precedent": 8219,
      "territory": 8220,
      "affirm": 8221,
      "advertising": 8222,
      "analytica": 8223,
      "rosenstein": 8224,
      "episode": 8225,
      "aisle": 8226,
      "wendy": 8227,
      "agricult": 8228,
      "dysfunction": 8229,
      "daughters": 8230,
      "qaeda": 8231,
      "xenophob": 8232,
      "stereotyp": 8233,
      "phoenix": 8234,
      "44": 8235,
      "burr": 8236,
      "czar": 8237,
      "dim": 8238,
      "fury": 8239,
      "gig": 8240,
      "greed": 8241,
      "hiv": 8242,
      "ire": 8243,
      "jenn": 8244,
      "lame": 8245,
      "luck": 8246,
      "maker": 8247,
      "nin": 8248,
      "nut": 8249,
      "ot": 8250,
      "oce": 8251,
      "ought": 8252,
      "ousted": 8253,
      "pose": 8254,
      "pair": 8255,
      "pause": 8256,
      "pizz": 8257,
      "ross": 8258,
      "sway": 8259,
      "tub": 8260,
      "xl": 8261,
      "##poken": 8262,
      "##lide": 8263,
      "##rina": 8264,
      "##ga": 8265,
      "##gun": 8266,
      "##noon": 8267,
      "##mart": 8268,
      "##wau": 8269,
      "##har": 8270,
      "##head": 8271,
      "##bors": 8272,
      "##jud": 8273,
      "##jamin": 8274,
      "##inn": 8275,
      "theater": 8276,
      "##enger": 8277,
      "##alle": 8278,
      "touted": 8279,
      "##ication": 8280,
      "##ita": 8281,
      "##enthold": 8282,
      "deem": 8283,
      "deaf": 8284,
      "stol": 8285,
      "stable": 8286,
      "whites": 8287,
      "##uten": 8288,
      "bee": 8289,
      "bears": 8290,
      "heb": 8291,
      "height": 8292,
      "##ads": 8293,
      "##adows": 8294,
      "nears": 8295,
      "##verage": 8296,
      "chicken": 8297,
      "##ested": 8298,
      "shop": 8299,
      "donated": 8300,
      "seal": 8301,
      "preserv": 8302,
      "##iev": 8303,
      "##acked": 8304,
      "##iable": 8305,
      "extr": 8306,
      "exagger": 8307,
      "haspel": 8308,
      "enh": 8309,
      "worries": 8310,
      "##abil": 8311,
      "plut": 8312,
      "##odes": 8313,
      "liked": 8314,
      "allen": 8315,
      "clintons": 8316,
      "orrin": 8317,
      "justin": 8318,
      "resett": 8319,
      "afternoon": 8320,
      "blake": 8321,
      "blunt": 8322,
      "grip": 8323,
      "nobel": 8324,
      "twenty": 8325,
      "attitudes": 8326,
      "brib": 8327,
      "maria": 8328,
      "managed": 8329,
      "##ecurity": 8330,
      "dress": 8331,
      "string": 8332,
      "roots": 8333,
      "boasted": 8334,
      "impose": 8335,
      "beck": 8336,
      "helicop": 8337,
      "admir": 8338,
      "debacle": 8339,
      "confusing": 8340,
      "confusion": 8341,
      "##orders": 8342,
      "parad": 8343,
      "advanced": 8344,
      "letters": 8345,
      "slaughter": 8346,
      "benjamin": 8347,
      "michele": 8348,
      "milwau": 8349,
      "departments": 8350,
      "transl": 8351,
      "retal": 8352,
      "generals": 8353,
      "postp": 8354,
      "farenthold": 8355,
      "committees": 8356,
      "militia": 8357,
      "northam": 8358,
      "promoted": 8359,
      "legislatures": 8360,
      "hearts": 8361,
      "questionable": 8362,
      "suburb": 8363,
      "seemingly": 8364,
      "systemic": 8365,
      "player": 8366,
      "empathy": 8367,
      "prevail": 8368,
      "provoc": 8369,
      "walks": 8370,
      "illness": 8371,
      "reduction": 8372,
      "profiling": 8373,
      "differently": 8374,
      "##borough": 8375,
      "ahmed": 8376,
      "prisoner": 8377,
      "potus": 8378,
      "returned": 8379,
      "regularly": 8380,
      "exclusion": 8381,
      "employment": 8382,
      "flying": 8383,
      "endorsements": 8384,
      "satisf": 8385,
      "lowest": 8386,
      "jailhouse": 8387,
      "emerging": 8388,
      "defeating": 8389,
      "artist": 8390,
      "garbage": 8391,
      "skip": 8392,
      "booker": 8393,
      "##ette": 8394,
      "maintain": 8395,
      "defenders": 8396,
      "seekers": 8397,
      "elsewhere": 8398,
      "lieuten": 8399,
      "bullet": 8400,
      "existence": 8401,
      "formally": 8402,
      "wildlife": 8403,
      "vaccines": 8404,
      "operatives": 8405,
      "brave": 8406,
      "portra": 8407,
      "followers": 8408,
      "philos": 8409,
      "diplomat": 8410,
      "improving": 8411,
      "hamas": 8412,
      "persu": 8413,
      "requirement": 8414,
      "exceptional": 8415,
      "motion": 8416,
      "customers": 8417,
      "hypocr": 8418,
      "lifting": 8419,
      "digital": 8420,
      "laughing": 8421,
      "forgot": 8422,
      "organizers": 8423,
      "cyberatt": 8424,
      "touching": 8425,
      "devastated": 8426,
      "witnesses": 8427,
      "antonio": 8428,
      "osc": 8429,
      "dramatically": 8430,
      "institute": 8431,
      "migrants": 8432,
      "disabled": 8433,
      "trickle": 8434,
      "neighborhood": 8435,
      "neighborhoods": 8436,
      "defunding": 8437,
      "evangelicals": 8438,
      "katrina": 8439,
      "resolve": 8440,
      "sharply": 8441,
      "mirr": 8442,
      "essentially": 8443,
      "optimism": 8444,
      "referendum": 8445,
      "physician": 8446,
      "coward": 8447,
      "vehicle": 8448,
      "certificate": 8449,
      "crowds": 8450,
      "echo": 8451,
      "bankruptcy": 8452,
      "kirsten": 8453,
      "scholars": 8454,
      "inevitable": 8455,
      "theorist": 8456,
      "cantor": 8457,
      "wildfires": 8458,
      "commercial": 8459,
      "infamous": 8460,
      "hobby": 8461,
      "monopoly": 8462,
      "douglas": 8463,
      "bachmann": 8464,
      "intolerance": 8465,
      "dignity": 8466,
      "##apolis": 8467,
      "reconsider": 8468,
      "contraception": 8469,
      "cybersecurity": 8470,
      "narciss": 8471,
      "henry": 8472,
      "##friend": 8473,
      "libya": 8474,
      "divorce": 8475,
      "stolen": 8476,
      "milwaukee": 8477,
      "700": 8478,
      "800": 8479,
      "ailes": 8480,
      "brat": 8481,
      "dc": 8482,
      "dial": 8483,
      "dyl": 8484,
      "erupts": 8485,
      "foster": 8486,
      "git": 8487,
      "gag": 8488,
      "giff": 8489,
      "hhs": 8490,
      "kay": 8491,
      "kur": 8492,
      "luc": 8493,
      "lord": 8494,
      "owe": 8495,
      "oops": 8496,
      "pound": 8497,
      "pages": 8498,
      "pension": 8499,
      "ty": 8500,
      "woke": 8501,
      "waging": 8502,
      "woes": 8503,
      "##pass": 8504,
      "##rine": 8505,
      "##ralia": 8506,
      "##vi": 8507,
      "##ae": 8508,
      "##gy": 8509,
      "##dr": 8510,
      "##wall": 8511,
      "##can": 8512,
      "##ka": 8513,
      "##20": 8514,
      "thwart": 8515,
      "##ena": 8516,
      "##inge": 8517,
      "##areness": 8518,
      "##edict": 8519,
      "toome": 8520,
      "##ici": 8521,
      "institutional": 8522,
      "##rep": 8523,
      "##leans": 8524,
      "##storm": 8525,
      "andy": 8526,
      "deleted": 8527,
      "sta": 8528,
      "neck": 8529,
      "chilling": 8530,
      "##thr": 8531,
      "asia": 8532,
      "abc": 8533,
      "unra": 8534,
      "unable": 8535,
      "newest": 8536,
      "deme": 8537,
      "spill": 8538,
      "obtain": 8539,
      "cod": 8540,
      "meghan": 8541,
      "orleans": 8542,
      "outgoing": 8543,
      "outbre": 8544,
      "justification": 8545,
      "teams": 8546,
      "grants": 8547,
      "disasters": 8548,
      "attending": 8549,
      "marked": 8550,
      "married": 8551,
      "mans": 8552,
      "evident": 8553,
      "##ernity": 8554,
      "##ernick": 8555,
      "firms": 8556,
      "appall": 8557,
      "flash": 8558,
      "drown": 8559,
      "drink": 8560,
      "decisive": 8561,
      "##avin": 8562,
      "##aving": 8563,
      "deferred": 8564,
      "##quer": 8565,
      "moines": 8566,
      "##retch": 8567,
      "boots": 8568,
      "invite": 8569,
      "##athers": 8570,
      "depr": 8571,
      "deploy": 8572,
      "##auliff": 8573,
      "probing": 8574,
      "confron": 8575,
      "perdue": 8576,
      "contained": 8577,
      "##ourse": 8578,
      "beto": 8579,
      "nationalism": 8580,
      "##epernick": 8581,
      "advers": 8582,
      "writer": 8583,
      "assert": 8584,
      "assume": 8585,
      "guid": 8586,
      "electron": 8587,
      "shoots": 8588,
      "mccabe": 8589,
      "topics": 8590,
      "irre": 8591,
      "irresp": 8592,
      "passion": 8593,
      "transcrip": 8594,
      "yorker": 8595,
      "thrown": 8596,
      "standoff": 8597,
      "pressing": 8598,
      "militar": 8599,
      "promotes": 8600,
      "relevant": 8601,
      "dangers": 8602,
      "midst": 8603,
      "announcing": 8604,
      "vets": 8605,
      "##boy": 8606,
      "expects": 8607,
      "detect": 8608,
      "erdog": 8609,
      "embold": 8610,
      "airstr": 8611,
      "hostage": 8612,
      "mayoral": 8613,
      "2007": 8614,
      "2006": 8615,
      "2005": 8616,
      "modest": 8617,
      "janet": 8618,
      "snap": 8619,
      "ruin": 8620,
      "replaced": 8621,
      "strongest": 8622,
      "assaulted": 8623,
      "lining": 8624,
      "organizing": 8625,
      "alleging": 8626,
      "thousand": 8627,
      "termin": 8628,
      "awareness": 8629,
      "discriminate": 8630,
      "##istering": 8631,
      "harassed": 8632,
      "jails": 8633,
      "rejecting": 8634,
      "selma": 8635,
      "emerge": 8636,
      "credits": 8637,
      "enters": 8638,
      "smaller": 8639,
      "mcauliff": 8640,
      "praising": 8641,
      "uncomfort": 8642,
      "feelings": 8643,
      "creation": 8644,
      "inex": 8645,
      "fema": 8646,
      "##burgh": 8647,
      "hoax": 8648,
      "delivering": 8649,
      "kimmel": 8650,
      "cultural": 8651,
      "negotiate": 8652,
      "portray": 8653,
      "slamming": 8654,
      "merkel": 8655,
      "celebrity": 8656,
      "morgan": 8657,
      "hunter": 8658,
      "130": 8659,
      "hammer": 8660,
      "joni": 8661,
      "commentator": 8662,
      "overtime": 8663,
      "roads": 8664,
      "painful": 8665,
      "scarborough": 8666,
      "sacred": 8667,
      "connected": 8668,
      "lifetime": 8669,
      "perfectly": 8670,
      "inspiring": 8671,
      "curt": 8672,
      "spray": 8673,
      "neighbors": 8674,
      "freak": 8675,
      "landslide": 8676,
      "renewed": 8677,
      "haters": 8678,
      "clarence": 8679,
      "patriotic": 8680,
      "indicated": 8681,
      "exchan": 8682,
      "lockdown": 8683,
      "homic": 8684,
      "odd": 8685,
      "fundament": 8686,
      "permit": 8687,
      "homelessness": 8688,
      "australia": 8689,
      "kirk": 8690,
      "screen": 8691,
      "yellen": 8692,
      "unveil": 8693,
      "fiery": 8694,
      "atlantic": 8695,
      "sponsored": 8696,
      "pivotal": 8697,
      "lauren": 8698,
      "various": 8699,
      "surrender": 8700,
      "route": 8701,
      "sympath": 8702,
      "prompted": 8703,
      "darren": 8704,
      "shifts": 8705,
      "shifting": 8706,
      "concede": 8707,
      "experienced": 8708,
      "congratulations": 8709,
      "dubious": 8710,
      "groping": 8711,
      "obligation": 8712,
      "catastrophe": 8713,
      "frightening": 8714,
      "misogyny": 8715,
      "fleeing": 8716,
      "kaepernick": 8717,
      "notorious": 8718,
      "reconcil": 8719,
      "triumph": 8720,
      "bogus": 8721,
      "library": 8722,
      "fabric": 8723,
      "rapidly": 8724,
      "excessive": 8725,
      "brilliant": 8726,
      "waterboarding": 8727,
      "nasa": 8728,
      "hebdo": 8729,
      "lieutenant": 8730,
      "giffords": 8731,
      "toomey": 8732,
      "unravel": 8733,
      "irrespons": 8734,
      "erdogan": 8735,
      "mcauliffe": 8736,
      "84": 8737,
      "99": 8738,
      "auth": 8739,
      "bust": 8740,
      "bib": 8741,
      "borders": 8742,
      "cul": 8743,
      "cbs": 8744,
      "et": 8745,
      "eating": 8746,
      "gavin": 8747,
      "kath": 8748,
      "mud": 8749,
      "mour": 8750,
      "nic": 8751,
      "nig": 8752,
      "nurs": 8753,
      "nathan": 8754,
      "nba": 8755,
      "pie": 8756,
      "pee": 8757,
      "rages": 8758,
      "sink": 8759,
      "tip": 8760,
      "tum": 8761,
      "tyr": 8762,
      "vic": 8763,
      "vent": 8764,
      "yale": 8765,
      "##pe": 8766,
      "##point": 8767,
      "##lan": 8768,
      "##iors": 8769,
      "##fk": 8770,
      "##ta": 8771,
      "##roc": 8772,
      "##east": 8773,
      "##oints": 8774,
      "##mad": 8775,
      "##manship": 8776,
      "##com": 8777,
      "##erly": 8778,
      "##eration": 8779,
      "##once": 8780,
      "##enomen": 8781,
      "##icate": 8782,
      "##icable": 8783,
      "##icient": 8784,
      "##isk": 8785,
      "ingr": 8786,
      "inaction": 8787,
      "anc": 8788,
      "##recy": 8789,
      "prince": 8790,
      "trude": 8791,
      "forth": 8792,
      "stability": 8793,
      "sticking": 8794,
      "whip": 8795,
      "##amil": 8796,
      "##ocol": 8797,
      "chip": 8798,
      "ship": 8799,
      "##char": 8800,
      "clients": 8801,
      "presence": 8802,
      "hails": 8803,
      "suck": 8804,
      "uncover": 8805,
      "lect": 8806,
      "notes": 8807,
      "noticed": 8808,
      "##artisanship": 8809,
      "exh": 8810,
      "spoil": 8811,
      "doom": 8812,
      "crit": 8813,
      "caution": 8814,
      "overlo": 8815,
      "household": 8816,
      "##itical": 8817,
      "element": 8818,
      "##trump": 8819,
      "statewide": 8820,
      "statehouse": 8821,
      "blat": 8822,
      "blistering": 8823,
      "grade": 8824,
      "noise": 8825,
      "noah": 8826,
      "secrets": 8827,
      "secrecy": 8828,
      "bruce": 8829,
      "warner": 8830,
      "scra": 8831,
      "evol": 8832,
      "##elling": 8833,
      "intens": 8834,
      "expire": 8835,
      "queen": 8836,
      "consist": 8837,
      "##ensible": 8838,
      "drivers": 8839,
      "decency": 8840,
      "defiant": 8841,
      "##quarters": 8842,
      "incor": 8843,
      "inclusive": 8844,
      "admission": 8845,
      "banking": 8846,
      "debating": 8847,
      "emmanuel": 8848,
      "peril": 8849,
      "oprah": 8850,
      "##uming": 8851,
      "syn": 8852,
      "synd": 8853,
      "genius": 8854,
      "infl": 8855,
      "slash": 8856,
      "assass": 8857,
      "relent": 8858,
      "verge": 8859,
      "phenomen": 8860,
      "shooters": 8861,
      "owns": 8862,
      "racially": 8863,
      "barg": 8864,
      "blacks": 8865,
      "soccer": 8866,
      "serge": 8867,
      "swe": 8868,
      "swipe": 8869,
      "speakers": 8870,
      "specific": 8871,
      "headquarters": 8872,
      "dana": 8873,
      "hardest": 8874,
      "restr": 8875,
      "reads": 8876,
      "readers": 8877,
      "extended": 8878,
      "##onny": 8879,
      "recorded": 8880,
      "vetting": 8881,
      "activities": 8882,
      "apocal": 8883,
      "shuts": 8884,
      "airline": 8885,
      "founding": 8886,
      "declining": 8887,
      "declaring": 8888,
      "firef": 8889,
      "juven": 8890,
      "##force": 8891,
      "costly": 8892,
      "divest": 8893,
      "##riers": 8894,
      "2003": 8895,
      "unders": 8896,
      "factor": 8897,
      "remained": 8898,
      "privately": 8899,
      "hateful": 8900,
      "exclud": 8901,
      "doubts": 8902,
      "representing": 8903,
      "predecess": 8904,
      "eventually": 8905,
      "removes": 8906,
      "bashing": 8907,
      "struggled": 8908,
      "researchers": 8909,
      "counselor": 8910,
      "acceptable": 8911,
      "avoids": 8912,
      "feminist": 8913,
      "tradem": 8914,
      "revealing": 8915,
      "holy": 8916,
      "furious": 8917,
      "vaccination": 8918,
      "bipartisanship": 8919,
      "hallow": 8920,
      "sounded": 8921,
      "environmentalists": 8922,
      "ranks": 8923,
      "respects": 8924,
      "reneg": 8925,
      "alongside": 8926,
      "trolling": 8927,
      "entertain": 8928,
      "professors": 8929,
      "updated": 8930,
      "recognized": 8931,
      "obsession": 8932,
      "scrip": 8933,
      "embracing": 8934,
      "tracking": 8935,
      "tribal": 8936,
      "jonathan": 8937,
      "hotels": 8938,
      "introduces": 8939,
      "motor": 8940,
      "hospitalized": 8941,
      "window": 8942,
      "walkout": 8943,
      "disgraced": 8944,
      "participation": 8945,
      "conducted": 8946,
      "pleaded": 8947,
      "honestly": 8948,
      "awards": 8949,
      "##works": 8950,
      "##itzer": 8951,
      "unequ": 8952,
      "karl": 8953,
      "wounds": 8954,
      "airports": 8955,
      "islamophobic": 8956,
      "contradicts": 8957,
      "mysterious": 8958,
      "dictators": 8959,
      "disparities": 8960,
      "revenue": 8961,
      "outlaw": 8962,
      "plagiar": 8963,
      "rumors": 8964,
      "purchase": 8965,
      "ecl": 8966,
      "widow": 8967,
      "anxiety": 8968,
      "explosive": 8969,
      "reopen": 8970,
      "revolt": 8971,
      "conventional": 8972,
      "slightly": 8973,
      "hogan": 8974,
      "prescription": 8975,
      "therap": 8976,
      "demagog": 8977,
      "inspector": 8978,
      "penalties": 8979,
      "demonstrations": 8980,
      "sustainable": 8981,
      "tolerance": 8982,
      "craft": 8983,
      "nurse": 8984,
      "##iello": 8985,
      "interrogation": 8986,
      "inspire": 8987,
      "ukrainian": 8988,
      "lesb": 8989,
      "nervous": 8990,
      "excellent": 8991,
      "meltdown": 8992,
      "landscape": 8993,
      "gitmo": 8994,
      "staunch": 8995,
      "guidance": 8996,
      "uncomfortable": 8997,
      "fundamentally": 8998,
      "trudeau": 8999,
      "34": 9000,
      "37": 9001,
      "46": 9002,
      "72": 9003,
      "bart": 9004,
      "bitch": 9005,
      "cem": 9006,
      "cec": 9007,
      "dance": 9008,
      "doss": 9009,
      "faster": 9010,
      "fighter": 9011,
      "gal": 9012,
      "gained": 9013,
      "hond": 9014,
      "hitting": 9015,
      "hikes": 9016,
      "jun": 9017,
      "kurd": 9018,
      "pon": 9019,
      "pul": 9020,
      "perr": 9021,
      "pump": 9022,
      "sir": 9023,
      "tas": 9024,
      "tun": 9025,
      "tie": 9026,
      "torn": 9027,
      "tank": 9028,
      "uc": 9029,
      "vouch": 9030,
      "##ping": 9031,
      "##lk": 9032,
      "##lson": 9033,
      "##fund": 9034,
      "##rome": 9035,
      "##zing": 9036,
      "##eign": 9037,
      "##ni": 9038,
      "##mail": 9039,
      "##umm": 9040,
      "##cul": 9041,
      "##cia": 9042,
      "##hol": 9043,
      "##hren": 9044,
      "##orous": 9045,
      "##arians": 9046,
      "##asse": 9047,
      "##ente": 9048,
      "reh": 9049,
      "rejection": 9050,
      "##repres": 9051,
      "##lections": 9052,
      "##step": 9053,
      "stiff": 9054,
      "stumb": 9055,
      "straw": 9056,
      "isil": 9057,
      "bell": 9058,
      "beats": 9059,
      "##olent": 9060,
      "##immer": 9061,
      "neur": 9062,
      "##vereign": 9063,
      "sha": 9064,
      "shakes": 9065,
      "shred": 9066,
      "shopping": 9067,
      "reps": 9068,
      "##chool": 9069,
      "segment": 9070,
      "aspir": 9071,
      "clip": 9072,
      "clashes": 9073,
      "preschool": 9074,
      "sums": 9075,
      "unhing": 9076,
      "unkn": 9077,
      "##tsburgh": 9078,
      "exceed": 9079,
      "spur": 9080,
      "enacted": 9081,
      "ade": 9082,
      "meadows": 9083,
      "alb": 9084,
      "uphill": 9085,
      "##iann": 9086,
      "##encement": 9087,
      "##aceut": 9088,
      "##agu": 9089,
      "partial": 9090,
      "scare": 9091,
      "##ibus": 9092,
[...]
