{"!":0,"\"":1,"#":2,"$":3,"%":4,"&":5,"'":6,"(":7,")":8,"*":9,"+":10,",":11,"-":12,".":13,"/":14,"0":15,"1":16,"2":17,"3":18,"4":19,"5":20,"6":21,"7":22,"8":23,"9":24,":":25,";":26,"<":27,"=":28,">":29,"?":30,"@":31,"A":32,"B":33,"C":34,"D":35,"E":36,"F":37,"G":38,"H":39,"I":40,"J":41,"K":42,"L":43,"M":44,"N":45,"O":46,"P":47,"Q":48,"R":49,"S":50,"T":51,"U":52,"V":53,"W":54,"X":55,"Y":56,"Z":57,"[":58,"\\":59,"]":60,"^":61,"_":62,"`":63,"a":64,"b":65,"c":66,"d":67,"e":68,"f":69,"g":70,"h":71,"i":72,"j":73,"k":74,"l":75,"m":76,"n":77,"o":78,"p":79,"q":80,"r":81,"s":82,"t":83,"u":84,"v":85,"w":86,"x":87,"y":88,"z":89,"{":90,"|":91,"}":92,"~":93,"¡":94,"¢":95,"£":96,"¤":97,"¥":98,"¦":99,"§":100,"¨":101,"©":102,"ª":103,"«":104,"¬":105,"®":106,"¯":107,"°":108,"±":109,"²":110,"³":111,"´":112,"µ":113,"¶":114,"·":115,"¸":116,"¹":117,"º":118,"»":119,"¼":120,"½":121,"¾":122,"¿":123,"À":124,"Á":125,"Â":126,"Ã":127,"Ä":128,"Å":129,"Æ":130,"Ç":131,"È":132,"É":133,"Ê":134,"Ë":135,"Ì":136,"Í":137,"Î":138,"Ï":139,"Ð":140,"Ñ":141,"Ò":142,"Ó":143,"Ô":144,"Õ":145,"Ö":146,"×":147,"Ø":148,"Ù":149,"Ú":150,"Û":151,"Ü":152,"Ý":153,"Þ":154,"ß":155,"à":156,"á":157,"â":158,"ã":159,"ä":160,"å":161,"æ":162,"ç":163,"è":164,"é":165,"ê":166,"ë":167,"ì":168,"í":169,"î":170,"ï":171,"ð":172,"ñ":173,"ò":174,"ó":175,"ô":176,"õ":177,"ö":178,"÷":179,"ø":180,"ù":181,"ú":182,"û":183,"ü":184,"ý":185,"þ":186,"ÿ":187,"Ā":188,"ā":189,"Ă":190,"ă":191,"Ą":192,"ą":193,"Ć":194,"ć":195,"Ĉ":196,"ĉ":197,"Ċ":198,"ċ":199,"Č":200,"č":201,"Ď":202,"ď":203,"Đ":204,"đ":205,"Ē":206,"ē":207,"Ĕ":208,"ĕ":209,"Ė":210,"ė":211,"Ę":212,"ę":213,"Ě":214,"ě":215,"Ĝ":216,"ĝ":217,"Ğ":218,"ğ":219,"Ġ":220,"ġ":221,"Ģ":222,"ģ":223,"Ĥ":224,"ĥ":225,"Ħ":226,"ħ":227,"Ĩ":228,"ĩ":229,"Ī":230,"ī":231,"Ĭ":232,"ĭ":233,"Į":234,"į":235,"İ":236,"ı":237,"Ĳ":238,"ĳ":239,"Ĵ":240,"ĵ":241,"Ķ":242,"ķ":243,"ĸ":244,"Ĺ":245,"ĺ":246,"Ļ":247,"ļ":248,"Ľ":249,"ľ":250,"Ŀ":251,"ŀ":252,"Ł":253,"ł":254,"Ń":255,"in":256,"Ġt":257,"čĊ":258,"he":259,"on":260,"er":261,"an":262,"re":263,"at":264,"ĠT":265,"en":266,"or":267,"al":268,"st":269,"Ġthe":270,"ing":271,"Ġa":272,"ou":273,"it":274,"ĠA":275,"ed":276,"ĠS":277,"is":278,"ĠC":279,"ar":280,"es":281,"ic":282,"Ġw":283,"Ġs":284,"Ġc":285,"Ġp":286,"mp":287,"ion":288,"Ġf":289,"il":290,"ĠI":291,"ĠP":292,"Ġo":293,"ĠD":294,"ru":295,"id":296,"Ġb":297,"ĠO":298,"Ġto":299,"ĠR":300,"ent":301,"ĠW":302,"ĠH":303,"le":304,"ĠB":305,"and":306,"om":307,"ĠF":308,"ĠM":309,"as":310,"Ġh":311,"ot":312,"Ġof":313,"Ġd":314,"Ġm":315,"rump":316,"Ġin":317,"'s":318,"ay":319,"ac":320,"ve":321,"ig":322,"ol":323,"âĢ":324,"res":325,"ĠTrump":326,"Ġth":327,"ow":328,"el":329,"et":330,"ĠG":331,"Ġn":332,"ĠTo":333,"ec":334,"ers":335,"ill":336,"Ġand":337,"ĠN":338,"ly":339,"The":340,"am":341,"ate":342,"im":343,"ĠThe":344,"ĠL":345,"ut":346,"ad":347,"Ġl":348,"us":349,"ep":350,"ation":351,"em":352,"nd":353,"ĠE":354,"ro":355,"ver":356,"ĠIn":357,"Ġg":358,"Ġre":359,"Ġfor":360,"Ġis":361,"ur":362,"ir":363,"Ġon":364,"se":365,"Ġe":366,"oc":367,"ld":368,"ort":369,"ist":370,"âĢĻ":371,"ct":372,"ĠU":373,"out":374,"ew":375,"ter":376,"ak":377,"Ġhe":378,"ĠOf":379,"ith":380,"ge":381,"Ġst":382,"ican":383,"Ġbe":384,"ĠJ":385,"ce":386,"ĠSt":387,"all":388,"ub":389,"ul":390,"ident":391,"Ġthat":392,"un":393,"ho":394,"our":395,"pp":396,"ri":397,"ĠFor":398,"resident":399,"mer":400,"op":401,"ra":402,"ould":403,"ts":404,"Ġ'":405,"onal":406,"igh":407,"ment":408,"ĠOn":409,"onald":410,"ore":411,"ary":412,"ĠV":413,"ack":414,"Ġit":415,"ĠRep":416,"ef":417,"Ġan":418,"ain":419,"ubl":420,"ial":421,"ave":422,"est":423,"art":424,"rom":425,"hat":426,"her":427,"'t":428,"ĠCon":429,"Ġy":430,"ĠIs":431,"ĠCl":432,"Ġcon":433,"ĠK":434,"if":435,"ch":436,"ust":437,"ity":438,"ear":439,"are":440,"ess":441,"Ġv":442,"th":443,"end":444,"iv":445,"ive":446,"os":447,"rat":448,"Ġ\"":449,"ress":450,"ee":451,"ton":452,"up":453,"ost":454,"ign":455,"bout":456,"ays":457,"Ġare":458,"ab":459,"Ġwith":460,"Ġas":461,"ome":462,"ies":463,"ublican":464,"Trump":465,"ight":466,"emoc":467,"ia":468,"ĠCh":469,"ice":470,".\"":471,"ud":472,"aw":473,"Ġat":474,"bam":475,"nt":476,"aid":477,"ant":478,"ĠDonald":479,"ast":480,"eal":481,"emocrat":482,"ke":483,"ff":484,"od":485,"ĠTh":486,"Ġhis":487,"OP":488,"Ġpresident":489,"Ġle":490,"Ġ2":491,"ĠAmer":492,"ĠY":493,"Ġhas":494,"Ġnot":495,"lect":496,"Ġhave":497,"ions":498,"inton":499,"ĠAnd":500,"ite":501,"Ġr":502,"Ġwas":503,"ry":504,"ĠRepublican":505,"ouse":506,"iz":507,"ell":508,"Ġpro":509,"Ġsaid":510,"itic":511,"ie":512,"ĠClinton":513,"Ġsh":514,"bama":515,"Ġj":516,"ect":517,"ates":518,"gress":519,"Ġpol":520,"ans":521,"amp":522,"ard":523,"ĠNew":524,"ally":525,"gh":526,"ĠDemocrat":527,"ence":528,"over":529,"ks":530,"ous":531,"âĢľ":532,"ag":533,"fter":534,"ure":535,"ake":536,"ex":537,"ĠWith":538,"ass":539,"ĠAt":540,"qu":541,"ĠGOP":542,"Ġch":543,"ĠHouse":544,"ail":545,"rou":546,"Ġex":547,"ire":548,"eb":549,"eop":550,"Ġfrom":551,"Ġ20":552,"um":553,"ork":554,"ĠSen":555,"orn":556,"und":557,"ey":558,"uc":559,"eople":560,"ĠAs":561,"Ġwill":562,"ors":563,"own":564,"ĠBe":565,"ong":566,"ĠSh":567,"Ġabout":568,"ide":569,"ord":570,"Ġthis":571,"ob":572,"ĠWh":573,"gain":574,"ĠRe":575,"Ġyou":576,"illary":577,"ĠPresident":578,"ip":579,"ap":580,"Ġwe":581,"Ġdo":582,"Ġ1":583,"Ġal":584,"ace":585,"Ġsp":586,"ĠAmerican":587,"ike":588,"ĠHe":589,"av":590,"Ġad":591,"ok":592,"Ġby":593,"ĠIt":594,"Ġwho":595,"ĠPro":596,"ampa":597,"Ġ-":598,"ĠAl":599,"ampaign":600,"cc":601,"ian":602,"rot":603,"ern":604,"age":605,"day":606,"ere":607,"ĠObama":608,"ine":609,"ime":610,"âĢĿ":611,"Donald":612,"eral":613,"ict":614,"ind":615,"ĠAn":616,"overn":617,"hen":618,"Ġnew":619,"ĠUn":620,"ĠSp":621,"ĠPol":622,"ration":623,"ourt":624,"reat":625,"Ġthey":626,"ount":627,"ther":628,"hing":629,"Ġbut":630,"omm":631,"upp":632,"ich":633,"Ġtheir":634,"ris":635,"ĠLe":636,"Ġun":637,"ble":638,"lection":639,"ĠVot":640,"ĠAbout":641,",\"":642,"Ġout":643,"ick":644,"ĠSays":645,"Ġk":646,"omp":647,"rem":648,"Ġoff":649,"ations":650,"ens":651,"ĠAd":652,"Ġmore":653,"Ġwould":654,"ĠAre":655,"Ġwh":656,"very":657,"lan":658,"Ġcan":659,"It":660,"ĠHis":661,"Ġ201":662,"Ġall":663,"Ġcl":664,"one":665,"ory":666,"to":667,"ĠSc":668,"ber":669,"Ġup":670,"Th":671,"Ġvot":672,"itt":673,"Ġone":674,"use":675,"eed":676,"Ġ--":677,"ĠEx":678,"ven":679,"ran":680,"erv":681,"eek":682,"upport":683,"orm":684,"ame":685,"uss":686,"Ġor":687,"Ġpeople":688,"gainst":689,"Ġgo":690,"hn":691,"ĠOver":692,"irst":693,"ue":694,"ĠâĢ":695,"andid":696,"ĠCongress":697,"ĠNot":698,"ret":699,"00":700,"enc":701,"ica":702,"ĠFrom":703,"ĠWhite":704,"Ġrep":705,"eat":706,"Ġlaw":707,"ĠCourt":708,"ism":709,"og":710,"old":711,"Ġcont":712,"ose":713,"ĠBl":714,"ĠHillary":715,"act":716,"eet":717,"now":718,"anders":719,"ues":720,"rim":721,"ance":722,"Ġjust":723,"ĠWar":724,"Ġour":725,"ĠBut":726,"ĠThat":727,"ĠRepublicans":728,"man":729,"oll":730,"ĠLaw":731,"ax":732,"ĠSenate":733,"Ġres":734,"ĠOff":735,"ons":736,"ise":737,"ears":738,"Ġpolitic":739,"ĠMar":740,"Ġbeen":741,"Ġwhat":742,"Ġover":743,"Ġthan":744,"iss":745,"ational":746,"ove":747,"Ġstate":748,"uprem":749,"ase":750,"ĠSec":751,"ade":752,"ning":753,"ting":754,"ink":755,"ough":756,"ely":757,"ook":758,"any":759,"ĠSanders":760,"ious":761,"oin":762,"ond":763,"able":764,"In":765,"io":766,"isc":767,"ĠWas":768,"aul":769,"arty":770,"min":771,"ĠAfter":772,"ov":773,"ĠJust":774,"omin":775,"oun":776,"ives":777,"ator":778,"ĠBill":779,"Ġatt":780,"ims":781,"ild":782,"ents":783,"Wh":784,"Ġus":785,"Ġget":786,"imp":787,"This":788,"mig":789,"ated":790,"ĠAmerica":791,"Rep":792,"ings":793,"uch":794,"ĠWe":795,"ĠDemocrats":796,"ĠDemocratic":797,"ren":798,"ile":799,"ock":800,"ĠWill":801,"He":802,"app":803,"ĠRuss":804,"ang":805,"Ġexp":806,"ernie":807,"alk":808,"ĠJo":809,"red":810,"ĠDo":811,"Ġ(":812,"Ġacc":813,"Ġcampaign":814,"Ġcould":815,"ĠOut":816,"upreme":817,"Ġpl":818,"We":819,"Ġafter":820,"ree":821,"ights":822,"ĠUp":823,"ound":824,"ĠâĢľ":825,"ĠRes":826,"ists":827,"ĠCan":828,"ĠFl":829,"Ġapp":830,"ach":831,"Ġsays":832,"Ġru":833,"Ġact":834,"Ġsay":835,"ĠYou":836,"Ġdec":837,"istration":838,"ĠAtt":839,"ned":840,"uff":841,"Ġsc":842,"ĠAmericans":843,"leg":844,"oy":845,"Ġtw":846,"ments":847,"icial":848,"Ġher":849,"ealth":850,"Ġgovern":851,"ll":852,"Ġrec":853,"ange":854,"ty":855,"aking":856,"ever":857,"omen":858,"Ġinc":859,"Ġno":860,"ĠWhat":861,"ĠState":862,"ĠEm":863,"ĠCall":864,"Ġits":865,"ederal":866,"ĠCar":867,"ush":868,"Ġag":869,"get":870,"Ġcall":871,"Ġlead":872,"Ġso":873,"ministration":874,"Ġqu":875,"ative":876,"Ġsome":877,"Ġen":878,"ants":879,"imate":880,"Ġtime":881,"Ġcount":882,"ĠTw":883,"Ġweek":884,"Ġformer":885,"ood":886,"ĠHas":887,"hed":888,"Ġme":889,"vest":890,"ublic":891,"Ġwere":892,"ug":893,"ling":894,"ĠAct":895,"vent":896,"roup":897,"Ġwork":898,"ĠBy":899,"ual":900,"ĠGet":901,"ott":902,"acy":903,"ause":904,"ional":905,"..":906,"Ġany":907,"iol":908,"Ġ$":909,"its":910,"illion":911,"Ġhad":912,"so":913,"Ġcomp":914,"ower":915,"Con":916,"Ġsec":917,"ik":918,"Ġshould":919,"ib":920,"Ġcandid":921,"ish":922,"Ġmon":923,"air":924,"ĠWho":925,"Ġimp":926,"Obama":927,"ĠSupreme":928,"ĠNews":929,"Ġcons":930,"Ġlike":931,"Ġthem":932,"Ġother":933,"ĠMc":934,"ĠMay":935,"ĠPlan":936,"orning":937,"Ġcom":938,"Ġcomm":939,"other":940,"ited":941,"Ġbec":942,"ows":943,"iden":944,"ĠBan":945,"wn":946,"ĠCampaign":947,"ĠDep":948,"ĠOr":949,"ebate":950,"ities":951,"ĠReport":952,"anc":953,"Ġwhen":954,"ied":955,"Ġdon":956,"form":957,"vel":958,"ĠAr":959,"fer":960,"esn":961,"ement":962,"ady":963,"mak":964,"uring":965,"ert":966,"ĠDef":967,"Ġbl":968,"ĠElection":969,"Ġwor":970,"Ġshe":971,"ĠBack":972,"een":973,"ĠTr":974,"Ġback":975,"ĠCru":976,"rotest":977,"ns":978,"ical":979,"elf":980,"urity":981,"hool":982,"Ġinto":983,"Ġhel":984,"ĠHave":985,"Ġnow":986,"Ġsupport":987,"Ġpolitical":988,"ina":989,"Ġthere":990,"gest":991,"ĠThis":992,"Ġif":993,"ĠComm":994,"led":995,"Ġleg":996,"ition":997,"Ġhelp":998,"Ġsen":999,"amil":1000,"les":1001,"Ġagainst":1002,"Ġnews":1003,"ecut":1004,"ead":1005,"ĠQ":1006,"lear":1007,"ĠGovern":1008,"Ġund":1009,"ating":1010,"Ġhim":1011,"ency":1012,"hoot":1013,"ful":1014,"iew":1015,"ĠHealth":1016,"ĠCare":1017,"ark":1018,"Ġar":1019,"vers":1020,".âĢĿ":1021,"ult":1022,"ner":1023,"vestig":1024,"St":1025,"Ġreport":1026,"eg":1027,"Ġfirst":1028,"ĠMon":1029,"Ġpresidential":1030,"ĠMorning":1031,"way":1032,"Hillary":1033,"Ġdid":1034,"ĠCont":1035,"Ġalso":1036,"ĠAll":1037,"Ġmost":1038,"Ġneed":1039,"Ġper":1040,"ĠEmail":1041,"ĠCould":1042,"akes":1043,"ĠMore":1044,"Ġmay":1045,"Ġyour":1046,"ritic":1047,"retary":1048,"ĠRef":1049,"GOP":1050,"Republican":1051,"PO":1052,"ĠAgainst":1053,"ands":1054,"acare":1055,"bamacare":1056,"ins":1057,"Ġwar":1058,"Ġhow":1059,"here":1060,"icy":1061,"Sen":1062,"ĠEnd":1063,"uck":1064,"ĠIm":1065,"ST":1066,"Ġnomin":1067,"ĠAb":1068,"Ġwant":1069,"Ġeven":1070,"oss":1071,"Ġam":1072,"jor":1073,"LL":1074,"ah":1075,"riv":1076,"'re":1077,"ief":1078,"Ġtr":1079,"Ġevery":1080,"be":1081,"ĠPl":1082,"Ġend":1083,"err":1084,"att":1085,"ĠExp":1086,"eak":1087,"rong":1088,"ĠRussia":1089,"orth":1090,"round":1091,"eath":1092,"Ġ2016":1093,"ĠCruz":1094,"Democrat":1095,"row":1096,"ince":1097,"hes":1098,"ĠDon":1099,"ĠBiden":1100,"rotect":1101,"ĠSupport":1102,"ept":1103,"Ġrem":1104,"Ġinter":1105,"ĠThey":1106,"ajor":1107,"ext":1108,"atch":1109,"FF":1110,"ĠAm":1111,"Ġbill":1112,"Ġknow":1113,"Ġop":1114,"son":1115,"ĠAcc":1116,"Ġbet":1117,"Ġyears":1118,"ĠTax":1119,"ĠGun":1120,"Ġelection":1121,"ĠâĢĺ":1122,"eep":1123,"ged":1124,"Ġpre":1125,"rist":1126,"UFF":1127,"How":1128,"ater":1129,"UFFPO":1130,"On":1131,"ision":1132,"ĠParty":1133,"ĠStates":1134,"ĠLead":1135,"ĠJohn":1136,"alif":1137,"Ġcountry":1138,"rug":1139,"ĠHow":1140,"Ġim":1141,"Ġpart":1142,"Ch":1143,"Ġlast":1144,"ife":1145,"ĠObamacare":1146,"ĠShould":1147,"ram":1148,"esp":1149,"uffP":1150,"ians":1151,"ĠNo":1152,"What":1153,"ges":1154,"migration":1155,"Ġdis":1156,"Ġbel":1157,"emb":1158,"ĠQu":1159,"Ġse":1160,"rop":1161,"Ġab":1162,"Ġtwo":1163,"ĠPeople":1164,"Ġday":1165,"Ġyear":1166,"order":1167,"Ġmake":1168,"udge":1169,"ĠIf":1170,"ĠYork":1171,"For":1172,"eneral":1173,"ĠGo":1174,"au":1175,"ĠRec":1176,"uffPost":1177,"ĠMed":1178,"ible":1179,"lam":1180,"Ġthink":1181,"ech":1182,"artment":1183,"ward":1184,"alth":1185,"hip":1186,"ĠDec":1187,"ĠNow":1188,"usl":1189,"Ġstill":1190,"Ġdef":1191,"Ġgovernment":1192,"ĠWor":1193,"Ġmy":1194,"Ġunder":1195,"Ġbig":1196,"ĠReal":1197,"ĠWon":1198,"ĠFirst":1199,"ĠPolitic":1200,"Ġpublic":1201,"exas":1202,"An":1203,"ron":1204,"rid":1205,"als":1206,"itter":1207,"edly":1208,"ĠHer":1209,"ĠNational":1210,"nti":1211,"ĠBig":1212,"Ġonly":1213,"ared":1214,"ĠThan":1215,"New":1216,"onom":1217,"Ġhealth":1218,"Amer":1219,"hington":1220,"Why":1221,"ators":1222,"ilit":1223,"ĠDay":1224,"irect":1225,"yan":1226,"ath":1227,"ix":1228,"ĠUs":1229,"orney":1230,"ĠBernie":1231,"Jo":1232,"ĠSay":1233,"Ġins":1234,"Ġright":1235,"ĠNeed":1236,"used":1237,"ĠâĢĶ":1238,"af":1239,"ĠAttack":1240,"land":1241,"ĠMan":1242,"yst":1243,"Ġmany":1244,"ility":1245,"Ġlong":1246,"ĠEn":1247,"ĠApp":1248,"ms":1249,"Ġmuch":1250,"Ġiss":1251,"makers":1252,"emp":1253,"ually":1254,"ending":1255,"If":1256,"oint":1257,",âĢĿ":1258,"rap":1259,"stit":1260,"ĠBush":1261,"ames":1262,"az":1263,"ĠCandid":1264,"ĠHel":1265,"BI":1266,"And":1267,"rimary":1268,"As":1269,"ĠKnow":1270,"Ġadministration":1271,"istory":1272,"aliforn":1273,"rimin":1274,"There":1275,"ĠChar":1276,"ĠWould":1277,"allen":1278,"ize":1279,"Ġwhich":1280,"ounc":1281,"Ġcare":1282,"ĠInter":1283,"HUFFPO":1284,"ĠBr":1285,"Ġind":1286,"fore":1287,"ĠOne":1288,"rough":1289,"eech":1290,"gin":1291,"ĠAg":1292,"Ġmed":1293,"ĠCons":1294,"But":1295,"Ġplan":1296,"ĠDepartment":1297,"ortion":1298,"ĠCol":1299,"ivers":1300,"Ġadv":1301,"Ġresp":1302,"ends":1303,"Bernie":1304,"lain":1305,"error":1306,"ev":1307,"ox":1308,"iolence":1309,"alifornia":1310,"Ġbeing":1311,"ger":1312,"eor":1313,"ĠVote":1314,"Ġbefore":1315,"Ġman":1316,"ĠTheir":1317,"med":1318,"ls":1319,"ĠRyan":1320,"ubio":1321,"Ġquest":1322,"ĠRise":1323,"ĠChrist":1324,"ĠComp":1325,"Ġgroup":1326,"ĠCalls":1327,"cess":1328,"isl":1329,"Ġway":1330,"Ġfederal":1331,"ros":1332,"Ġstart":1333,"ĠWork":1334,"aff":1335,"oman":1336,"osed":1337,"ck":1338,"uge":1339,"ĠWashington":1340,"Ġcandidate":1341,"They":1342,"ĠJustice":1343,"ying":1344,"ĠClimate":1345,"Ġ3":1346,"ĠDebate":1347,"Ġgun":1348,"hooting":1349,"Ġke":1350,"Ġdown":1351,"ices":1352,"Ġeff":1353,"Ġgoing":1354,"iness":1355,"ĠPaul":1356,"ĠLeg":1357,"ean":1358,"ĠOp":1359,"ality":1360,"ized":1361,"icials":1362,"rol":1363,"ider":1364,"Ġvote":1365,"Republicans":1366,"ics":1367,"Ġparty":1368,"ĠUnd":1369,"fl":1370,"Âł":1371,"stitut":1372,"aim":1373,"ĠDeal":1374,"atest":1375,"ittee":1376,"ĠDown":1377,"ier":1378,"imes":1379,"ired":1380,"der":1381,"ft":1382,"Ġtax":1383,"ĠBo":1384,"come":1385,"ember":1386,"ĠHar":1387,"rying":1388,"Ġint":1389,"cent":1390,"gy":1391,"omet":1392,"ĠSecurity":1393,"ĠUnited":1394,"Here":1395,"AC":1396,"ĠAnti":1397,"ĠFight":1398,"arent":1399,"ased":1400,"urs":1401,"Ġnominee":1402,"ject":1403,"Ġ4":1404,"ĠCom":1405,"oth":1406,"aims":1407,"ĠMusl":1408,"Ġtake":1409,"ĠTe":1410,"Ġdisc":1411,"ĠStill":1412,"ĠRun":1413,"Ġmade":1414,"ĠHelp":1415,"eth":1416,"ivil":1417,"co":1418,"ĠImp":1419,"ecial":1420,"erson":1421,"Ġgood":1422,"000":1423,"ystem":1424,"Ġsenator":1425,"ĠSo":1426,"Ġwomen":1427,"Ġsign":1428,"ĠRubio":1429,"ĠInd":1430,"usiness":1431,"urn":1432,"Ġelect":1433,"Democrats":1434,"orid":1435,"Ġopp":1436,"view":1437,"Ġass":1438,"ĠShe":1439,"ĠCome":1440,"ĠBec":1441,"Ġlook":1442,"Ġrel":1443,"ilitary":1444,"lud":1445,"ĠRights":1446,"Ġchange":1447,"hether":1448,"Ġcalled":1449,"Ġreg":1450,"ĠFBI":1451,"Ġmonth":1452,"Ġworld":1453,"Ġra":1454,"Ġvoters":1455,"Ġbecause":1456,"ened":1457,"ocial":1458,"ash":1459,"ĠPresidential":1460,"Ġattack":1461,"Ġrun":1462,"orida":1463,"ense":1464,"ĠWants":1465,"ope":1466,"ildren":1467,"rate":1468,"Ġsur":1469,"Ġdoesn":1470,"ĠWomen":1471,"Ġthose":1472,"ĠGu":1473,"Ġnation":1474,"ele":1475,"ĠCo":1476,"itch":1477,"ĠProtest":1478,"...":1479,"riday":1480,"uct":1481,"Ġ19":1482,"ween":1483,"risis":1484,"ĠWant":1485,"augh":1486,"ĠDis":1487,"ĠHim":1488,"ason":1489,"ieve":1490,"Ġpolicy":1491,"ves":1492,"Ġvery":1493,"Ġfin":1494,"Ġfamil":1495,"ĠPut":1496,"Ġown":1497,"ĠBar":1498,"ocu":1499,"Ġro":1500,"Ġtra":1501,"ana":1502,"ĠPer":1503,"Ġshow":1504,"Ġcritic":1505,"ĠChange":1506,"less":1507,"nes":1508,"Ġwon":1509,"American":1510,"ness":1511,"ĠTexas":1512,"Ġpres":1513,"rief":1514,"ails":1515,"ĠAss":1516,"Ġhapp":1517,"uth":1518,"unity":1519,"ready":1520,"sh":1521,"ĠWin":1522,"Ġinvestig":1523,"hood":1524,"ĠAdministration":1525,"Ġcontin":1526,"vention":1527,"ĠGovernor":1528,"Cl":1529,"ĠFac":1530,"ĠConf":1531,"ked":1532,"by":1533,"atter":1534,"ior":1535,"Ġtru":1536,"Ġstates":1537,"ĠRace":1538,"ĠWhy":1539,"blem":1540,"ĠSecretary":1541,"olog":1542,"Ġnational":1543,"ĠInto":1544,"ather":1545,"ĠTra":1546,"exual":1547,"down":1548,"gan":1549,"ines":1550,"ĠTime":1551,"uesday":1552,"arly":1553,"ĠMich":1554,"ĠIns":1555,"ĠSchool":1556,"ĠTwitter":1557,"reed":1558,"ĠCount":1559,"Ġwin":1560,"ody":1561,"Ġrights":1562,"ervative":1563,"ross":1564,"rict":1565,"ikely":1566,"NC":1567,"vid":1568,"ĠIran":1569,"pt":1570,"ony":1571,"itiz":1572,"ĠNorth":1573,"Ġadd":1574,"Ġdif":1575,"Ġduring":1576,"Ġem":1577,"ĠDid":1578,"Ġmove":1579,"Ġmajor":1580,"ĠVoters":1581,"olut":1582,"uses":1583,"President":1584,"ĠSur":1585,"ised":1586,"Ġcol":1587,"Ġref":1588,"apit":1589,"aving":1590,"Ġleaders":1591,"van":1592,"ĠTri":1593,"ĠLike":1594,"Ġ6":1595,"ĠBlack":1596,"uggest":1597,"gram":1598,"ric":1599,"Ġban":1600,"Ġprop":1601,"ĠSenator":1602,"Ġsee":1603,"ĠPh":1604,"ĠFin":1605,"ĠPolice":1606,"ures":1607,"oo":1608,"Ġfund":1609,"Ġser":1610,"Ġfac":1611,"ets":1612,"oreign":1613,"Ġant":1614,"umb":1615,"ER":1616,"Ġec":1617,"Ġtold":1618,"Ġcor":1619,"ĠMake":1620,"Ġann":1621,"rants":1622,"White":1623,"ĠCarol":1624,"outh":1625,"atives":1626,"ĠSome":1627,"ĠGeor":1628,"ump":1629,"ĠAdv":1630,"omething":1631,"ĠGroup":1632,"ĠNomin":1633,"ull":1634,"You":1635,"ij":1636,"ĠSign":1637,"ury":1638,"Ġdep":1639,"thing":1640,"iving":1641,"uit":1642,"iting":1643,"alking":1644,"Ġtoo":1645,"ĠHI":1646,"Ġshort":1647,"irector":1648,"ĠSy":1649,"ĠRem":1650,"ĠCarolina":1651,"ael":1652,"Ġdeal":1653,"uture":1654,"ĠUnder":1655,"Ġ9":1656,"ĠWall":1657,"els":1658,"ably":1659,"Ġjob":1660,"eeting":1661,"ered":1662,"Ġprotect":1663,"eter":1664,"udents":1665,"ĠThreat":1666,"Ġlegisl":1667,"loy":1668,"reak":1669,"ĠCor":1670,"uper":1671,"Ġconc":1672,"rant":1673,"Ġsince":1674,"gressive":1675,"ract":1676,"Ġ5":1677,"ĠMin":1678,"Ġreal":1679,"ĠMcC":1680,"Ġpass":1681,"Ġfl":1682,"ĠLet":1683,"ops":1684,"rison":1685,"She":1686,"ience":1687,"ĠIts":1688,"ruct":1689,"ention":1690,"uts":1691,"ĠImmigration":1692,"Ġseem":1693,"ĠZ":1694,"Ġprom":1695,"Ġreally":1696,"ering":1697,"ĠRac":1698,"ĠCommittee":1699,"IS":1700,"ĠCalifornia":1701,"Ġfight":1702,"Ġconf":1703,"ought":1704,"ĠFund":1705,"Ġgu":1706,"ĠJoe":1707,"ening":1708,"ĠMost":1709,"ety":1710,"eff":1711,"ĠDoesn":1712,"Ġrecent":1713,"Ġdidn":1714,"embers":1715,"nell":1716,"ords":1717,"owa":1718,"Ġmedia":1719,"'ll":1720,"ises":1721,"Ġlet":1722,"erg":1723,"ĠTell":1724,"ising":1725,"Ġcome":1726,"Ġpay":1727,"raq":1728,"Ġwhile":1729,"ring":1730,"Ġpower":1731,"Ġthreat":1732,"ĠFlorida":1733,"ization":1734,"uman":1735,"ids":1736,"rib":1737,"ected":1738,"Ġcourt":1739,"ĠOur":1740,"ĠHILL":1741,"House":1742,"ĠAf":1743,"ream":1744,"irgin":1745,"Congress":1746,"ĠTed":1747,"ault":1748,"uthor":1749,"sel":1750,"idd":1751,"ĠResp":1752,"Ġeconom":1753,"ale":1754,"Ġmillion":1755,"irm":1756,"opul":1757,"ender":1758,"ittle":1759,"John":1760,"ĠShooting":1761,"ĠDem":1762,"Ġnever":1763,"udget":1764,"ĠRussian":1765,"ĠPar":1766,"ential":1767,"hind":1768,"Ġent":1769,"onse":1770,"ots":1771,"Ġmust":1772,"elcome":1773,"When":1774,"duc":1775,"reg":1776,"Ġkill":1777,"ĠWarren":1778,"ront":1779,"20":1780,"Ġchar":1781,"ĠReally":1782,"Ġkeep":1783,"yer":1784,"erate":1785,"ĠMo":1786,"owing":1787,"Ġnext":1788,"Ġmoney":1789,"Ġagain":1790,"ĠRight":1791,"Ġbetween":1792,"orts":1793,"Ġinclud":1794,"rest":1795,"ĠYour":1796,"Ġlaws":1797,"ĠComey":1798,"Ġche":1799,"ĠIraq":1800,"ases":1801,"Ġanother":1802,"STER":1803,"line":1804,"oor":1805,"Ġthese":1806,"iser":1807,"idency":1808,"ĠBen":1809,"Ġsystem":1810,"ĠPost":1811,"anding":1812,"Ġmar":1813,"Ġschool":1814,"irginia":1815,"Ġwants":1816,"ĠDeath":1817,"ĠYear":1818,"uclear":1819,"Ġquestion":1820,"ically":1821,"Ġfar":1822,"ĠFederal":1823,"Ġhistory":1824,"Ġrac":1825,"migrants":1826,"Ġwhere":1827,"ided":1828,"ĠRo":1829,"ĠInvestig":1830,"ird":1831,"ĠVoter":1832,"LLSTER":1833,"head":1834,"ĠGeneral":1835,"hner":1836,"HUFFPOLLSTER":1837,"ging":1838,"ĠGov":1839,"rael":1840,"ĠTrans":1841,"espite":1842,"Ex":1843,"ann":1844,"Ġsub":1845,"ĠHuffPost":1846,"ĠElect":1847,"inds":1848,"Connell":1849,"ecutive":1850,"Ġwhether":1851,"ĠInt":1852,"raud":1853,"aun":1854,"Ġwhy":1855,"ĠWorld":1856,"Ġwell":1857,"Ġdebate":1858,"Ġmight":1859,"hers":1860,"osing":1861,"Ġpolice":1862,"Ġdecision":1863,"Former":1864,"ides":1865,"ĠRul":1866,"Ġrace":1867,"Ġcandidates":1868,"ham":1869,"Ġserv":1870,"oming":1871,"Ġret":1872,"ĠCandidate":1873,"ced":1874,"arget":1875,"ĠMiss":1876,"Ġdem":1877,"iously":1878,"Ġte":1879,"ĠAgain":1880,"ĠRet":1881,"anger":1882,"itizens":1883,"Ġdiffer":1884,"int":1885,"ico":1886,"Ġset":1887,"ĠDe":1888,"ĠIowa":1889,"Ġhigh":1890,"Ġcongress":1891,"abeth":1892,"Ġanti":1893,"Ġdays":1894,"ortant":1895,"essions":1896,"ĠTweet":1897,"Ġsecretary":1898,"No":1899,"liz":1900,"nal":1901,"Ġsame":1902,"ĠMe":1903,"ects":1904,"ĠStop":1905,"ĠVict":1906,"ĠSyri":1907,"Tw":1908,"inks":1909,"Ġob":1910,"Ġhard":1911,"Ġdeath":1912,"Ġvict":1913,"Senate":1914,"lizabeth":1915,"ĠPay":1916,"ĠRob":1917,"lease":1918,"ask":1919,"illions":1920,"Ġlot":1921,"Ġpercent":1922,"Is":1923,"ved":1924,"rew":1925,"Ġcase":1926,"Ġdes":1927,"ried":1928,"Sc":1929,"uild":1930,"ĠTuesday":1931,"let":1932,"Ġwithout":1933,"ĠQuest":1934,"HuffPost":1935,"ees":1936,"ient":1937,"rime":1938,"ys":1939,"Ġboth":1940,"ĠGr":1941,"Ġbetter":1942,"auc":1943,"Ġclear":1944,"Ġmin":1945,"ĠSpeech":1946,"uana":1947,"erry":1948,"ars":1949,"ĠPrimary":1950,"ĠMass":1951,"Ġhere":1952,"eller":1953,"Ġ200":1954,"eaker":1955,"ijuana":1956,"eel":1957,"ĠDen":1958,"Ġless":1959,"Ġlife":1960,"efore":1961,"ĠMuslim":1962,"racy":1963,"ĠIS":1964,"Ġgreat":1965,"Ġhear":1966,"ĠShow":1967,"Ġclimate":1968,"ĠPre":1969,"Ġthrough":1970,"ĠReform":1971,"ursday":1972,"'ve":1973,"Ġpress":1974,"ults":1975,"ĠAnn":1976,"Ġgovernor":1977,"ĠGovernment":1978,"At":1979,"for":1980,"lob":1981,"ĠCapit":1982,"Ġco":1983,"Ġcho":1984,"Ġdist":1985,"urre":1986,"aren":1987,"ino":1988,"oral":1989,"pped":1990,"early":1991,"ĠChief":1992,"Ġalready":1993,"arm":1994,"ĠPence":1995,"ley":1996,"Ġde":1997,"Ġpolitics":1998,"Ġgeneral":1999,"ries":2000,"ĠKill":2001,"Ġofficials":2002,"ocument":2003,"Ġtell":2004,"hel":2005,"ĠTake":2006,"Ġph":2007,"omb":2008,"Ġthree":2009,"eve":2010,"Ġel":2011,"ĠPart":2012,"ĠRepeal":2013,"Ġclaim":2014,"Ġput":2015,"Ġprotest":2016,"ĠProtect":2017,"ĠFran":2018,"Ġisn":2019,"ages":2020,"ĠTest":2021,"Ġsl":2022,"ĠPass":2023,"rus":2024,"ĠWhen":2025,"ued":2026,"Ġhead":2027,"ission":2028,"ĠMcConnell":2029,"One":2030,"ney":2031,"ĠOwn":2032,"urns":2033,"ĠKeep":2034,"Ġext":2035,"ideo":2036,"Ġuse":2037,"reet":2038,"Ġgot":2039,"iron":2040,"ĠVoting":2041,"por":2042,"ĠBet":2043,"usp":2044,"eeks":2045,"ĠThink":2046,"eleb":2047,"Al":2048,"Ġorder":2049,"elly":2050,"osition":2051,"Ġchildren":2052,"Mar":2053,"Ġtop":2054,"rovers":2055,"ĠInc":2056,"Ġrest":2057,"ĠYears":2058,"ĠAny":2059,"Ġtweet":2060,"king":2061,"ueller":2062,"ĠTru":2063,"ĠAp":2064,"ĠSessions":2065,"icer":2066,"ĠRel":2067,"ama":2068,"ĠJudge":2069,"ĠThere":2070,"Ġread":2071,"oses":2072,"ĠPolicy":2073,"ĠLaws":2074,"formation":2075,"Ġbelieve":2076,"ĠSch":2077,"izing":2078,"not":2079,"resent":2080,"ĠVirginia":2081,"Ġalleg":2082,"Ġattorney":2083,"Ġcomes":2084,"PA":2085,"Some":2086,"sw":2087,"Ġide":2088,"struct":2089,"ĠPick":2090,"ended":2091,"Ġchallen":2092,"de":2093,"Ġpast":2094,"ĠMichael":2095,"ID":2096,"ery":2097,"isan":2098,"eful":2099,"Ġ10":2100,"ĠOffice":2101,"Ġlegal":2102,"reedom":2103,"gia":2104,"ately":2105,"ingly":2106,"ednes":2107,"ĠWeek":2108,"Ġoffice":2109,"ĠAttorney":2110,"Ġtrans":2111,"ednesday":2112,"ĠPress":2113,"ĠParent":2114,"oment":2115,"Ġstop":2116,"emocracy":2117,"yp":2118,"ĠPen":2119,"Ġstand":2120,"ĠJan":2121,"ĠClaims":2122,"Ġwhite":2123,"ertain":2124,"yl":2125,"lege":2126,"ĠMillion":2127,"ĠIsrael":2128,"Ġviolence":2129,"unday":2130,"ossible":2131,"erm":2132,"Ġsw":2133,"ĠDav":2134,"Ġleast":2135,"ĠProp":2136,"rivate":2137,"Ġissue":2138,"Not":2139,"Paul":2140,"mploy":2141,"ĠFox":2142,"Ġincre":2143,"iddle":2144,"ĠMoore":2145,"Just":2146,"pris":2147,"ted":2148,"yn":2149,"oric":2150,"Ġsomething":2151,"ĠDisc":2152,"ĠFamil":2153,"Ġinv":2154,"ĠEvery":2155,"Ġdoes":2156,"ĠProbe":2157,"riminal":2158,"With":2159,"Ġaff":2160,"ĠHapp":2161,"Ġused":2162,"Ġsecurity":2163,"ky":2164,"ĠOther":2165,"ĠGood":2166,"Ġrequ":2167,"ellig":2168,"ĠUnion":2169,"ares":2170,"brief":2171,"my":2172,"ersonal":2173,"ĠEven":2174,"ĠScott":2175,"imself":2176,"After":2177,"Ted":2178,"Welcome":2179,"most":2180,"pir":2181,"Ġaround":2182,"Ġsm":2183,"ailed":2184,"Clinton":2185,"elect":2186,"ires":2187,"inc":2188,"ĠOpp":2189,"ĠKore":2190,"ĠNewsbrief":2191,"ĠISIS":2192,"hio":2193,"iel":2194,"ĠCity":2195,"ĠWay":2196,"ournal":2197,"Ġgetting":2198,"Ġarg":2199,"ĠParenthood":2200,"Ġtest":2201,"ĠCrisis":2202,"Re":2203,"Ġbo":2204,"Ġbusiness":2205,"Ġthing":2206,"abor":2207,"ĠReg":2208,"ĠGets":2209,"ĠMoney":2210,"cross":2211,"ĠBefore":2212,"acc":2213,"Pro":2214,"secut":2215,"Ġed":2216,"ades":2217,"ĠJob":2218,"ĠEndors":2219,"ray":2220,"Ġtrying":2221,"ĠSw":2222,"Ġprimary":2223,"raw":2224,"Ġprogram":2225,"maker":2226,"elligence":2227,"ont":2228,"ĠSlam":2229,"ĠCO":2230,"ĠHigh":2231,"Ġlatest":2232,"Ġlikely":2233,"ĠViolence":2234,"Ġplay":2235,"NN":2236,"ĠTerror":2237,"ĠSm":2238,"ĠCritic":2239,"ĠMueller":2240,"ĠEc":2241,"riz":2242,"oints":2243,"ĠCapitol":2244,"Ġago":2245,"ĠPlanned":2246,"ference":2247,"attle":2248,"iversity":2249,"ĠLegal":2250,"bably":2251,"viron":2252,"ways":2253,"Ġterror":2254,"Ġgive":2255,"umber":2256,"ĠServ":2257,"Ġmaking":2258,"ĠIsn":2259,"ified":2260,"Ġworking":2261,"vil":2262,"ĠCase":2263,"Ġface":2264,"ĠPublic":2265,"ĠHold":2266,"vidence":2267,"Ġconcern":2268,"ched":2269,"pl":2270,"the":2271,"rupt":2272,"ĠHere":2273,"ording":2274,"obby":2275,"vironment":2276,"'m":2277,"ĠPower":2278,"ĠThem":2279,"abama":2280,"ervatives":2281,"Ġleader":2282,"ĠLeaders":2283,"VID":2284,"rac":2285,"side":2286,"ĠSouth":2287,"Ġfuture":2288,"ute":2289,"olution":2290,"ooks":2291,"BT":2292,"RA":2293,"ining":2294,"erts":2295,"ĠTimes":2296,"Ġden":2297,"essage":2298,"ocked":2299,"ĠMedic":2300,"Ġfamily":2301,"GBT":2302,"IA":2303,"rican":2304,"alf":2305,"ĠAff":2306,"ily":2307,"Ġlittle":2308,"ĠStreet":2309,"earch":2310,"aps":2311,"ences":2312,"Ġappro":2313,"ĠPolitical":2314,"ces":2315,"Ġ7":2316,"ĠSuper":2317,"ĠFriday":2318,"uson":2319,"'d":2320,"19":2321,"Sh":2322,"Ġfew":2323,"Ġfoll":2324,"ĠMy":2325,"Ġmass":2326,"oci":2327,"ĠJeff":2328,"ousands":2329,"Ġspeech":2330,"ĠCongressman":2331,"ĠMarch":2332,"ĠAbortion":2333,"erguson":2334,"ĠSexual":2335,"ĠMike":2336,"Ġmilitary":2337,"rab":2338,"ains":2339,"ĠBeing":2340,"Ġinterest":2341,"ĠBrown":2342,"Americans":2343,"rack":2344,"ĠNext":2345,"ĠOrder":2346,"ancy":2347,"duct":2348,"ĠSan":2349,"icies":2350,"ĠPat":2351,"ĠDuring":2352,"Ġhop":2353,"owed":2354,"ĠJames":2355,"ago":2356,"uccess":2357,"avor":2358,"ĠAlleg":2359,"Ġimportant":2360,"Joe":2361,"Ġissues":2362,"lobal":2363,"urrent":2364,"ĠCOVID":2365,"ĠSocial":2366,"arl":2367,"Ġcour":2368,"ĠWalk":2369,"ĠWins":2370,"ĠHur":2371,"ĠBad":2372,"ĠTop":2373,"pping":2374,"iff":2375,"Ġlawmakers":2376,"ĠCandidates":2377,"Un":2378,"Ġwrong":2379,"Ġsuggest":2380,"Ġthings":2381,"Ġgr":2382,"Ġonce":2383,"Ġever":2384,"Ġkn":2385,"ĠPolitics":2386,"ĠSe":2387,"ĠNe":2388,"urance":2389,"ĠConvention":2390,"ured":2391,"stitutional":2392,",'":2393,"Don":2394,"mber":2395,"ata":2396,"Ġwrap":2397,"Ġdel":2398,"ĠStep":2399,"riage":2400,"udy":2401,"rote":2402,"Ġbecome":2403,"oke":2404,"Ġrat":2405,"Ġhome":2406,"ivists":2407,"Ġleft":2408,"ĠAdd":2409,"Ġenough":2410,"ĠMedia":2411,"ished":2412,"ĠCent":2413,"Ġfind":2414,"ĠProm":2415,"ĠDel":2416,"ĠDet":2417,"ĠJr":2418,"ift":2419,"earing":2420,"ovember":2421,"ĠCarson":2422,"ĠMcCain":2423,"ĠEconom":2424,"ĠWater":2425,"Ġlar":2426,"iring":2427,"ific":2428,"Ġviol":2429,"HUFFPOST":2430,"ĠChristie":2431,"Ġannounc":2432,"ches":2433,"leased":2434,"andal":2435,"ĠMex":2436,"lyn":2437,"ĠShut":2438,"iana":2439,"Ġmonths":2440,"ĠPutin":2441,"Ġinvestigation":2442,"irus":2443,"sp":2444,"Ġve":2445,"ĠTom":2446,"ites":2447,"rif":2448,"ghan":2449,"ĠAnother":2450,"Ġdifferent":2451,"Ġpoint":2452,"Ġfound":2453,"ocal":2454,"aster":2455,"ĠBecause":2456,"umer":2457,"year":2458,"Ġtook":2459,"ĠNovember":2460,"ĠLast":2461,"urned":2462,"Ġproblem":2463,"ĠSupporters":2464,"empt":2465,"ein":2466,"ones":2467,"stead":2468,"ĠSet":2469,"Ġtoday":2470,"ĠMajor":2471,"Ġconsider":2472,"ĠMayor":2473,"ĠAttacks":2474,"cer":2475,"oub":2476,"ĠSl":2477,"ĠDirector":2478,"ĠGre":2479,"Ġev":2480,"Ġyet":2481,"Ġchang":2482,"ĠPoll":2483,"ances":2484,"Ġimmigration":2485,"ĠTravel":2486,"Pol":2487,"ten":2488,"Ġcover":2489,"ĠDeb":2490,"Ġben":2491,"Ġmembers":2492,"ĠJu":2493,"ĠHead":2494,"11":2495,"Fl":2496,"Law":2497,"More":2498,"Ġ8":2499,"ories":2500,"Ġcivil":2501,"ĠDrug":2502,"ĠToo":2503,"Ġest":2504,"ĠIslam":2505,"Ġconservative":2506,"rowing":2507,"ĠDidn":2508,"His":2509,"iver":2510,"irth":2511,"Ġasked":2512,"ansas":2513,"Ġjustice":2514,"iberal":2515,"Supreme":2516,"cl":2517,"Ġthen":2518,"Ġpost":2519,"ĠIss":2520,"ĠShows":2521,"ĠLawmakers":2522,"everal":2523,"ĠGeorgia":2524,"lic":2525,"ĠDist":2526,"endment":2527,"ĠChallen":2528,"Ġamong":2529,"ugees":2530,"uel":2531,"atur":2532,"ĠChe":2533,"Ġcity":2534,"ĠRally":2535,"ĠRound":2536,"ĠMem":2537,"otential":2538,"ĠUr":2539,"ape":2540,"Ġactually":2541,"Ġgroups":2542,"angerous":2543,"Ġtalk":2544,"Ġcent":2545,"ĠWest":2546,"igious":2547,"ocks":2548,"Ġcontrol":2549,"ĠOfficial":2550,"oves":2551,"Ġaction":2552,"ĠControl":2553,"Ġbad":2554,"Ġhold":2555,"Ġnight":2556,"Ġofficial":2557,"ĠMarijuana":2558,"ibility":2559,"ĠKorea":2560,"?\"":2561,"That":2562,"ither":2563,"Ġfact":2564,"lex":2565,"Ġstory":2566,"udent":2567,"Ġprov":2568,"ebook":2569,"rugg":2570,"Even":2571,"Most":2572,"Mike":2573,"Ġbro":2574,"vey":2575,"Ġbest":2576,"azi":2577,"Ġrunning":2578,"ĠRules":2579,"Friday":2580,"TO":2581,"each":2582,"enn":2583,"Ġforeign":2584,"ĠHistory":2585,"ĠMove":2586,"Ġhost":2587,"Ġreform":2588,"enda":2589,"assment":2590,"Ġ2017":2591,"ĠMarco":2592,"rategy":2593,"ĠNominee":2594,".)":2595,"ken":2596,"isit":2597,"Ġcame":2598,"ĠBudget":2599,"igan":2600,"ocus":2601,"ards":2602,"ĠCongressional":2603,"migrant":2604,"afety":2605,"ĠTells":2606,"ph":2607,"ona":2608,"ĠOhio":2609,"ĠHamp":2610,"ĠEPA":2611,"aken":2612,"ours":2613,"Ġclaims":2614,"ĠMonday":2615,"ĠCivil":2616,"ĠRest":2617,"une":2618,"ĠBarack":2619,"ville":2620,"aud":2621,"Ġemb":2622,"Ġaway":2623,"ĠDead":2624,"ĠMust":2625,"ĠMilitary":2626,"ability":2627,"ĠChair":2628,"ĠBeen":2629,"Ġlegislation":2630,"ĠSyria":2631,"ĠPush":2632,"ĠLong":2633,"urb":2634,"ored":2635,"Ġview":2636,"ĠThursday":2637,"Ġplace":2638,"ĠResign":2639,"So":2640,"gn":2641,"read":2642,"Ġcurrent":2643,"ĠPr":2644,"ĠBorder":2645,"These":2646,"ĠEff":2647,"ĠKey":2648,"iven":2649,"Ġvoting":2650,"shire":2651,"ĠHampshire":2652,"IN":2653,"aug":2654,"ki":2655,"ral":2656,"Ġsocial":2657,"Ġperson":2658,"ĠPAC":2659,"ĠBel":2660,"omney":2661,"raham":2662,"Ġpolls":2663,"gether":2664,"Ġneeds":2665,"com":2666,"ĠGot":2667,"istan":2668,"ĠUS":2669,"ify":2670,"Like":2671,"oring":2672,"Ġfour":2673,"ĠFraud":2674,"ota":2675,"ortation":2676,"term":2677,"Ġstep":2678,"ips":2679,"roversial":2680,"By":2681,"lish":2682,"het":2683,"icks":2684,"Ġwrote":2685,"ĠPres":2686,"asy":2687,"Ġdet":2688,"ada":2689,"rip":2690,"Ġmean":2691,"Ġreportedly":2692,"ĠCharl":2693,"opular":2694,"rizona":2695,"Do":2696,"back":2697,"iber":2698,"tle":2699,"uing":2700,"ined":2701,"ĠPal":2702,"Ġbillion":2703,"ĠFace":2704,"Ġhuman":2705,"ĠLo":2706,"Ġaccused":2707,"Ġsaying":2708,"Ġnomination":2709,"ield":2710,"Cons":2711,"vo":2712,"ĠTalking":2713,"Ġdeb":2714,"ĠLook":2715,"ĠOnly":2716,"artisan":2717,"ager":2718,"okes":2719,"nsyl":2720,"Ġaddress":2721,"Ġbenef":2722,"nsylvan":2723,"uary":2724,"Ġacross":2725,"Ġwr":2726,"ĠDNC":2727,"Ġthough":2728,"ĠNet":2729,"ĠStaff":2730,"quality":2731,"ĠBlock":2732,"oved":2733,"ĠReportedly":2734,"Ġquestions":2735,"Jeb":2736,"ĠDr":2737,"ĠStand":2738,"ustry":2739,"ĠMark":2740,"ounsel":2741,"ĠRoundup":2742,"nsylvania":2743,"alt":2744,"arry":2745,"Elizabeth":2746,"Top":2747,"yers":2748,"Ġfeel":2749,"ĠWrong":2750,"ĠBusiness":2751,"Ġhand":2752,"Ġmen":2753,"ĠKelly":2754,"Ġdoing":2755,"Ġclass":2756,"Ġsupporters":2757,"Ġopen":2758,"ĠAfghan":2759,"To":2760,"ait":2761,"Ġtaking":2762,"ĠPrison":2763,"ĠLou":2764,"Ġprocess":2765,"Ġspecial":2766,"ĠProblem":2767,"Ġorgan":2768,"ĠLeader":2769,"flu":2770,"ĠSlams":2771,"iet":2772,"erve":2773,"anies":2774,"ĠGive":2775,"ĠLatest":2776,"Ġlist":2777,"emic":2778,"ĠSteve":2779,"unt":2780,"Ġexecutive":2781,"ocumented":2782,"Ġpr":2783,"Ġmatter":2784,"olid":2785,"amed":2786,"och":2787,"ocates":2788,"ived":2789,"Ġyoun":2790,"iction":2791,"Ġresponse":2792,"ingle":2793,"icul":2794,"Ġsent":2795,"ĠBro":2796,"ĠMuch":2797,"Ġhope":2798,"ĠEd":2799,"Ġstaff":2800,"ĠStudents":2801,"estic":2802,"Ġjudge":2803,"undred":2804,"Democratic":2805,"ĠJuly":2806,"fra":2807,"oot":2808,"val":2809,"Ġauthor":2810,"arks":2811,"Ġfil":2812,"elos":2813,"Ġrece":2814,"ĠFormer":2815,"ĠKing":2816,"Ġpresidency":2817,"pro":2818,"onav":2819,"Ġoften":2820,"Ġchief":2821,"Ġcommunity":2822,"ĠContin":2823,"ĠMuslims":2824,"onavirus":2825,"gender":2826,"atic":2827,"ĠRich":2828,"omel":2829,"Ġnumber":2830,"Ġprof":2831,"ĠAlabama":2832,"Ġunc":2833,"ĠCountry":2834,"ĠParis":2835,"OJ":2836,"Texas":2837,"den":2838,"Ġcut":2839,"ĠDays":2840,"ĠRomney":2841,"lead":2842,"Ġmod":2843,"epend":2844,"ĠEl":2845,"Ġgen":2846,"Ġbehind":2847,"osit":2848,"ĠSecret":2849,"ottes":2850,"ĠWorkers":2851,"aucus":2852,"Marco":2853,"lynn":2854,"elosi":2855,"AS":2856,"EO":2857,"ority":2858,"ĠCIA":2859,"ĠForeign":2860,"Ġnearly":2861,"ĠChina":2862,"Ġprev":2863,"ĠTeam":2864,"California":2865,"right":2866,"reement":2867,"oug":2868,"ĠCNN":2869,"aries":2870,"ĠHad":2871,"ĠMakes":2872,"Ġdrug":2873,"Ġaren":2874,"ĠSenators":2875,"Ġ2014":2876,"ĠLawyer":2877,"onsin":2878,"isconsin":2879,"ĠOpen":2880,"Ġregul":2881,"ĠFacebook":2882,"ĠWalker":2883,"augur":2884,"ital":2885,"Ġmis":2886,"Ġmillions":2887,"room":2888,"aine":2889,"Ġpoll":2890,"Ġmeas":2891,"Chris":2892,"swer":2893,"BC":2894,"go":2895,"ĠTalk":2896,"ĠTakes":2897,"Ġcrisis":2898,"ĠHard":2899,"Ġinformation":2900,"ĠGar":2901,"ĠLives":2902,"allot":2903,"ĠGoing":2904,"ĠDavid":2905,"aire":2906,"dem":2907,"Ġpersonal":2908,"Ġdeep":2909,"ĠNever":2910,"Ġstrong":2911,"Ġstudents":2912,"ĠClaim":2913,"reated":2914,"Ġsecond":2915,"ancial":2916,"Ġblack":2917,"ĠAmendment":2918,"rimination":2919,"stitution":2920,"Ġcontinue":2921,"piracy":2922,"Ġsuch":2923,"Ġfront":2924,"ĠWednesday":2925,"Ġdiv":2926,"Ġmoment":2927,"rible":2928,"osal":2929,"Ġnothing":2930,"Ġjoin":2931,"ĠReve":2932,"ĠGetting":2933,"Ġcomments":2934,"Can":2935,"ka":2936,"work":2937,"ĠTur":2938,"Ġsimp":2939,"Ġcost":2940,"ĠFerguson":2941,"Ġmeeting":2942,"achers":2943,"urg":2944,"riend":2945,"ĠKids":2946,"Ġaccess":2947,"forc":2948,"arents":2949,"ottesville":2950,"ison":2951,"Ġsexual":2952,"ĠNRA":2953,"Ġemploy":2954,"oct":2955,"ĠJew":2956,"ulian":2957,"ained":2958,"Ġval":2959,"Ġ2015":2960,"Ġplans":2961,"Ġworkers":2962,"ĠArrest":2963,"America":2964,"Ġkey":2965,"ĠGeorge":2966,"porate":2967,"People":2968,"kra":2969,"ĠSuggest":2970,"ĠCut":2971,"omestic":2972,"ĠFound":2973,"ĠMur":2974,"Ġhimself":2975,"Ġnon":2976,"asts":2977,"Ġchair":2978,"ĠWhile":2979,"Ġ100":2980,"retty":2981,"Ġrecord":2982,"ĠDefense":2983,"ucky":2984,"Ġeffect":2985,"ology":2986,"ducation":2987,"mit":2988,"Ġwater":2989,"Ġwoman":2990,"Ġweeks":2991,"Ġdead":2992,"rag":2993,"osp":2994,"icted":2995,"ĠUniversity":2996,"Ġcommun":2997,"Ġimmigrants":2998,"Ġkilled":2999,"ĠInvestigation":3000,"My":3001,"ai":3002,"non":3003,"Ġold":3004,"ĠRa":3005,"ĠFar":3006,"asich":3007,"ado":3008,"Ġearly":3009,"Ġevidence":3010,"riends":3011,"aging":3012,"ĠDoes":3013,"ĠTrade":3014,"Ben":3015,"sc":3016,"Ġsure":3017,"Ġfree":3018,"ĠRoy":3019,"eline":3020,"illing":3021,"Ġlives":3022,"using":3023,"aged":3024,"Ġvoter":3025,"ĠAction":3026,"Ġfamilies":3027,"ĠService":3028,"Ġign":3029,"ĠSee":3030,"aring":3031,"icago":3032,"run":3033,"Ġtoward":3034,"ĠRed":3035,"ĠBre":3036,"Ġhar":3037,"Ġmark":3038,"ĠJud":3039,"Ġalways":3040,"Ġkind":3041,"ĠGuns":3042,"ĠCollege":3043,"ĠComments":3044,"aughter":3045,"Ġeduc":3046,"ature":3047,"ĠCEO":3048,"Ġshooting":3049,"Ġsuccess":3050,"Ġseveral":3051,"ĠDream":3052,"ruitt":3053,"Ġbring":3054,"ĠFlynn":3055,"oti":3056,"Ġmakes":3057,"ecess":3058,"eals":3059,"izes":3060,"Ġshows":3061,"Ġexc":3062,"Ġ2020":3063,"Ġdecl":3064,"egoti":3065,"rowd":3066,"Ġelections":3067,"Ġmovement":3068,"Ġmajority":3069,"ĠFamily":3070,"uer":3071,"Ġfire":3072,"Ġbas":3073,"ushner":3074,"Ġforce":3075,"arth":3076,"Ġpolicies":3077,"ĠPolls":3078,"ĠOfficials":3079,"ĠActually":3080,"velop":3081,"ĠDefends":3082,"Ġseems":3083,"Ġincluding":3084,"Ġidea":3085,"undreds":3086,"Ab":3087,"Will":3088,"Watch":3089,"ehner":3090,"national":3091,"ðŁ":3092,"Ġter":3093,"Ġtarget":3094,"alty":3095,"ĠCost":3096,"Ġcertain":3097,"Ġfear":3098,"ĠIde":3099,"Ġdirector":3100,"ĠLat":3101,"Ġreason":3102,"ĠJeb":3103,"Ġris":3104,"Ġcannot":3105,"ĠPlans":3106,"Ġdiscuss":3107,"umbers":3108,"Ġeconomic":3109,"ĠAnnounc":3110,"ming":3111,"era":3112,"ĠAir":3113,"ĠBreak":3114,"ĠMiddle":3115,"Ġne":3116,"ĠLess":3117,"oser":3118,"ipl":3119,"aves":3120,"Ġrepresent":3121,"Ġcalling":3122,"ĠRunning":3123,"Ġfunding":3124,"vironmental":3125,"All":3126,"Mich":3127,"iam":3128,"stand":3129,"ental":3130,"ĠMeeting":3131,"Ġdone":3132,"Ġdirect":3133,"ĠYet":3134,"ĠSpending":3135,"Ġclose":3136,"ĠAssault":3137,"ĠRobert":3138,"Biden":3139,"Dis":3140,"Judge":3141,"Let":3142,"Our":3143,"lac":3144,"ny":3145,"ule":3146,"alse":3147,"icers":3148,"Ġpick":3149,"ĠDes":3150,"ĠOb":3151,"lean":3152,"omes":3153,"ĠMeet":3154,"ĠMade":3155,"Ġhon":3156,"ĠGreat":3157,"Ġnuclear":3158,"Ġlost":3159,"usion":3160,"ĠEast":3161,"ister":3162,"ĠUse":3163,"Ġalmost":3164,"Ġvoted":3165,"upremac":3166,"ĠBannon":3167,"ĠJohnson":3168,"ACA":3169,"Ġlooking":3170,"ribut":3171,"selves":3172,"ING":3173,"Who":3174,"eration":3175,"ĠArab":3176,"ĠSunday":3177,"Ġprivate":3178,"Ġfive":3179,"ĠPelosi":3180,"ĠNation":3181,"Ġlove":3182,"ĠThinks":3183,"ĠSecond":3184,"oving":3185,"Ġaccording":3186,"Ġdecades":3187,"Ġevening":3188,"ĠCounty":3189,"ĠQuestion":3190,"aturday":3191,"Ġyoung":3192,"uerto":3193,".'":3194,"Mon":3195,"Russ":3196,"Sp":3197,"Ġtimes":3198,"ĠTarget":3199,"alia":3200,"ĠSaid":3201,"Ġwords":3202,"ĠPruitt":3203,"ĠGraham":3204,"ĠLGBT":3205,"Ġreleased":3206,"ĠSpeaker":3207,"ĠExt":3208,"ĠWarns":3209,"ĠResponse":3210,"bass":3211,"woman":3212,"hest":3213,"Ġcitizens":3214,"Ġbu":3215,"ĠWatch":3216,"Ġname":3217,"ĠSpecial":3218,"Ġunt":3219,"Ġexpected":3220,"ĠFlint":3221,"Ġeveryone":3222,"ĠProtesters":3223,"Ġinvol":3224,"eachment":3225,"Federal":3226,"ne":3227,"off":3228,"iter":3229,"ĠHack":3230,"ĠMight":3231,"ĠMean":3232,"ĠGi":3233,"riff":3234,"aper":3235,"itted":3236,"ĠImmigrants":3237,"ĠDecl":3238,"ners":3239,"ving":3240,"Ġ...":3241,"ĠSaturday":3242,"Ġsupp":3243,"rut":3244,"Ġhaving":3245,"urch":3246,"ĠKushner":3247,"Ġunf":3248,"blems":3249,"ĠMarriage":3250,"Ġcountries":3251,"ĠExplain":3252,"ĠAmid":3253,"ĠAppro":3254,"Ġrole":3255,"ĠRacist":3256,"Ġteam":3257,"Im":3258,"bol":3259,"eace":3260,"ĠArizona":3261,"ĠSil":3262,"ĠCuts":3263,"Ġseek":3264,"olf":3265,"ĠNuclear":3266,"ĠLew":3267,"ĠStri":3268,"ĠKasich":3269,"ĠRev":3270,"ĠMexico":3271,"Bl":3272,"Every":3273,"of":3274,"ĠTrying":3275,"ĠShoot":3276,"Ġwent":3277,"entucky":3278,"ĠMatter":3279,"imum":3280,"Ġred":3281,"irc":3282,"Ġevent":3283,"ĠUkra":3284,"Ġvice":3285,"Ġcoming":3286,"ĠMonth":3287,"Ġinterview":3288,"Ġbelow":3289,"Ġeffort":3290,"ĠAfghanistan":3291,"ĠLouis":3292,"US":3293,"cy":3294,"oup":3295,"ĠSex":3296,"Ġceleb":3297,"ĠMany":3298,"Ġmet":3299,"ĠStart":3300,"ĠClass":3301,"Ġprogressive":3302,"ĠProgram":3303,"Ġpoliticians":3304,"Ġagency":3305,"Ġefforts":3306,"Ġeconomy":3307,"ĠTweets":3308,"Scott":3309,"ĠQuestions":3310,"fect":3311,"urop":3312,"ats":3313,"Ġbuild":3314,"ĠWere":3315,"Ġline":3316,"Ġeach":3317,"ĠJune":3318,"ensive":3319,"ĠAren":3320,"berg":3321,"State":3322,"Ġwanted":3323,"Ġinsurance":3324,"vanka":3325,"ĠMedicaid":3326,"uliani":3327,"Ġseen":3328,"ĠHand":3329,"ĠBest":3330,"ĠFire":3331,"ador":3332,"eft":3333,"Ġconv":3334,"Ġrally":3335,"Ġjud":3336,"ogn":3337,"Ġothers":3338,"ĠPlay":3339,"flict":3340,"dd":3341,"orado":3342,"ĠPan":3343,"ĠPoints":3344,"ĠHon":3345,"ĠFree":3346,"ĠInv":3347,"ĠForce":3348,"ĠBehind":3349,"Ġvotes":3350,"itting":3351,"olls":3352,"While":3353,"ĠFinally":3354,"Ġvictory":3355,"ĠBetter":3356,"Bill":3357,"Geor":3358,"nect":3359,"onst":3360,"alks":3361,"Ġable":3362,"ĠAway":3363,"ĠFreedom":3364,"Ġhig":3365,"ĠEth":3366,"ĠVideo":3367,"ĠConway":3368,"ĠWithout":3369,"ordable":3370,"Ġspeak":3371,"Ġrules":3372,"ĠTwo":3373,"Ġcontinues":3374,"Ġserious":3375,"ĠCharlottesville":3376,"50":3377,"body":3378,"ederate":3379,"ĠSub":3380,"ĠCaucus":3381,"icts":3382,"Ġpossible":3383,"iles":3384,"Ġlo":3385,"ĠEducation":3386,"istoric":3387,"ĠConstitution":3388,"Ġprobably":3389,"gressives":3390,"Ġresign":3391,"ĠBillion":3392,"Ġusing":3393,"Ġsomeone":3394,"ĠPhot":3395,"forcement":3396,"kes":3397,"los":3398,"Ġahead":3399,"Ġbreak":3400,"ersey":3401,"ĠList":3402,"sey":3403,"ctions":3404,"ully":3405,"ĠChildren":3406,"Ġsoon":3407,"afe":3408,"Ġjobs":3409,"ĠShutdown":3410,"ĠGreen":3411,"ĠPresidency":3412,"aut":3413,"ĠCub":3414,"Ġwatch":3415,"Ġfail":3416,"ĠDan":3417,"ĠBomb":3418,"ĠMatt":3419,"ote":3420,"Ġlim":3421,"ession":3422,"ĠChris":3423,"Ġ11":3424,"ĠLawmaker":3425,"Ġanyone":3426,"Ġanything":3427,"auguration":3428,"**":3429,"roll":3430,"Ġtalking":3431,"ĠSer":3432,"ĠSave":3433,"arian":3434,"Ġthought":3435,"riot":3436,"ĠKn":3437,"ĠThing":3438,"Ġlevel":3439,"legal":3440,"Ġsurpris":3441,"ocuments":3442,"ĠLetter":3443,"TON":3444,"audi":3445,"iplom":3446,"uce":3447,"erman":3448,"reas":3449,"ĠAhead":3450,"Ġtogether":3451,"ĠFuture":3452,"Ġhate":3453,"ĠEurop":3454,"ĠVery":3455,"agon":3456,"ipartisan":3457,"Ġdose":3458,"Ġspeaker":3459,"Ġexper":3460,"Ġcompany":3461,"ĠAccess":3462,"ĠGoes":3463,"ĠRecord":3464,"rought":3465,"Ġrespons":3466,"arently":3467,"Ġattacks":3468,"ument":3469,"Ġ#":3470,"ĠTV":3471,"orial":3472,"eds":3473,"Ġpotential":3474,"Ġbudget":3475,"Ġbattle":3476,"ĠWoman":3477,"ĠWisconsin":3478,"oms":3479,"ĠFall":3480,"Ġmessage":3481,"ĠGay":3482,"Ġlow":3483,"Ġlive":3484,"sequ":3485,"orture":3486,"ĠJersey":3487,"ĠChild":3488,"ĠChang":3489,"Ġrepeal":3490,"Ġelected":3491,"ĠGroups":3492,"ĠIntelligence":3493,"Ġcongressional":3494,"Twitter":3495,"ĠPennsylvania":3496,"ASH":3497,"Musl":3498,"pay":3499,"aled":3500,"icip":3501,"Ġprison":3502,"ĠEver":3503,"Ġforward":3504,"opho":3505,"ablish":3506,"Ġwasn":3507,"Ġrespond":3508,"ĠMichigan":3509,"Ġcourse":3510,"OT":3511,"eky":3512,"kl":3513,"lace":3514,"ĠSystem":3515,"Ġcar":3516,"ĠDiv":3517,"ĠStar":3518,"Ġvideo":3519,"Ġprosecut":3520,"Ġ18":3521,"Ġsenators":3522,"Ġendors":3523,"Ġhappened":3524,"ĠAdviser":3525,"ĠAddress":3526,"void":3527,"Ġuntil":3528,"Many":3529,"ster":3530,"stein":3531,"ĠCover":3532,"ĠCitizens":3533,"Ġsusp":3534,"Ġcred":3535,"ĠHate":3536,"uty":3537,"ĠKim":3538,"net":3539,"Ġtreat":3540,"ĠTer":3541,"ĠCho":3542,"Ġcriminal":3543,"Ġfull":3544,"Ġfocus":3545,"Ġmain":3546,"ĠGives":3547,"roops":3548,"istance":3549,"ction":3550,"raz":3551,"ifican":3552,"Ġshot":3553,"Ġcalls":3554,"Ġremain":3555,"Ġprep":3556,"aught":3557,"ĠSchools":3558,"ĠVictory":3559,"Ġelse":3560,"INGTON":3561,"ĠUkraine":3562,"ASHINGTON":3563,"DA":3564,"Mitch":3565,"care":3566,"Ġturn":3567,"orse":3568,"ĠRico":3569,"ĠHost":3570,"Ġmiss":3571,"resp":3572,"ĠGold":3573,"ĠLeft":3574,"Ġreve":3575,"rain":3576,"Ġ12":3577,"onduct":3578,"Ġattention":3579,"Ġactions":3580,"Ġpassed":3581,"anne":3582,"ĠEndorses":3583,"Ġannounced":3584,"fort":3585,"rad":3586,"ĠSusp":3587,"Ġpat":3588,"ĠPuerto":3589,"ĠDOJ":3590,"Ġbar":3591,"leag":3592,"ĠFail":3593,"Ġdemocracy":3594,"ĠGen":3595,"ece":3596,"ĠLabor":3597,"ĠLeave":3598,"Ġ2018":3599,"ĠâĢĵ":3600,"Ġlawyer":3601,"Ġaccount":3602,"Ġguns":3603,"Ġcheeky":3604,"aska":3605,"structure":3606,".,":3607,"eared":3608,"Ġpred":3609,"ĠRNC":3610,"ĠHol":3611,"ĠHome":3612,"ĠHUFFPO":3613,"ĠLive":3614,"akota":3615,"ĠVeter":3616,"ipeline":3617,"ĠAlready":3618,"ĠExecutive":3619,"Ġcontroversial":3620,"isconduct":3621,"Ġabortion":3622,"irmation":3623,"regon":3624,"Two":3625,"ĠFranc":3626,"Ġincreas":3627,"hetoric":3628,"frastructure":3629,"ĠHUFFPOST":3630,"WASHINGTON":3631,"ler":3632,"viv":3633,"Ġair":3634,"ĠSk":3635,"ilities":3636,"ĠDemocracy":3637,"ĠWhere":3638,"ĠFinds":3639,"ĠMaking":3640,"ĠThen":3641,"Ġglobal":3642,"Ġheld":3643,"ĠJim":3644,"ouri":3645,"ivid":3646,"apons":3647,"Ġspec":3648,"ounce":3649,"Ġcommittee":3650,"ĠConsider":3651,"Ġchallenge":3652,"May":3653,"dog":3654,"ĠSeat":3655,"Ġson":3656,"Ġfavor":3657,"ĠHill":3658,"ĠMid":3659,"Ġthousands":3660,"ushing":3661,"ĠElizabeth":3662,"Ġprovid":3663,"ĠAsks":3664,"Ġspent":3665,"indsey":3666,"ĠVotes":3667,"ĠAdm":3668,"ismiss":3669,"Ġindustry":3670,"evada":3671,"Ġassault":3672,"Ġtrue":3673,"ĠVictims":3674,"Ġclaimed":3675,"Muslim":3676,"tion":3677,"atory":3678,"Ġap":3679,"Ġpaid":3680,"Ġposit":3681,"ilar":3682,"ĠHits":3683,"ĠMen":3684,"uters":3685,"Ġgave":3686,"Ġreality":3687,"urd":3688,"ively":3689,"Ġlear":3690,"ghazi":3691,"Ġspending":3692,"ĠProsecut":3693,"actly":3694,"Ġart":3695,"ulture":3696,"Ġadviser":3697,"ĠFunding":3698,"Ġsmall":3699,"ricane":3700,"Ġeducation":3701,"con":3702,"ez":3703,"hold":3704,"mine":3705,"Ġur":3706,"Ġtaken":3707,"Ġseat":3708,"Ġpar":3709,"ĠHuman":3710,"Ġhours":3711,"Ġlocal":3712,"ortunity":3713,"ĠStory":3714,"ĠVisit":3715,"estro":3716,"ĠAng":3717,"Ġexpect":3718,"afort":3719,"Ġrelations":3720,"Ġdesc":3721,"Ġdevelop":3722,"ificant":3723,"Ar":3724,"iant":3725,"mas":3726,"ane":3727,"ston":3728,"iti":3729,"ĠSince":3730,"Ġcounsel":3731,"ĠDespite":3732,"ĠDACA":3733,"ĠBu":3734,"asons":3735,"Ġdoub":3736,"elt":3737,"amb":3738,"ĠLife":3739,"Ġrev":3740,"Ġbegin":3741,"raft":3742,"ivist":3743,"rated":3744,"ĠThings":3745,"orsuch":3746,"ĠDecision":3747,"Ġlonger":3748,"ĠConfederate":3749,"Ġ50":3750,"Ġletter":3751,"helle":3752,"bassador":3753,"ĠGiuliani":3754,"15":3755,"iar":3756,"ril":3757,"ĠSent":3758,"ĠCrime":3759,"Ġinflu":3760,"Ġvo":3761,"overty":3762,"Ġ15":3763,"ograp":3764,"Report":3765,"legates":3766,"ĠCommission":3767,"ĠRefugees":3768,"Ġtrade":3769,"Ġprevent":3770,"Ġbiggest":3771,"ĠInterview":3772,"ĠBoehner":3773,"time":3774,"ĠTurn":3775,"ĠSame":3776,"ĠSaudi":3777,"ichelle":3778,"iling":3779,"ĠHop":3780,"ĠMitch":3781,"emale":3782,"ĠJournal":3783,"ĠKh":3784,"thony":3785,"ĠRequ":3786,"ĠRelease":3787,"Ġwouldn":3788,"ounts":3789,"ocking":3790,"Ġexplain":3791,"ounds":3792,"Ġrule":3793,"Ġcompanies":3794,"evin":3795,"Ġtruth":3796,"arlier":3797,"ĠEconomic":3798,"ĠAnnounces":3799,"Anti":3800,"Off":3801,"ĠTown":3802,"stant":3803,"ĠAide":3804,"Ġsum":3805,"Ġpush":3806,"ĠHaw":3807,"oma":3808,"Ġdata":3809,"Ġmid":3810,"ĠNight":3811,"rove":3812,"ĠJones":3813,"uster":3814,"que":3815,"ĠReid":3816,"ĠProf":3817,"ĠScandal":3818,"Ġruling":3819,"Ġitself":3820,"Ġarrest":3821,"Another":3822,"ĠLegisl":3823,"Ġchoice":3824,"Ġextrem":3825,"ĠApril":3826,"ociety":3827,"ĠSuggests":3828,"Sunday":3829,"cern":3830,"inet":3831,"inner":3832,"Ġaw":3833,"ĠSon":3834,"Ġsk":3835,"Ġfig":3836,"ĠIll":3837,"rust":3838,"ĠWhether":3839,"omo":3840,"Ġmem":3841,"ĠLove":3842,"Ġlate":3843,"Ġreject":3844,"urning":3845,"istic":3846,"Ġstrugg":3847,"ĠChicago":3848,"inees":3849,"Ġagenda":3850,"iversary":3851,"ĠNomination":3852,"ablishment":3853,"ividual":3854,"Am":3855,"North":3856,"Right":3857,"eaking":3858,"ias":3859,"Ġsit":3860,"Ġsex":3861,"Ġpoor":3862,"ĠPort":3863,"ĠPri":3864,"ĠOct":3865,"ĠBirth":3866,"owers":3867,"urther":3868,"tern":3869,"ĠOnce":3870,"ĠKoch":3871,"ĠReady":3872,"Ġmeans":3873,"ĠManafort":3874,"Ġ30":3875,"Ġhearing":3876,"Ġtweeted":3877,"aiting":3878,"iers":3879,"lo":3880,"Ġtry":3881,"arah":3882,"ĠDrop":3883,"ĠRule":3884,"ominees":3885,"Ġhalf":3886,"Ġground":3887,"Ġbeh":3888,"Ġleading":3889,"ropri":3890,"Ġschools":3891,"Ġknown":3892,"ĠEthics":3893,"Sanders":3894,"ipp":3895,"iest":3896,"more":3897,"Ġtried":3898,"Ġside":3899,"Ġself":3900,"Ġshoot":3901,"Ġcases":3902,"ĠPra":3903,"ĠWell":3904,"ĠHear":3905,"ĠBuild":3906,"ĠGorsuch":3907,"echn":3908,"ĠThese":3909,"Ġform":3910,"ĠJail":3911,"alled":3912,"rage":3913,"Ġanswer":3914,"Ġpolling":3915,"ĠSpeak":3916,"ĠScalia":3917,"Ġgets":3918,"Ġappear":3919,"ĠHarassment":3920,"Ġfinally":3921,"Ġhappen":3922,"ĠAffordable":3923,"klah":3924,"Bar":3925,"Fox":3926,"ders":3927,"self":3928,"wh":3929,"Ġwealth":3930,"ĠPast":3931,"Ġbr":3932,"ĠRips":3933,"Ġdangerous":3934,"illerson":3935,"ĠLaun":3936,"Ġlack":3937,"Ġliberal":3938,"irt":3939,"ources":3940,"ĠKen":3941,"ching":3942,"Ġshut":3943,"Ġadm":3944,"encies":3945,"Ġresults":3946,"ounter":3947,"Ġsense":3948,"fully":3949,"Ġtrad":3950,"Ġfacing":3951,"Ġrecently":3952,"Ġevents":3953,"ma":3954,"Ġtri":3955,"Ġturned":3956,"ales":3957,"ĠAw":3958,"ĠAuthor":3959,"ĠSeek":3960,"ĠCeleb":3961,"ĠCrack":3962,"Ġsafety":3963,"Ġcre":3964,"Ġborder":3965,"ently":3966,"ĠHot":3967,"Ġdam":3968,"Ġinstead":3969,"utes":3970,"ĠViol":3971,"estin":3972,"Ġask":3973,"Ġrad":3974,"elling":3975,"ĠAsked":3976,"ĠSpicer":3977,"nergy":3978,"ĠEmails":3979,"ĠHarvey":3980,"ĠIndiana":3981,"Ġcongressman":3982,"ĠLawsuit":3983,"Act":3984,"En":3985,"Jeff":3986,"Tuesday":3987,"Vot":3988,"War":3989,"bl":3990,"band":3991,"ients":3992,"lin":3993,"uments":3994,"uomo":3995,"ergy":3996,"ĠSept":3997,"isions":3998,"ĠCamp":3999,"entagon":4000,"ĠHit":4001,"ĠLear":4002,"Ġconvention":4003,"enders":4004,"abinet":4005,"ebs":4006,"Ġalong":4007,"aven":4008,"Ġopin":4009,"ĠConservative":4010,"ecially":4011,"ĠFaces":4012,"Ġallegations":4013,"ĠAllegations":4014,"ĠCenter":4015,"Ġveter":4016,"Ġcoverage":4017,"ĠIdea":4018,"klahoma":4019,"do":4020,"Ġenc":4021,"onents":4022,"esc":4023,"Ġsingle":4024,"Ġfreedom":4025,"ĠPark":4026,"Ġocc":4027,"ĠDakota":4028,"iding":4029,"ĠHomel":4030,"ĠBook":4031,"ĠFood":4032,"Ġnumbers":4033,"ĠLose":4034,"ĠLobby":4035,"rog":4036,"outs":4037,"ĠClose":4038,"Ġ21":4039,"agan":4040,"Ġchild":4041,"Ġeng":4042,"Ġbelie":4043,"ĠUsing":4044,"ĠColorado":4045,"ĠChristmas":4046,"rateg":4047,"ĠCohen":4048,"ĠSchumer":4049,"ĠDistrict":4050,"ĠReveals":4051,"ank":4052,"ĠSomething":4053,"ĠRick":4054,"ĠMod":4055,"Ġthinks":4056,"ĠInf":4057,"Ġstar":4058,"Ġwhose":4059,"Ġofficers":4060,"Ġallow":4061,"ĠExc":4062,"oung":4063,"ĠEmb":4064,"Ġthemselves":4065,"Ġcommon":4066,"athroom":4067,"Ġfinancial":4068,"ĠPercent":4069,"Ġmeasure":4070,"!\"":4071,"FBI":4072,"Last":4073,"na":4074,"ool":4075,"ĠAug":4076,"Ġways":4077,"ĠFoll":4078,"Ġled":4079,"ural":4080,"ĠJoin":4081,"Ġjournal":4082,"ioid":4083,"Ġaccept":4084,"ĠFlag":4085,"ĠNeeds":4086,"Ġintelligence":4087,"Ġtravel":4088,"sequences":4089,"aith":4090,"ĠCriminal":4091,"Ġpract":4092,"Ġfailed":4093,"ĠHall":4094,"oted":4095,"Ġdespite":4096,"ĠToday":4097,"imin":4098,"Ġland":4099,"Ġlater":4100,"ĠEv":4101,"see":4102,"abee":4103,"Ġ17":4104,"ollars":4105,"ĠResults":4106,"ĠDefeat":4107,"uckabee":4108,"ĠJanuary":4109,"Ġconcerns":4110,"Ġrather":4111,"ĠJewish":4112,"Wednesday":4113,"Year":4114,"cel":4115,"lad":4116,"ole":4117,"Ġil":4118,"orry":4119,"ĠColl":4120,"Ġfather":4121,"ĠIgn":4122,"lement":4123,"ĠBattle":4124,"ĠMis":4125,"elan":4126,"ĠGod":4127,"Ġready":4128,"Ġeither":4129,"ĠStudent":4130,"hose":4131,"artin":4132,"ressed":4133,"Ġhasn":4134,"action":4135,"ledge":4136,"Ġhelped":4137,"Ġdisp":4138,"Ġadvocates":4139,"Ġserve":4140,"ĠBenghazi":4141,"ypoc":4142,"Ġsimply":4143,"AP":4144,"Despite":4145,"bor":4146,"jects":4147,"uation":4148,"hem":4149,"ĠCuomo":4150,"icult":4151,"Ġfall":4152,"ĠPet":4153,"ĠLooks":4154,"Ġlose":4155,"Ġeasy":4156,"Ġstat":4157,"Ġstrategy":4158,"ĠJared":4159,"ĠVal":4160,"ousing":4161,"ĠBank":4162,"Ġfighting":4163,"Ġdeliver":4164,"Lawmakers":4165,"Ġprovide":4166,"ospital":4167,"Vos":4168,"gins":4169,"light":4170,"where":4171,"Ġ&":4172,"Ġtrou":4173,"ĠTim":4174,"ĠTies":4175,"orities":4176,"Ġcy":4177,"Ġpretty":4178,"Ġfix":4179,"Ġfraud":4180,"ĠHearing":4181,"ĠBas":4182,"ĠBoy":4183,"ĠMillions":4184,"Ġmeet":4185,"Ġinj":4186,"oward":4187,"ĠEric":4188,"ĠStrategy":4189,"ĠKansas":4190,"Thursday":4191,"range":4192,"Ġrepeat":4193,"ĠAccused":4194,"ouncil":4195,"Ġsigned":4196,"Ġproposed":4197,"Ġproposal":4198,"ĠPhil":4199,"ĠAfrican":4200,"ĠTransgender":4201,"Ġdemonst":4202,"incip":4203,"ĠSeem":4204,"App":4205,"CA":4206,"Rand":4207,"Rick":4208,"Tom":4209,"Was":4210,"equality":4211,"lor":4212,"wide":4213,"arr":4214,"icle":4215,"Ġsix":4216,"Ġcities":4217,"Ġpun":4218,"Ġfair":4219,"ilty":4220,"ĠWage":4221,"Ġthird":4222,"Ġnegoti":4223,"ĠNY":4224,"ĠLikely":4225,"Ġemp":4226,"isting":4227,"ĠVeg":4228,"hern":4229,"obb":4230,"apt":4231,"Ġ2012":4232,"rimes":4233,"Ġappears":4234,"ĠActivists":4235,"Ġcomplain":4236,"ikes":4237,"ĠWorking":4238,"Ġfinal":4239,"iorina":4240,"Ġleadership":4241,"ĠDems":4242,"Ġracism":4243,"ĠElections":4244,"struction":4245,"Ġchanges":4246,"Politic":4247,"ĠIslamic":4248,"ĠIssues":4249,"Ġcommunities":4250,"Sem":4251,"bat":4252,"race":4253,"rees":4254,"ĠSum":4255,"arily":4256,"Ġwall":4257,"Ġsuff":4258,"Ġpopular":4259,"Ġfood":4260,"ĠBern":4261,"ĠMess":4262,"ĠMessage":4263,"eless":4264,"imony":4265,"Ġstri":4266,"ĠJack":4267,"Ġwithin":4268,"Ġproblems":4269,"ĠProgressive":4270,"ĠCalled":4271,"Ġagree":4272,"Ġquick":4273,"Ġweekend":4274,"Ġreported":4275,"News":4276,"Ġemails":4277,"ĠPasses":4278,"ĠFamilies":4279,"ĠJobs":4280,"ruption":4281,"Florida":4282,"ĠChallenge":4283,"prof":4284,"ecessary":4285,"ĠVegas":4286,"oes":4287,"rect":4288,"itness":4289,"ĠSue":4290,"ĠID":4291,"ĠPrivate":4292,"ĠFour":4293,"ĠMet":4294,"Ġdr":4295,"acher":4296,"aches":4297,"ĠNA":4298,"Ġgiven":4299,"Ġrelease":4300,"Ġequ":4301,"isted":4302,"ceed":4303,"idents":4304,"key":4305,"ode":4306,"Ġprobe":4307,"aily":4308,"ĠReason":4309,"Ġunp":4310,"ormal":4311,"anyah":4312,"Ġenforcement":4313,"ĠOrders":4314,"verse":4315,"versation":4316,"Ġreports":4317,"ĠImmigrant":4318,"ĠAbuse":4319,"Ġamid":4320,"Ġdefense":4321,"Ġguy":4322,"Ġracial":4323,"ĠSyrian":4324,"Ġrestrict":4325,"ermont":4326,"Ġfollowing":4327,"Police":4328,"ophob":4329,"anyahu":4330,"FL":4331,"Mc":4332,"onent":4333,"erk":4334,"atform":4335,"ĠTillerson":4336,"ĠPoint":4337,"ĠDam":4338,"ĠHuckabee":4339,"ĠFather":4340,"Ġdied":4341,"Ġdev":4342,"acre":4343,"igin":4344,"lying":4345,"epar":4346,"ĠEr":4347,"Ġheard":4348,"ulation":4349,"aryland":4350,"ĠKentucky":4351,"ression":4352,"asted":4353,"Ġleave":4354,"ordin":4355,"ober":4356,"aved":4357,"ĠNothing":4358,"enced":4359,"ika":4360,"Ġconspiracy":4361,"ĠBiggest":4362,"Ġindividual":4363,"ĠConservatives":4364,"ĠCompany":4365,"ĠFinal":4366,"Ġpowerful":4367,"ĠRespond":4368,"inois":4369,"Justice":4370,"ĠHurricane":4371,"runner":4372,"ĠVeterans":4373,"elania":4374,"Are":4375,"Now":4376,"bo":4377,"burg":4378,"haps":4379,"solut":4380,"Ġesp":4381,"ĠSure":4382,"Ġsy":4383,"Ġsuper":4384,"Ġposition":4385,"ĠHal":4386,"ĠHimself":4387,"ĠMom":4388,"Ġhit":4389,"Ġhot":4390,"aces":4391,"ached":4392,"usive":4393,"ĠEmer":4394,"istor":4395,"ĠView":4396,"ĠConcern":4397,"Ġvs":4398,"Ġchance":4399,"Ġ14":4400,"Ġkids":4401,"ĠBlames":4402,"rimaries":4403,"Ġappeared":4404,"otten":4405,"Ġopportunity":4406,"Ġentire":4407,"Ġcharges":4408,"Ġlawsuit":4409,"ĠBetween":4410,"Ġbenefits":4411,"Ġreceived":4412,"aii":4413,"Ġrisk":4414,"Monday":4415,"':":4416,"10":4417,"CC":4418,"Dem":4419,"From":4420,"NBC":4421,"Over":4422,"ci":4423,"iels":4424,"erc":4425,"ĠTreat":4426,"Ġwond":4427,"Ġsim":4428,"Ġpri":4429,"Ġpriv":4430,"ĠBob":4431,"ĠBrot":4432,"Ġmind":4433,"Ġmember":4434,"Ġnet":4435,"ĠLot":4436,"ĠLost":4437,"ĠLie":4438,"add":4439,"raising":4440,"ĠThrough":4441,"roud":4442,"Ġexactly":4443,"ĠRead":4444,"Ġrecogn":4445,"Ġenergy":4446,"ĠReports":4447,"ĠDefend":4448,"Ġunderstand":4449,"ĠUsed":4450,"ĠChristian":4451,"ĠTeachers":4452,"ĠImpeachment":4453,"Ġreligious":4454,"ĠProtests":4455,"ĠUrges":4456,"Abortion":4457,"ebsite":4458,"Gun":4459,"Read":4460,"Sec":4461,"ball":4462,"cial":4463,"standing":4464,"ĠCour":4465,"Ġsol":4466,"Ġsociety":4467,"Ġcru":4468,"Ġcuts":4469,"Ġcrime":4470,"Ġpopul":4471,"ĠPaid":4472,"ĠPoor":4473,"ĠRi":4474,"ĠMembers":4475,"ĠLow":4476,"ĠInauguration":4477,"urt":4478,"ĠConv":4479,"avior":4480,"ĠLeak":4481,"Ġattempt":4482,"angu":4483,"ĠDoing":4484,"ĠArg":4485,"ĠArmy":4486,"Ġeverything":4487,"Ġ199":4488,"Ġdiff":4489,"Ġcollege":4490,"ĠCoronavirus":4491,"ĠHappened":4492,"ĠPrice":4493,"upremacists":4494,"estroy":4495,"Be":4496,"cle":4497,"lit":4498,"opped":4499,"tah":4500,"uke":4501,"iny":4502,"rend":4503,"ĠSafety":4504,"Ġpen":4505,"Ġposs":4506,"Ġfired":4507,"iled":4508,"ĠFind":4509,"ĠFix":4510,"ĠMr":4511,"ĠMitt":4512,"ĠMoment":4513,"Ġmorning":4514,"ĠGlobal":4515,"ĠNon":4516,"ĠLittle":4517,"Ġstay":4518,"Ġstudent":4519,"ĠStay":4520,"ĠStorm":4521,"acked":4522,"Ġconflict":4523,"ĠAsk":4524,"obody":4525,"Ġ16":4526,"Ġstatement":4527,"inking":4528,"Ġdefeat":4529,"ĠInterest":4530,"Ġtrust":4531,"ĠRuling":4532,"Reuters":4533,"Ad":4534,"CE":4535,"HS":4536,"set":4537,"itive":4538,"ĠCops":4539,"ications":4540,"Ġfalse":4541,"ĠData":4542,"Ġbrought":4543,"level":4544,"ĠFiorina":4545,"Ġhands":4546,"Ġhuge":4547,"Ġdeter":4548,"illed":4549,"ĠLas":4550,"ĠLies":4551,"utr":4552,"ushed":4553,"ĠEmploy":4554,"ĠEnergy":4555,"Ġgrowing":4556,"Ġearlier":4557,"ortions":4558,"irement":4559,"Ġ13":4560,"avy":4561,"ĠScience":4562,"ĠExecut":4563,"ĠâĢķ":4564,"Ġresearch":4565,"inked":4566,"Ġparticul":4567,"ĠThanks":4568,"Ġindepend":4569,"ĠAgenda":4570,"Ġmedical":4571,"ĠBoard":4572,"ĠComes":4573,"Ġsignificant":4574,"Ġcritical":4575,"Ġcoal":4576,"accine":4577,"ĠContinues":4578,"Ġpreviously":4579,"ĠGarland":4580,"ĠArrested":4581,"OTUS":4582,"Election":4583,"Kelly":4584,"ground":4585,"Ġties":4586,"ala":4587,"inger":4588,"ĠCy":4589,"Ġballot":4590,"asio":4591,"Ġhor":4592,"Ġmist":4593,"Ġinf":4594,"ĠGame":4595,"ĠName":4596,"ĠLim":4597,"usband":4598,"ĠEp":4599,"irl":4600,"Ġheart":4601,"ĠJon":4602,"ĠVice":4603,"ĠCondem":4604,"ardon":4605,"ensus":4606,"Ġworst":4607,"ĠBacks":4608,"Senator":4609,"ĠEng":4610,"ĠCharges":4611,"Ġrefugees":4612,"Ġservice":4613,"ĠReturns":4614,"ĠDeVos":4615,"Ġprotesters":4616,"porations":4617,"ĠMajority":4618,"ĠDebt":4619,"ĠIssue":4620,"ĠMemo":4621,"Ġbroad":4622,"ĠMovement":4623,"ĠEffort":4624,"ĠCuba":4625,"Ġexperience":4626,"Ġespecially":4627,"Big":4628,"EA":4629,"Her":4630,"LU":4631,"oon":4632,"ores":4633,"Ã©":4634,"Ġtakes":4635,"Ġterm":4636,"itions":4637,"ĠSn":4638,"ĠCabinet":4639,"Ġword":4640,"Ġpan":4641,"Ġpath":4642,"Ġparents":4643,"ĠIl":4644,"ĠPun":4645,"Ġbomb":4646,"Ġbirth":4647,"Ġtown":4648,"ander":4649,"ĠFake":4650,"ĠFavor":4651,"Ġdue":4652,"Ġinvest":4653,"Ġlooks":4654,"emen":4655,"Ġbegan":4656,"Ġspoke":4657,"icking":4658,"Ġoffer":4659,"Ġgoes":4660,"Ġagreement":4661,"Ġcomplet":4662,"riving":4663,"ĠSurpris":4664,"ĠTruth":4665,"Ġterrorism":4666,"ĠBelieve":4667,"Ġvalues":4668,"Michael":4669,"Russia":4670,"leagues":4671,"Ġincreasingly":4672,"ĠOctober":4673,"LGBT":4674,"SA":4675,"house":4676,"pect":4677,"ĠAlex":4678,"Ġcapit":4679,"Ġfurther":4680,"ilt":4681,"ented":4682,"anded":4683,"Ġmiddle":4684,"Ġgone":4685,"ĠStrugg":4686,"Ġ25":4687,"Ġblock":4688,"ucker":4689,"Ġoper":4690,"ixon":4691,"ĠBring":4692,"Ġcriticism":4693,"Ġracist":4694,"Ġhopeful":4695,"ĠPalestin":4696,"Lindsey":4697,"Nancy":4698,"Obamacare":4699,"draw":4700,"tt":4701,"yes":4702,"oul":4703,"ĠCouncil":4704,"Ġwid":4705,"Ġcrowd":4706,"ĠDinner":4707,"idemic":4708,"ĠRand":4709,"ĠBid":4710,"andemic":4711,"ĠFeb":4712,"ĠMoves":4713,"Ġmess":4714,"olks":4715,"Ġgame":4716,"Ġgiving":4717,"ĠAndrew":4718,"Ġrhetoric":4719,"ĠProbably":4720,"Ġallies":4721,"Ġcontest":4722,"ibly":4723,"ĠCommunity":4724,"Ġneeded":4725,"Ġremarks":4726,"ĠUsers":4727,"medi":4728,"ĠGuy":4729,"Ġbank":4730,"Ġcoronavirus":4731,"ĠRole":4732,"ĠDavis":4733,"Barack":4734,"law":4735,"we":4736,"rep":4737,"ĠTaking":4738,"ĠCast":4739,"ĠClear":4740,"Ġsil":4741,"Ġfriends":4742,"ĠPred":4743,"ĠDoub":4744,"ĠDoug":4745,"Ġbook":4746,"ĠOld":4747,"ĠOregon":4748,"ĠWild":4749,"ĠFired":4750,"Ġnar":4751,"ĠNevada":4752,"amous":4753,"imore":4754,"Ġlabor":4755,"Ġeas":4756,"ĠScar":4757,"Ġundocumented":4758,"Steve":4759,"Ġremember":4760,"ĠAgency":4761,"ugee":4762,"Ġemail":4763,"Ġfaces":4764,"Ġcorporate":4765,"ĠMinimum":4766,"ĠBenef":4767,"ĠPrep":4768,"Ġphot":4769,"ĠMedicare":4770,"ĠSanctions":4771,"ĠEconomy":4772,"altimore":4773,"going":4774,"Ġinvolved":4775,"bola":4776,"George":4777,"reasury":4778,"ĠAugust":4779,"Def":4780,"Get":4781,"Man":4782,"Or":4783,"Old":4784,"Rem":4785,"coming":4786,"hy":4787,"iece":4788,"men":4789,"Ġresident":4790,"aly":4791,"Ġaud":4792,"arant":4793,"ici":4794,"Ġcreated":4795,"ĠPossible":4796,"ĠPipeline":4797,"Ġoil":4798,"ĠHun":4799,"ĠHope":4800,"ĠFull":4801,"aching":4802,"âĢĶ":4803,"ĠVows":4804,"ĠYoung":4805,"ounded":4806,"Ġappoint":4807,"Ġapparently":4808,"ĠCalling":4809,"Ġshouldn":4810,"owski":4811,"ĠReporter":4812,"ĠRefuses":4813,"errick":4814,"Ġknows":4815,"ĠDecember":4816,"ĠSaying":4817,"ĠEnough":4818,"ĠComplain":4819,"ĠBoost":4820,"ĠBecome":4821,"Ġraised":4822,"ĠTrip":4823,"Ġvictims":4824,"Ġminority":4825,"Ġinterests":4826,"Ġgrand":4827,"Ġviews":4828,"ĠRichard":4829,"Ġdifficult":4830,"Gov":4831,"San":4832,"Yes":4833,"aust":4834,"election":4835,"pa":4836,"ennes":4837,"ĠAid":4838,"ishing":4839,"ĠPicks":4840,"leas":4841,"omas":4842,"Ġdomestic":4843,"Ġreview":4844,"irms":4845,"rive":4846,"Ġ24":4847,"ellow":4848,"ĠReview":4849,"apon":4850,"ĠBlasts":4851,"Ġcomment":4852,"Ġbecame":4853,"ĠDeportation":4854,"ĠPlace":4855,"Ġbills":4856,"Ġthinking":4857,"Ġdiscrimination":4858,"ĠHelped":4859,"ĠThreats":4860,"ĠThreatens":4861,"Ġ2008":4862,"ĠDenies":4863,"ĠFranken":4864,"ĠPenalty":4865,"ĠEndorsement":4866,"Ġprograms":4867,"ĠTerrorism":4868,"Ġapproach":4869,"Ġsuggested":4870,"Ġchairman":4871,"Washington":4872,"Ġcapital":4873,"ennessee":4874,"Col":4875,"Poll":4876,"aos":4877,"rick":4878,"rel":4879,"state":4880,"ĠSues":4881,"Ġsaw":4882,"Ġfun":4883,"Ġfoot":4884,"ils":4885,"iders":4886,"ĠRis":4887,"imir":4888,"ĠLa":4889,"Ġlosing":4890,"ĠEnt":4891,"irther":4892,"ĠVermont":4893,"ntil":4894,"heney":4895,"Ġallowed":4896,"ĠOrgan":4897,"Ġremains":4898,"ĠAgreement":4899,"Ġadvoc":4900,"Ġcriticized":4901,"itizen":4902,"ĠSigns":4903,"Ġflag":4904,"Ġinclude":4905,"ĠDreamers":4906,"lacement":4907,"ĠArabia":4908,"ĠPanel":4909,"ladimir":4910,".-":4911,"che":4912,"cast":4913,"ium":4914,"kansas":4915,"po":4916,"Ġident":4917,"Ġtechn":4918,"Ġwife":4919,"Ġcirc":4920,"Ġpoints":4921,"ĠPersonal":4922,"ĠMill":4923,"ĠMos":4924,"ĠEarly":4925,"irmed":4926,"aker":4927,"Ġroll":4928,"ĠReagan":4929,"Ġweapons":4930,"risy":4931,"Ġoutside":4932,"Ġjustices":4933,"Ġattemp":4934,"Ġworse":4935,"ĠAccuses":4936,"ĠInternational":4937,"ometimes":4938,"Ġ40":4939,"ĠComing":4940,"ĠTried":4941,"ĠTries":4942,"etsy":4943,"ĠApolog":4944,"Ġconcerned":4945,"ĠPromises":4946,"Conservative":4947,"Ġdoubt":4948,"ypocrisy":4949,"solutely":4950,"Cru":4951,"Miss":4952,"gate":4953,"gency":4954,"ror":4955,"vision":4956,"Ġill":4957,"reaking":4958,"itud":4959,"itarian":4960,"ĠAround":4961,"ĠSean":4962,"ĠCities":4963,"arre":4964,"armed":4965,"Ġfore":4966,"ĠDoct":4967,"ĠRen":4968,"ĠBrief":4969,"ĠFil":4970,"Ġhundreds":4971,"Ġdiplom":4972,"Ġmult":4973,"acts":4974,"ĠGl":4975,"ĠLiber":4976,"Ġlobby":4977,"roduc":4978,"orted":4979,"ĠVis":4980,"ĠYemen":4981,"iance":4982,"inder":4983,"Ġunion":4984,"ension":4985,"Ġresult":4986,"nedy":4987,"Ġworked":4988,"Ġdonors":4989,"gedy":4990,"Ġdisg":4991,"ĠInsurance":4992,"Ġreflect":4993,"Ġprotections":4994,"Ġcheck":4995,"ĠGrand":4996,"errym":4997,"roversy":4998,"Ġtweets":4999,"Ġincrease":5000,"Ġchanged":5001,"ĠStrike":5002,"Ġopinion":5003,"utrality":5004,"Kellyanne":5005,"paio":5006,"Bec":5007,"Govern":5008,"Und":5009,"yond":5010,"Ġ[":5011,"ĠCred":5012,"ara":5013,"Ġcause":5014,"Ġpra":5015,"ĠDeep":5016,"ĠRon":5017,"ĠReb":5018,"ĠHuge":5019,"Ġdesp":5020,"Ġdaughter":5021,"Ġdollars":5022,"aced":5023,"aming":5024,"Ġlight":5025,"Ġlady":5026,"usal":5027,"Ġreb":5028,"ĠUN":5029,"Ġbeyond":5030,"raight":5031,"ĠVP":5032,"ĠVet":5033,"arding":5034,"Ġcouldn":5035,"Ġdecided":5036,"Ġsecret":5037,"ĠMedical":5038,"ĠUses":5039,"Ġopposition":5040,"ĠPerry":5041,"inese":5042,"Ġpromise":5043,"Ġmarijuana":5044,"play":5045,"Disp":5046,"iterally":5047,"Ġdescrib":5048,"ropriate":5049,"Elect":5050,"dling":5051,"well":5052,"whel":5053,"Ġz":5054,"rey":5055,"ĠTry":5056,"Ġpubl":5057,"ĠPope":5058,"ĠOil":5059,"ĠWays":5060,"ĠFed":5061,"ĠMor":5062,"Ġmot":5063,"acter":5064,"ĠGerman":5065,"Ġlaun":5066,"ushes":5067,"Ġforces":5068,"ctuary":5069,"allies":5070,"aining":5071,"Ġrise":5072,"ebus":5073,"Ġwilling":5074,"ĠAds":5075,"Ġorigin":5076,"ĠBlocks":5077,"ĠLawyers":5078,"atorial":5079,"ĠRussians":5080,"Ġactivists":5081,"Ġmayor":5082,"ĠAmong":5083,"ĠTaxes":5084,"ĠShouldn":5085,"Ġabuse":5086,"lando":5087,"empor":5088,"ĠLegacy":5089,"ĠCoal":5090,"Ġwinning":5091,"ĠMissouri":5092,"ĠReligious":5093,"Ġlargest":5094,"ĠMexican":5095,"Ġdebt":5096,"Ġorganization":5097,"Ġdeeply":5098,"Ġcertainly":5099,"ĠLatino":5100,"ĠTerrible":5101,"ĠAdmits":5102,"ĠKennedy":5103,"anguage":5104,"Em":5105,"Ind":5106,"cks":5107,"uits":5108,"win":5109,"Ġtough":5110,"anks":5111,"ĠToward":5112,"ĠSC":5113,"ĠIvanka":5114,"ĠPo":5115,"ĠDangerous":5116,"Ġball":5117,"Ġmother":5118,"illy":5119,"ĠLiberal":5120,"ĠEbola":5121,"ocused":5122,"Ġhero":5123,"ĠRepresent":5124,"ĠConference":5125,"upid":5126,"ĠChuck":5127,"Ġrich":5128,"ĠAsian":5129,"icket":5130,"enses":5131,"Ġcontribut":5132,"ĠOfficer":5133,"appy":5134,"Ġexperts":5135,"ĠArpaio":5136,"Ġopt":5137,"Chuck":5138,"Ġseven":5139,"ĠWorse":5140,"ĠFighting":5141,"ĠImportant":5142,"ĠSurviv":5143,"Ġconfirmation":5144,"Ġtells":5145,"ennial":5146,"Ġgener":5147,"Black":5148,"Ġhigher":5149,"TE":5150,"even":5151,"itional":5152,"ĠSeeks":5153,"ĠCop":5154,"Ġwage":5155,"Ġsafe":5156,"Ġcoup":5157,"Ġpeace":5158,"enty":5159,"lea":5160,"Ġdocuments":5161,"ĠNun":5162,"Ġliving":5163,"vert":5164,"ĠStat":5165,"Ġvis":5166,"Ġvisit":5167,"igned":5168,"Ġasking":5169,"udden":5170,"antage":5171,"ĠThird":5172,"obil":5173,"oking":5174,"Ġwhole":5175,"Ġofficer":5176,"airs":5177,"ĠOrlando":5178,"ĠDonors":5179,"Ġrespect":5180,"cknow":5181,"flicts":5182,"Ġcritics":5183,"ĠRacial":5184,"ĠKilled":5185,"Ġtransp":5186,"ĠExplains":5187,"ĠDaniels":5188,"poen":5189,"),":5190,"Min":5191,"Up":5192,"wood":5193,"Ġesc":5194,"ĠTold":5195,"ĠTurns":5196,"ĠSand":5197,"isers":5198,"ĠCheney":5199,"Ġsn":5200,"Ġsan":5201,"Ġpur":5202,"Ġbased":5203,"Ġbrief":5204,"ĠFear":5205,"ĠMad":5206,"ĠMisconduct":5207,"igged":5208,"ĠGave":5209,"ĠNixon":5210,"ulner":5211,"Ġconference":5212,"Ġconstitutional":5213,"Ġcondem":5214,"Ġconsequences":5215,"Ġvers":5216,"ample":5217,"ague":5218,"agement":5219,"Ġexecut":5220,"ĠAnthony":5221,"Ġlawmaker":5222,"isco":5223,"Ġincome":5224,"Ġconservatives":5225,"Senators":5226,"ĠAccus":5227,"Ġparties":5228,"iverse":5229,"Ġstarted":5230,"ĠIndepend":5231,"Ġshowed":5232,"Ġfacts":5233,"ĠZika":5234,"Ġpromised":5235,"Congressman":5236,"Ġserved":5237,"Ġservices":5238,"ientists":5239,"aucuses":5240,"Ġprotests":5241,"Ġbusinesses":5242,"oliday":5243,"Ġharassment":5244,"ĠExtrem":5245,"Maybe":5246,"ĠPriebus":5247,"ĠSeptember":5248,"Ġsimilar":5249,"?âĢĿ":5250,"Dear":5251,"Eric":5252,"Ph":5253,"Tod":5254,"Women":5255,"gun":5256,"kin":5257,"lines":5258,"ss":5259,"Ġep":5260,"Ġera":5261,"ination":5262,"inke":5263,"Ġtele":5264,"ĠThose":5265,"Ġaim":5266,"Ġaide":5267,"edic":5268,"Ġworth":5269,"Ġcast":5270,"Ġpers":5271,"ĠDomestic":5272,"ĠRock":5273,"ĠWent":5274,"oting":5275,"Ġdro":5276,"Ġdram":5277,"etts":5278,"usan":5279,"emy":5280,"ĠEmp":5281,"urder":5282,"Ġstrateg":5283,"ript":5284,"ĠKerry":5285,"Ġvac":5286,"abilities":5287,"ĠPolicies":5288,"Ġaccomp":5289,"Ġdecide":5290,"Ġimpact":5291,"insburg":5292,"Ġwarned":5293,"ĠAmbassador":5294,"Ġability":5295,"ĠWorst":5296,"ĠInterior":5297,"Ġraise":5298,"ĠInside":5299,"Ġrefused":5300,"ĠTrial":5301,"ĠRacism":5302,"Ġthreats":5303,"Ġcharge":5304,"Ġmarriage":5305,"ĠRelations":5306,"Ġchallenges":5307,"ĠRegul":5308,"Ġprincip":5309,"Ġemployees":5310,"Ġseeking":5311,"ĠEurope":5312,"payer":5313,"razy":5314,"respond":5315,"ĠFrancisco":5316,"Ġinfluence":5317,"Ġarrested":5318,"Ġresidents":5319,"errymand":5320,"Dispatch":5321,"100":5322,"Did":5323,"First":5324,"Ivanka":5325,"Mal":5326,"NY":5327,"Protest":5328,"SNBC":5329,"Where":5330,"ye":5331,"Ġrap":5332,"ĠTalks":5333,"itz":5334,"Ġfield":5335,"ili":5336,"ĠId":5337,"ĠPentagon":5338,"ĠOK":5339,"lev":5340,"ĠBow":5341,"andate":5342,"ĠFiring":5343,"ĠMother":5344,"asc":5345,"Ġhaven":5346,"Ġdoct":5347,"ett":5348,"Ġlies":5349,"Ġgas":5350,"Ġones":5351,"istle":5352,"ĠVladimir":5353,"ĠKaine":5354,"Ġshare":5355,"iple":5356,"ĠLeast":5357,"ĠVoted":5358,"reng":5359,"Ġpled":5360,"ĠAccount":5361,"Ġplanning":5362,"ĠUndocumented":5363,"ĠHarris":5364,"Ġemerg":5365,"Ġkilling":5366,"Ġdistrict":5367,"ĠTrust":5368,"swers":5369,"Ġrequest":5370,"Ġannouncement":5371,"Conservatives":5372,"Ġbenefit":5373,"Ġsupposed":5374,"Ġtreatment":5375,"Ġurged":5376,"Ġrelationship":5377,"ĠKhan":5378,"ternative":5379,"Ġtrial":5380,"Ġcreate":5381,"James":5382,"Ne":5383,"Of":5384,"Sex":5385,"gely":5386,"just":5387,"mo":5388,"Ġens":5389,"Ġriv":5390,"Ġtrip":5391,"reen":5392,"ĠTrou":5393,"ĠTorture":5394,"ĠSol":5395,"Ġbrot":5396,"Ġbipartisan":5397,"ĠFe":5398,"ĠFailed":5399,"ĠMerrick":5400,"Ġdark":5401,"ĠNative":5402,"Ġloss":5403,"ements":5404,"ĠEvidence":5405,"ĠInstead":5406,"iral":5407,"irls":5408,"ource":5409,"rating":5410,"ĠShort":5411,"encing":5412,"issipp":5413,"angel":5414,"Ġenvironment":5415,"Ġenvironmental":5416,"Ġcommission":5417,"versight":5418,"Only":5419,"Ġparticip":5420,"ĠOpioid":5421,"Ġtaxes":5422,"ĠSheriff":5423,"Ġ196":5424,"Ġpaying":5425,"ĠElectoral":5426,"Att":5427,"ĠKilling":5428,"ĠDiscrimination":5429,"ĠEverything":5430,"Ġrequire":5431,"ĠPowerful":5432,"Ġbillionaire":5433,"ĠNetanyahu":5434,"ĠFoundation":5435,"arthy":5436,"ĠHomeland":5437,"arrass":5438,"Because":5439,"CNN":5440,"Ferguson":5441,"Harry":5442,"Lago":5443,"RE":5444,"Tr":5445,"bling":5446,"dy":5447,"per":5448,"pan":5449,"yle":5450,"sters":5451,"ĠSad":5452,"ĠSold":5453,"Ġca":5454,"Ġcreat":5455,"Ġfriend":5456,"ĠPriv":5457,"ĠDies":5458,"ĠDod":5459,"idence":5460,"ĠFriends":5461,"Ġdismiss":5462,"ĠGround":5463,"ĠNFL":5464,"ament":5465,"ĠLine":5466,"Ġlie":5467,"usetts":5468,"ĠEqu":5469,"outhern":5470,"ubern":5471,"ĠReplace":5472,"osals":5473,"ĠChurch":5474,"Ġjail":5475,"ureau":5476,"ĠShot":5477,"ĠBlame":5478,"ĠWein":5479,"achusetts":5480,"Ġscandal":5481,"Ġcomplic":5482,"Ġperform":5483,"atters":5484,"ridge":5485,"Ġmanager":5486,"ĠGuard":5487,"Ġfaced":5488,"ĠZinke":5489,"ĠDemand":5490,"ĠProtection":5491,"Ġmassive":5492,"ĠContinue":5493,"Ġmarket":5494,"ĠIllinois":5495,"ĠEmergency":5496,"ulnerable":5497,"issippi":5498,"ubernatorial":5499,"Jim":5500,"Sean":5501,"kward":5502,"lant":5503,"sy":5504,"zz":5505,"Ġer":5506,"ĠAge":5507,"ĠSal":5508,"ĠSelf":5509,"ĠCore":5510,"ĠCounsel":5511,"ĠPul":5512,"Ġtot":5513,"ĠWil":5514,"ĠFew":5515,"ĠMag":5516,"Ġharm":5517,"Ġdemocrat":5518,"Ġmoral":5519,"ĠGiving":5520,"ĠGinsburg":5521,"ĠEll":5522,"Ġren":5523,"Ġrefer":5524,"Ġreasons":5525,"ifying":5526,"change":5527,"ival":5528,"ĠChinese":5529,"izarre":5530,"Ġspread":5531,"Ġspokes":5532,"Ġspeaking":5533,"issions":5534,"ĠCarter":5535,"States":5536,"Ġhappy":5537,"ĠCorporate":5538,"Ġpressure":5539,"force":5540,"Ġallegedly":5541,"ĠCriticism":5542,"ductive":5543,"Ġorganiz":5544,"Ġprofess":5545,"Ġhighest":5546,"Ġpositions":5547,"Voters":5548,"Ġencour":5549,"leveland":5550,"Rel":5551,"hic":5552,"has":5553,"lash":5554,"rity":5555,"uf":5556,"uic":5557,"ĠTough":5558,"orrow":5559,"Ġavoid":5560,"ouch":5561,"ĠClean":5562,"arity":5563,"icit":5564,"Ġwalk":5565,"Ġsold":5566,"Ġcoll":5567,"Ġculture":5568,"ruary":5569,"Ġbit":5570,"ĠRoll":5571,"leases":5572,"Ġhistoric":5573,"Ġdocument":5574,"Ġmag":5575,"acific":5576,"Ġnear":5577,"ills":5578,"amo":5579,"ĠEvent":5580,"ĠUtah":5581,"acking":5582,"estruct":5583,"Ġcond":5584,"ĠThomas":5585,"ume":5586,"ĠReject":5587,"ipe":5588,"ĠAlaska":5589,"Three":5590,"Inter":5591,"ĠWasn":5592,"Ġruled":5593,"Ġscience":5594,"anced":5595,"Ġhelping":5596,"ĠExpect":5597,"eption":5598,"Ġissued":5599,"Ġannual":5600,"Ġideas":5601,"Ġboost":5602,"Michigan":5603,"Ġbuy":5604,"Ġresponsibility":5605,"ĠAngel":5606,"ĠRequest":5607,"ĠHawaii":5608,"ĠHotel":5609,"ĠFollowing":5610,"Today":5611,"Meet":5612,"Pat":5613,"Res":5614,"Rob":5615,"lig":5616,"pet":5617,"post":5618,"paper":5619,"rich":5620,"Ġult":5621,"ĠTroops":5622,"Ġaut":5623,"Ġage":5624,"itment":5625,"ĠSingle":5626,"ĠCr":5627,"ĠCrowd":5628,"icing":5629,"Ġwild":5630,"Ġfinds":5631,"ĠPotential":5632,"ĠDif":5633,"ĠDone":5634,"ĠBer":5635,"ĠBallot":5636,"ĠFred":5637,"asion":5638,"Ġmurder":5639,"ĠLosing":5640,"ĠLyn":5641,"verage":5642,"ĠInfrastructure":5643,"ĠStrong":5644,"rave":5645,"ester":5646,"ĠConnect":5647,"antor":5648,"Ġ22":5649,"Ġproject":5650,"ously":5651,"icture":5652,"ĠAnton":5653,"Inside":5654,"Ġattend":5655,"Ġbecoming":5656,"Ġblame":5657,"Ġworry":5658,"Ġreporters":5659,"Ġdefend":5660,"ĠCharged":5661,"ĠConspiracy":5662,"ĠBecomes":5663,"ĠDisaster":5664,"nesota":5665,"ĠMcCarthy":5666,"Ġpromises":5667,"Alabama":5668,"ĠCheck":5669,"ĠRestrict":5670,"ĠChairman":5671,"Does":5672,"ĠEuropean":5673,"ĠMidterm":5674,"Ġarticle":5675,"ĠDrops":5676,"while":5677,"ĠCrackdown":5678,"Ġillegal":5679,"iciary":5680,"ĠSCOTUS":5681,"Go":5682,"Health":5683,"Te":5684,"aur":5685,"like":5686,"rand":5687,"xon":5688,"zens":5689,"Ġir":5690,"Ġeth":5691,"onna":5692,"stone":5693,"Ġaid":5694,"Ġslam":5695,"Ġsides":5696,"Ġpo":5697,"ĠDad":5698,"ĠDie":5699,"leep":5700,"ĠFun":5701,"ĠFair":5702,"ĠFails":5703,"ĠMaryland":5704,"Ġinn":5705,"igion":5706,"oln":5707,"eck":5708,"ĠNearly":5709,"ĠNancy":5710,"atever":5711,"ĠLand":5712,"Ġlower":5713,"Ġgrow":5714,"ocaust":5715,"ĠForward":5716,"Ġconversation":5717,"though":5718,"rates":5719,"Ġprogress":5720,"umn":5721,"avan":5722,"Ġ2013":5723,"Ġupon":5724,"ranch":5725,"ĠHasn":5726,"Ġanyway":5727,"ĠArt":5728,"Stop":5729,"Ġwarning":5730,"Ġhowever":5731,"ossil":5732,"ĠRece":5733,"ĠRecords":5734,"ĠPoliticians":5735,"ĠAgree":5736,"ĠIndustry":5737,"ĠWanted":5738,"Ġroom":5739,"Ġhappens":5740,"Ġseries":5741,"ĠMeans":5742,"ĠPrevent":5743,"ĠProposal":5744,"ĠOthers":5745,"incoln":5746,"ĠCritics":5747,"ĠLeadership":5748,"Ġknew":5749,"Ġlarge":5750,"Ġestablishment":5751,"ĠLatin":5752,"upremacist":5753,"ĠShootings":5754,"ĠHonor":5755,"Ġbehavior":5756,"Ġbelieves":5757,"Ġquickly":5758,"ĠFebruary":5759,").":5760,"Pen":5761,"Sarah":5762,"how":5763,"hib":5764,"port":5765,"sid":5766,"wing":5767,"Ġteen":5768,"Ġtroops":5769,"ĠSuccess":5770,"ishes":5771,"Ġcamp":5772,"Ġclean":5773,"Ġpain":5774,"Ġpurs":5775,"Ġpoverty":5776,"idicul":5777,"ĠOklahoma":5778,"ĠRaid":5779,"ĠRog":5780,"ĠHam":5781,"ĠHistoric":5782,"ĠFocus":5783,"otal":5784,"ĠGard":5785,"Ġnine":5786,"ĠLee":5787,"ĠLib":5788,"ĠLoses":5789,"Ġlif":5790,"ĠInflu":5791,"Ġforced":5792,"romise":5793,"Ġconduct":5794,"iret":5795,"Ġads":5796,"oked":5797,"ĠAnswer":5798,"rench":5799,"Ġaccus":5800,"ĠResearch":5801,"Ġsched":5802,"Ġsenior":5803,"Ġreporter":5804,"ĠRefugee":5805,"ĠAssoci":5806,"olutions":5807,"Ġcolor":5808,"Ġkeeps":5809,"ĠElected":5810,"Ġdeaths":5811,"ĠRoberts":5812,"ĠPartners":5813,"ĠRelief":5814,"ĠDiscuss":5815,"ĠSmith":5816,"Ġterrorist":5817,"place":5818,"ĠHurt":5819,"Ġconsidered":5820,"tlement":5821,"leading":5822,"Ġregulations":5823,"Ġcosts":5824,"Ġneigh":5825,"ĠLouisiana":5826,"Ġshootings":5827,"Ġveterans":5828,"Cruz":5829,"Ġpublished":5830,"angelical":5831,"Ġdemocratic":5832,"Ed":5833,"EPA":5834,"Leg":5835,"Rac":5836,"UP":5837,"iod":5838,"mbol":5839,"rows":5840,"xit":5841,"ĠTeen":5842,"ĠAvoid":5843,"ĠSun":5844,"arp":5845,"arter":5846,"Ġsave":5847,"Ġsepar":5848,"Ġfast":5849,"Ġfaith":5850,"ĠPeace":5851,"ĠRod":5852,"ĠBur":5853,"ĠBathroom":5854,"ĠFact":5855,"ĠFront":5856,"ĠMartin":5857,"acrif":5858,"amala":5859,"road":5860,"Ġgay":5861,"Ġstudy":5862,"ĠJerry":5863,"unch":5864,"Ġrate":5865,"overy":5866,"agine":5867,"orders":5868,"ĠPolling":5869,"icked":5870,"lank":5871,"erves":5872,"Ġreplace":5873,"apping":5874,"apped":5875,"Ġappeal":5876,"ĠCarl":5877,"Ġworried":5878,"ĠCommun":5879,"Christ":5880,"Ġbelief":5881,"stitu":5882,"Ġindic":5883,"Ġ198":5884,"Ġpresent":5885,"Ġcolleagues":5886,"ĠFinancial":5887,"ĠMinister":5888,"Ġcharged":5889,"Ġplaying":5890,"Ġdenied":5891,"ĠNeil":5892,"Ġviolent":5893,"ĠPalin":5894,"Ġwrite":5895,"Ġprevious":5896,"ĠRaise":5897,"Ġfailure":5898,"ĠLaunches":5899,"Ġshutdown":5900,"ĠCollins":5901,"Malley":5902,"Cor":5903,"Comp":5904,"Good":5905,"MA":5906,"Mitt":5907,"Michelle":5908,"Roy":5909,"Rubio":5910,"gry":5911,"lights":5912,"ped":5913,"wise":5914,"ĠX":5915,"Ġess":5916,"oud":5917,"itial":5918,"ĠSick":5919,"ĠCoup":5920,"icious":5921,"Ġwake":5922,"Ġwait":5923,"Ġfelt":5924,"ĠPerson":5925,"ĠParents":5926,"ĠRad":5927,"ĠBoth":5928,"ĠFore":5929,"ashes":5930,"Ġliber":5931,"urate":5932,"Ġear":5933,"Ġstories":5934,"alls":5935,"oper":5936,"Ġanal":5937,"aste":5938,"Ġ27":5939,"Ġoffered":5940,"ervation":5941,"elfare":5942,"Ġsupporting":5943,"ĠAllies":5944,"Ġimmedi":5945,"ĠInternet":5946,"ĠPuts":5947,"Ġlegislative":5948,"ĠRoad":5949,"Ġsubject":5950,"Ġdemand":5951,"Ġdifference":5952,"ĠMeas":5953,"Ġgreater":5954,"Ġphone":5955,"ĠKeeps":5956,"ĠResigns":5957,"ĠChanged":5958,"DATE":5959,"UPDATE":5960,"30":5961,"DC":5962,"Fac":5963,"Mark":5964,"PP":5965,"Since":5966,"mar":5967,"Ġtens":5968,"ĠTreasury":5969,"itorial":5970,"ĠSho":5971,"Ġsolution":5972,"ĠICE":5973,"ĠDev":5974,"ĠDocuments":5975,"rum":5976,"Ġboy":5977,"ĠWr":5978,"ĠHospital":5979,"ĠMichelle":5980,"acle":5981,"olunt":5982,"Ġnominees":5983,"ĠNations":5984,"amer":5985,"amuc":5986,"ĠUntil":5987,"ĠIsland":5988,"oston":5989,"omey":5990,"ĠThousands":5991,"Ġjury":5992,"Ġexist":5993,"ĠRejects":5994,"ĠReleases":5995,"Ġspend":5996,"ĠHeart":5997,"ĠProject":5998,"ĠWarning":5999,"ĠOffers":6000,"upremacy":6001,"Ġperhaps":6002,"ĠEndorse":6003,"Ġinternational":6004,"wards":6005,"athy":6006,"azis":6007,"Ġcareer":6008,"ĠBrit":6009,"ĠDisp":6010,"ological":6011,"umpt":6012,"loyment":6013,"ĠFunds":6014,"Ġthreatened":6015,"ĠInvestigate":6016,"Exp":6017,"ĠMassive":6018,"ĠAnniversary":6019,"Ġdelegates":6020,"ĠProtections":6021,"ylum":6022,"Ġaffect":6023,"ĠSmall":6024,"ĠPromise":6025,"ĠLonger":6026,"urbing":6027,"Ġdetails":6028,"Ġmodern":6029,"ĠMurder":6030,"Ġdirectly":6031,"Ġbuilding":6032,"Ġsummer":6033,"Ġsituation":6034,"ufact":6035,"12":6036,"Critic":6037,"Cross":6038,"Never":6039,"Out":6040,"eith":6041,"likely":6042,"tain":6043,"zen":6044,"Ġtact":6045,"ero":6046,"atched":6047,"ĠTower":6048,"eng":6049,"ĠAC":6050,"ĠAnt":6051,"ĠAcross":6052,"ĠSupp":6053,"isive":6054,"Ġwish":6055,"Ġsend":6056,"Ġpushing":6057,"ĠPlead":6058,"ruck":6059,"ĠHell":6060,"ĠMaine":6061,"Ġhistor":6062,"Ġmatters":6063,"Ġnecessary":6064,"sea":6065,"rian":6066,"ĠVA":6067,"ĠVo":6068,"ĠKevin":6069,"Ġleak":6070,"Ġexample":6071,"Ġ202":6072,"hens":6073,"ĠLeaves":6074,"Ġoutrage":6075,"Ġcancer":6076,"Ġstatements":6077,"ondon":6078,"ĠUpd":6079,"Ġagencies":6080,"Ġcandidacy":6081,"ĠMaybe":6082,"ancing":6083,"Ġperfect":6084,"Ġpartisan":6085,"ointed":6086,"ĠHelping":6087,"Ġtragedy":6088,"ĠFacts":6089,"Ġadded":6090,"Ġemer":6091,"Ġdepartment":6092,"Ġteachers":6093,"Ġfollow":6094,"ĠNeutrality":6095,"Ġlargely":6096,"Ġestate":6097,"ĠMemorial":6098,"ĠUrge":6099,"Ġcurrently":6100,"Ġjoined":6101,"Ġterms":6102,"ĠLGBTQ":6103,"ĠLewis":6104,"ĠMatters":6105,"Ġsurprise":6106,"payers":6107,"itiative":6108,"ĠPraises":6109,"ĠLearn":6110,"ĠFourth":6111,"ophobia":6112,"Ġwonder":6113,"amucci":6114,"14":6115,"Acc":6116,"Bo":6117,"ES":6118,"Leak":6119,"Ohio":6120,"Real":6121,"Time":6122,"no":6123,"war":6124,"reced":6125,"ene":6126,"ĠSimp":6127,"arcer":6128,"Ġwins":6129,"Ġproud":6130,"Ġfocused":6131,"ĠII":6132,"ĠDog":6133,"ĠWords":6134,"ĠHands":6135,"ĠHaving":6136,"leston":6137,"andon":6138,"andowski":6139,"ĠFears":6140,"ĠFalse":6141,"ĠMeg":6142,"Ġmilit":6143,"âĢĺ":6144,"ĠLoss":6145,"adel":6146,"ĠEra":6147,"rod":6148,"hod":6149,"abb":6150,"Ġleaving":6151,"ansion":6152,"Ġdog":6153,"oken":6154,"Ġcloser":6155,"itten":6156,"Ġlawyers":6157,"ĠWarn":6158,"manuel":6159,"Ġactivist":6160,"legally":6161,"ibuster":6162,"ĠTrolls":6163,"ĠAgo":6164,"ĠSoon":6165,"Ġinvestigating":6166,"Ġcollect":6167,"ricts":6168,"Ġanniversary":6169,"Ġincluded":6170,"ĠTransp":6171,"Ġreturn":6172,"ĠMassacre":6173,"Ġchoose":6174,"helsea":6175,"ĠPressure":6176,"ĠIsraeli":6177,"ĠHappen":6178,"Progressive":6179,"Ġhoping":6180,"Ġhopes":6181,"ĠBader":6182,"ĠDetails":6183,"ĠTurkey":6184,"Ġsimple":6185,"ĠJudiciary":6186,"Ġtargeted":6187,"Ġhonor":6188,"ĠDeclares":6189,"ĠSilence":6190,"ĠHolocaust":6191,"Ġvoice":6192,"Ġmemo":6193,"Ġtradition":6194,"ĠHaley":6195,"Ġnetwork":6196,"recedented":6197,"?'":6198,"Civil":6199,"Dav":6200,"Wing":6201,"Work":6202,"dom":6203,"lose":6204,"mates":6205,"rary":6206,"worth":6207,"inent":6208,"eren":6209,"ald":6210,"alm":6211,"Ġav":6212,"ĠAim":6213,"Ġpund":6214,"Ġpushed":6215,"Ġpandemic":6216,"Ġfake":6217,"Ġfolks":6218,"ĠPardon":6219,"ĠDismiss":6220,"ĠRos":6221,"ĠHours":6222,"ĠBaltimore":6223,"ĠMist":6224,"Ġdomin":6225,"Ġdream":6226,"Ġdraw":6227,"veill":6228,"ĠGreg":6229,"ĠGrowing":6230,"lywood":6231,"ĠEquality":6232,"Ġreach":6233,"Ġstage":6234,"ĠStands":6235,"ribe":6236,"oph":6237,"arely":6238,"ĠChance":6239,"anted":6240,"Ġnoted":6241,"ĠProgress":6242,"rank":6243,"ĠBlow":6244,"ollar":6245,"ĠWilliam":6246,"ĠCancer":6247,"Cont":6248,"Ġimpeachment":6249,"Ġlegacy":6250,"ĠReality":6251,"ĠGuant":6252,"Ġ60":6253,"Ġfunds":6254,"Ġseriously":6255,"ĠDemands":6256,"ĠTestify":6257,"ĠEveryone":6258,"Ġboard":6259,"ĠHolder":6260,"ĠTomDispatch":6261,"Ġbroken":6262,"Ġmeasures":6263,"ĠMonths":6264,"ĠPhoto":6265,"Ġparticularly":6266,"Ġindependent":6267,"Remember":6268,"ĠRisk":6269,"Ġdescribed":6270,"ĠNunes":6271,"Pennsylvania":6272,"veillance":6273,"Carly":6274,"Dep":6275,"EC":6276,"Iran":6277,"Nearly":6278,"Put":6279,"Rudy":6280,"South":6281,"Virginia":6282,"aires":6283,"cont":6284,"ping":6285,"viously":6286,"Ġtyp":6287,"hered":6288,"rets":6289,"aters":6290,"ouble":6291,"ĠCause":6292,"icut":6293,"Ġcap":6294,"Ġfe":6295,"Ġfirm":6296,"Ġbase":6297,"Ġbatt":6298,"ĠWife":6299,"ĠBol":6300,"ĠFemale":6301,"ashing":6302,"ashed":6303,"Ġhusband":6304,"otional":6305,"Ġmer":6306,"Ġmention":6307,"ĠGolf":6308,"Ġnamed":6309,"ĠTook":6310,"ĠNominees":6311,"imal":6312,"Ġlanguage":6313,"Ġgather":6314,"ortun":6315,"Ġstuff":6316,"ria":6317,"rast":6318,"Ġconnect":6319,"ifts":6320,"rative":6321,"ĠThough":6322,"Ġ26":6323,"Ġran":6324,"Ġshift":6325,"anship":6326,"Ġspot":6327,"ĠProgressives":6328,"Ġgoal":6329,"Ġcontract":6330,"ĠWars":6331,"isease":6332,"ĠOutside":6333,"Ġplaces":6334,"legate":6335,"Ġcombat":6336,"ĠTrad":6337,"ĠMont":6338,"ĠControversial":6339,"Ġwars":6340,"Ġamount":6341,"Ġended":6342,"eeping":6343,"Ġdisapp":6344,"Ġdisaster":6345,"ĠAppeal":6346,"ĠCompanies":6347,"Ġshowing":6348,"hoods":6349,"Ġcorrect":6350,"Ġcongresswoman":6351,"Ġobs":6352,"ĠMassachusetts":6353,"Ġhearings":6354,"ĠAnything":6355,"Ġtransgender":6356,"iffs":6357,"Ġsuggests":6358,"Ġconsidering":6359,"Ġcenter":6360,"ĠEffect":6361,"Ġdebates":6362,"ĠBreaks":6363,"Immigration":6364,"ĠLewandowski":6365,"Ġjudges":6366,"rolled":6367,"ĠCitizenship":6368,"Ġrevealed":6369,"Ġpredict":6370,"ĠFrancis":6371,"Ġlearned":6372,"Officials":6373,"Ġfigure":6374,"ĠBuilding":6375,"ĠSpeaks":6376,"Ġradical":6377,"ĠJoins":6378,"Ġstatus":6379,"Ġpunish":6380,"ĠPalestinian":6381,"istlebl":6382,"posted":6383,"Critics":6384,"bur":6385,"based":6386,"ih":6387,"ters":6388,"uels":6389,"rent":6390,"ingrich":6391,"Ġac":6392,"Ġacknow":6393,"ĠCirc":6394,"ĠCleveland":6395,"Ġwitness":6396,"Ġsat":6397,"Ġsuit":6398,"Ġfine":6399,"ĠPeter":6400,"ĠPlea":6401,"ĠDark":6402,"Ġbody":6403,"ĠHalf":6404,"Ġhum":6405,"Ġdie":6406,"Ġdiss":6407,"Ġmisconduct":6408,"Ġinequality":6409,"ĠGut":6410,"amental":6411,"ĠLar":6412,"Ġlands":6413,"ĠInvest":6414,"ĠInformation":6415,"Ġgives":6416,"Ġgender":6417,"urge":6418,"unning":6419,"rier":6420,"aint":6421,"ĠKob":6422,"chieve":6423,"ampion":6424,"ĠWithdraw":6425,"ideos":6426,"ĠWhich":6427,"ĠProb":6428,"Thousands":6429,"ĠOffer":6430,"ĠWeigh":6431,"Ġappl":6432,"leges":6433,"Ġagreed":6434,"Ġmeant":6435,"ikki":6436,"ĠTroll":6437,"Ġabs":6438,"Ġpublicly":6439,"ĠAppears":6440,"ĠTea":6441,"Ġattacked":6442,"ĠGuilty":6443,"umbent":6444,"Ġcorporations":6445,"ĠReturn":6446,"Israel":6447,"Ġphys":6448,"ĠTestimony":6449,"Nothing":6450,"Ġargue":6451,"ĠDebates":6452,"Ġholding":6453,"phia":6454,"Ġmeaning":6455,"Ġfiled":6456,"Ġdivided":6457,"Ġterrible":6458,"Ġhonest":6459,"Russian":6460,"ĠPhotos":6461,"ĠSerious":6462,"Ġendorsement":6463,"Ġbeginning":6464,"ĠRiot":6465,"uddenly":6466,"panic":6467,"stituents":6468,"umptive":6469,"adelphia":6470,"Che":6471,"Few":6472,"Gay":6473,"Kentucky":6474,"TA":6475,"haul":6476,"lished":6477,"mark":6478,"partisan":6479,"Ġtorture":6480,"anamo":6481,"atal":6482,"atures":6483,"ĠTennessee":6484,"ĠAust":6485,"ĠSarah":6486,"ĠCB":6487,"ĠCre":6488,"Ġcounter":6489,"ĠDraw":6490,"ĠHig":6491,"ĠFeel":6492,"ĠMul":6493,"Ġhousing":6494,"Ġmoving":6495,"aying":6496,"resh":6497,"Ġnations":6498,"ĠNazi":6499,"imid":6500,"Ġgiant":6501,"Ġstanding":6502,"ĠJos":6503,"ulf":6504,"acks":6505,"Ġanger":6506,"chor":6507,"ivity":6508,"Ġ23":6509,"ĠPresidents":6510,"apan":6511,"Ġsplit":6512,"Ġkept":6513,"bert":6514,"ogue":6515,"ĠBills":6516,"ilege":6517,"ĠFlip":6518,"achine":6519,"Ġdecisions":6520,"Ġquite":6521,"Ġqualif":6522,"rived":6523,"ĠPlatform":6524,"ĠAccept":6525,"ĠChristians":6526,"Ġroad":6527,"Ġproposals":6528,"ĠFinance":6529,"Ġseemed":6530,"Ġconfront":6531,"Ġconfirmed":6532,"ĠFundraising":6533,"Ġcharacter":6534,"ĠMississippi":6535,"Ġputting":6536,"Ġslow":6537,"Ġargued":6538,"Ġterrorists":6539,"ĠStephen":6540,"ĠCentral":6541,"ification":6542,"clusive":6543,"fraid":6544,"Ġbasic":6545,"Georgia":6546,"ĠChanges":6547,"Ġprosecutors":6548,"Ġpositive":6549,"ĠHopeful":6550,"Ġwealthy":6551,"ĠJackson":6552,"ĠIllegal":6553,"tta":6554,"errymandering":6555,"DOJ":6556,"Fake":6557,"Happy":6558,"OR":6559,"Pl":6560,"Wor":6561,"equ":6562,"pired":6563,"Ġturning":6564,"Ġwaiting":6565,"Ġcust":6566,"Ġcrimes":6567,"Ġpul":6568,"Ġprem":6569,"Ġprimaries":6570,"Ġfully":6571,"ĠPot":6572,"ĠPretty":6573,"ĠDiplom":6574,"Ġborn":6575,"ĠHypocrisy":6576,"ĠBipartisan":6577,"ĠBirther":6578,"ĠBetsy":6579,"ĠBureau":6580,"ĠFoot":6581,"ĠFeds":6582,"ĠMilit":6583,"ĠMember":6584,"otally":6585,"Ġinfrastructure":6586,"olved":6587,"ĠGingrich":6588,"Ġnames":6589,"Ġnormal":6590,"ĠNames":6591,"ĠNBC":6592,"ĠLate":6593,"ĠLos":6594,"ĠLincoln":6595,"ĠEst":6596,"irty":6597,"ocent":6598,"istent":6599,"Ġstopped":6600,"ĠJong":6601,"Ġarea":6602,"aby":6603,"ables":6604,"ĠThought":6605,"ebr":6606,"umers":6607,"ucceed":6608,"ĠReleased":6609,"risons":6610,"Ġ2010":6611,"ĠBlasio":6612,"minist":6613,"Ġdecade":6614,"ĠAttempt":6615,"ĠCommon":6616,"Ġmaybe":6617,"ĠPlot":6618,"ĠHeroin":6619,"ixed":6620,"Ġinside":6621,"ĠEnvironmental":6622,"gypt":6623,"Ġdiscrimin":6624,"Ġelectoral":6625,"Ġpresumptive":6626,"Ġtruly":6627,"ĠAdvocates":6628,"ĠCorrespond":6629,"ĠMinority":6630,"Congressional":6631,"Ġvictim":6632,"ĠGrass":6633,"Ġminimum":6634,"arency":6635,"ĠIncre":6636,"Ġapproval":6637,"ĠChallenger":6638,"Ġcentury":6639,"Ġprice":6640,"ĠMeets":6641,"rutal":6642,"ĠStrikes":6643,"Ġresponded":6644,"ĠDivided":6645,"ĠChoice":6646,"ĠHollywood":6647,"ĠBuy":6648,"Activists":6649,"Ġrepeatedly":6650,"obbying":6651,"profit":6652,"Ġindividuals":6653,"ĠScaramucci":6654,"Under":6655,"uicide":6656,"Hundreds":6657,"Look":6658,"Me":6659,"Melania":6660,"Net":6661,"National":6662,"Plan":6663,"Very":6664,"Yet":6665,"avery":6666,"gic":6667,"math":6668,"nam":6669,"she":6670,"xic":6671,"Ġten":6672,"onight":6673,"erty":6674,"ĠCold":6675,"iced":6676,"Ġsick":6677,"Ġsolid":6678,"Ġsometimes":6679,"Ġcarry":6680,"Ġfellow":6681,"ĠPath":6682,"ĠPopular":6683,"idel":6684,"Ġbid":6685,"ĠOs":6686,"ĠRice":6687,"lee":6688,"ĠFrench":6689,"Ġinst":6690,"etition":6691,"ĠEach":6692,"Ġeight":6693,"Ġstreng":6694,"ĠCloser":6695,"usting":6696,"agger":6697,"assion":6698,"ĠAtlant":6699,"eyond":6700,"ĠReasons":6701,"inded":6702,"ĠAdam":6703,"ĠExxon":6704,"rett":6705,"Ġworks":6706,"egative":6707,"ĠEnds":6708,"ĠExperts":6709,"ĠAmaz":6710,"Ġprec":6711,"ĠLeads":6712,"Charl":6713,"Ġundermine":6714,"ĠWouldn":6715,"Ġopposed":6716,"Ġrare":6717,"ĠGuide":6718,"Ġcontinued":6719,"ĠTrib":6720,"Ġdeportation":6721,"ĠRaces":6722,"ĠRespons":6723,"urrection":6724,"Ġtelling":6725,"ĠProposed":6726,"Ġrequires":6727,"Ġargument":6728,"ĠServices":6729,"Should":6730,"racking":6731,"ĠAlleged":6732,"Ġfeeling":6733,"Ġuncon":6734,"Ġdeclared":6735,"dds":6736,"Ġendorsed":6737,"ĠFailure":6738,"Ġaccountable":6739,"Ġvoices":6740,"Ġrejected":6741,"ĠSummit":6742,"ordinary":6743,"ĠResponds":6744,"Ġpanel":6745,"Trans":6746,"sych":6747,"ĠLatinos":6748,"David":6749,"ĠKobach":6750,"Co":6751,"Dan":6752,"IL":6753,"KK":6754,"Support":6755,"bit":6756,"ipping":6757,"mon":6758,"mare":6759,"nuch":6760,"rous":6761,"Ġtrend":6762,"reets":6763,"Ġafraid":6764,"itism":6765,"ĠAc":6766,"ĠSide":6767,"ese":6768,"Ġwebsite":6769,"Ġcitizen":6770,"Ġfeat":6771,"Ġfuel":6772,"Ġfemale":6773,"ĠPushes":6774,"Ġbott":6775,"Ġdig":6776,"Ġinform":6777,"olic":6778,"elson":6779,"ĠNegoti":6780,"ĠNumbers":6781,"ĠLater":6782,"ĠLondon":6783,"aded":6784,"emies":6785,"ĠEas":6786,"Ġbeat":6787,"ĠJer":6788,"ĠStamp":6789,"ĠStanding":6790,"ĠStudy":6791,"alling":6792,"ĠReplacement":6793,"ifth":6794,"asty":6795,"elled":6796,"ailing":6797,"ĠProcess":6798,"ĠProblems":6799,"ĠUnp":6800,"ĠSpread":6801,"Ġallowing":6802,"Ġovert":6803,"ointing":6804,"ĠWeapon":6805,"Ġexpert":6806,"ĠCancel":6807,"ĠFlake":6808,"Ġappeals":6809,"ĠQuiet":6810,"aza":6811,"Ġstarting":6812,"ĠBoo":6813,"ĠHarry":6814,"Ġregion":6815,"Ġ197":6816,"ĠWinning":6817,"ĠConfirmation":6818,"ĠMinnesota":6819,"ĠHappy":6820,"Reince":6821,"atural":6822,"Ġreceive":6823,"Ġeffective":6824,"ĠRaises":6825,"Ġexcept":6826,"rutiny":6827,"ĠRevolution":6828,"ĠKnew":6829,"Ġprepared":6830,"Ġreveal":6831,"ĠConsidering":6832,"ĠHopes":6833,"Ġmidterm":6834,"ĠProfess":6835,"Ġrestrictions":6836,"ĠStormy":6837,"Ġdropped":6838,"ĠLynch":6839,"esterday":6840,"avanaugh":6841,"idiculous":6842,"ĠUpdates":6843,"nuchin":6844,"16":6845,"500":6846,"Bet":6847,"Could":6848,"Free":6849,"Mex":6850,"Oklahoma":6851,"PD":6852,"Page":6853,"PAC":6854,"RS":6855,"Ryan":6856,"eec":6857,"giving":6858,"mical":6859,"rin":6860,"rown":6861,"Ġriot":6862,"edd":6863,"ĠSusan":6864,"ĠCur":6865,"ication":6866,"Ġsect":6867,"Ġsound":6868,"Ġsought":6869,"Ġsupremacists":6870,"Ġpiece":6871,"ĠPlease":6872,"ĠPrime":6873,"ĠPray":6874,"ĠDuck":6875,"Ġbreat":6876,"ĠRex":6877,"ĠHor":6878,"ĠHum":6879,"lew":6880,"ĠBay":6881,"ĠBall":6882,"ĠBoston":6883,"ĠFast":6884,"ĠMil":6885,"ĠMelania":6886,"ĠMSNBC":6887,"Ġmount":6888,"etz":6889,"ĠNSA":6890,"Their":6891,"iment":6892,"ĠTheory":6893,"Ġgonna":6894,"Ġstands":6895,"ĠJapan":6896,"ĠStance":6897,"iful":6898,"rators":6899,"unded":6900,"Ġadop":6901,"ictions":6902,"Ġ2011":6903,"Ġcontroversy":6904,"acted":6905,"Ġpolitically":6906,"ĠFlood":6907,"iki":6908,"Ġcommitted":6909,"ferent":6910,"Ġmostly":6911,"Ġwarming":6912,"Chicago":6913,"Ġseason":6914,"ĠWorried":6915,"ĠCharleston":6916,"Ġraising":6917,"Climate":6918,"ĠInsists":6919,"ĠIranian":6920,"umps":6921,"ĠAdvice":6922,"Ġprotecting":6923,"ranted":6924,"Ġkeeping":6925,"aunt":6926,"Ġharder":6927,"ysis":6928,"Ġextra":6929,"Ġalleged":6930,"Ġafford":6931,"ĠHappens":6932,"ĠKorean":6933,"Ġplayed":6934,"raced":6935,"Ġcourts":6936,"ĠDeliver":6937,"rifying":6938,"Ġauthority":6939,"ĠElse":6940,"ĠBrexit":6941,"ĠApproval":6942,"ĠBillionaire":6943,"Ġapolog":6944,"Ġlearn":6945,"Ġveteran":6946,"ĠPhiladelphia":6947,"Semitic":6948,"ĠBernard":6949,"ĠBrother":6950,"Ġpenalty":6951,"uckerberg":6952,"Ġwidely":6953,"related":6954,"ennials":6955,"poena":6956,"Ġversion":6957,"Ġemergency":6958,"ĠTrouble":6959,"Ġschedul":6960,"ĠACLU":6961,"ĠGuantanamo":6962,"ebraska":6963,"ĠCorrespondents":6964,"!'":6965,"Arizona":6966,"De":6967,"During":6968,"Imp":6969,"Lead":6970,"Mr":6971,"Ser":6972,"Six":6973,"Tim":6974,"Well":6975,"bon":6976,"cow":6977,"cript":6978,"eo":6979,"fit":6980,"za":6981,"ĠTerm":6982,"itor":6983,"itim":6984,"itely":6985,"ĠSend":6986,"ĠSupremacists":6987,"ĠCust":6988,"Ġwind":6989,"Ġsom":6990,"Ġsho":6991,"Ġcore":6992,"ĠPoverty":6993,"ĠDaily":6994,"ĠRudy":6995,"ĠWord":6996,"ĠWiret":6997,"ĠHousing":6998,"ĠBul":6999,"ĠFel":7000,"ĠFires":7001,"Ġhur":7002,"Ġdestroy":7003,"ĠTrumpcare":7004,"ete":7005,"ĠTogether":7006,"ammy":7007,"Ġonline":7008,"Ġongoing":7009,"Ġhell":7010,"ĠStein":7011,"ĠForm":7012,"ĠKat":7013,"Ġprove":7014,"ĠBeat":7015,"Ġalone":7016,"ĠAlways":7017,"Ġclosed":7018,"ogul":7019,"Ġexpress":7020,"Ġcampaigns":7021,"ĠResistance":7022,"ĠCanada":7023,"uffing":7024,"leground":7025,"ĠCarry":7026,"ĠArmed":7027,"Ġblow":7028,"attled":7029,"ĠSupporter":7030,"Ġimmigrant":7031,"embly":7032,"Ġdefended":7033,"Anthony":7034,"ĠManager":7035,"ĠAppear":7036,"employment":7037,"Ġplanet":7038,"ĠCompares":7039,"ĠTeacher":7040,"Ġopponents":7041,"Ġinvestigations":7042,"Ġfundamental":7043,"ĠUnderstand":7044,"ĠIntel":7045,"Ġclearly":7046,"ĠTests":7047,"Ġordered":7048,"Ġswing":7049,"lications":7050,"Ġbroke":7051,"ĠDeadly":7052,"ĠLooking":7053,"Ġvalue":7054,"Ġcommunications":7055,"ĠTargets":7056,"ĠWatchdog":7057,"Ġcelebrate":7058,"losure":7059,"ĠProsecutor":7060,"constitutional":7061,"Ġsymbol":7062,"ĠMoments":7063,"Secret":7064,"ĠCyber":7065,"Ġeasier":7066,"ĠBenefits":7067,"Missouri":7068,"itude":7069,"Ġpurp":7070,"arrassing":7071,"ĠGardner":7072,"Iowa":7073,"Mass":7074,"Major":7075,"Per":7076,"Too":7077,"Your":7078,"bie":7079,"cing":7080,"han":7081,"hus":7082,"vard":7083,"ĠðŁ":7084,"initely":7085,"rehens":7086,"atically":7087,"ĠTay":7088,"ali":7089,"itle":7090,"ĠAud":7091,"ĠAides":7092,"ĠSnow":7093,"arms":7094,"icon":7095,"Ġcaucuses":7096,"Ġpack":7097,"ĠDro":7098,"ĠDick":7099,"ĠDHS":7100,"Ġbal":7101,"Ġbur":7102,"ĠRape":7103,"ĠWebsite":7104,"ĠHook":7105,"ĠBody":7106,"ĠFirm":7107,"Ġhouse":7108,"Ġdestruct":7109,"Ġmental":7110,"Ġinitial":7111,"ĠGill":7112,"Ġnice":7113,"ĠNumber":7114,"imb":7115,"ĠLocal":7116,"Ġloc":7117,"ĠEarth":7118,"roductive":7119,"Ġgolf":7120,"Ġforget":7121,"Ġstorm":7122,"ĠStone":7123,"ĠStock":7124,"allas":7125,"ulate":7126,"ung":7127,"ĠClub":7128,"ĠKavanaugh":7129,"ifting":7130,"Ġvision":7131,"Ġvulnerable":7132,"ĠChaos":7133,"ĠThree":7134,"Ġrising":7135,"ailable":7136,"umm":7137,"ucks":7138,"ĠBegins":7139,"ĠRevers":7140,"ĠReaches":7141,"Ġweak":7142,"Ġalternative":7143,"ĠAlso":7144,"ĠUnions":7145,"ĠSpec":7146,"Ġcancel":7147,"useum":7148,"Ġourselves":7149,"Ġoverwhel":7150,"ĠWeapons":7151,"ĠResidents":7152,"Ġtwice":7153,"Ġrecords":7154,"Ġimprove":7155,"Ġimplement":7156,"ĠArkansas":7157,"arked":7158,"Ġarmed":7159,"Ġambassador":7160,"Ġending":7161,"ĠSupports":7162,"espread":7163,"ĠDecide":7164,"Ġbigger":7165,"ĠAttacking":7166,"ĠAppeals":7167,"ĠHeld":7168,"ĠCharge":7169,"Ġplanned":7170,"Ġadvantage":7171,"stitutions":7172,"Ġsigns":7173,"Ġsurvey":7174,"Ġtraining":7175,"ĠSurv":7176,"ĠPhone":7177,"Ġdepart":7178,"ĠRemarks":7179,"ĠCorruption":7180,"ĠItself":7181,"ĠRoe":7182,"Ġsubsid":7183,"Ġhighly":7184,"lete":7185,"ĠAnyway":7186,"Ġstandards":7187,"ĠOpponent":7188,"Ġtestimony":7189,"Progressives":7190,"ĠTerrorist":7191,"ĠDelay":7192,"phy":7193,"ĠEfforts":7194,"Ġignor":7195,"Ġignore":7196,"ĠJudges":7197,"ĠHacking":7198,"Ġreduce":7199,"ĠCoverage":7200,"Ġdamage":7201,"ĠParkland":7202,"Ġstrike":7203,"ĠTreatment":7204,"ĠBrothers":7205,"ĠCourse":7206,"ĠEpidemic":7207,"Ġmultiple":7208,"emporary":7209,"Protesters":7210,"ĠBowl":7211,"Ġensure":7212,"Ġrival":7213,"ĠRoger":7214,"ĠPartnership":7215,"ĠGrassley":7216,"Bush":7217,"Before":7218,"NA":7219,"cott":7220,"chers":7221,"eer":7222,"fires":7223,"friend":7224,"gment":7225,"vious":7226,"ze":7227,"Ġut":7228,"information":7229,"ĠSqu":7230,"ĠSafe":7231,"ari":7232,"ĠPopul":7233,"ĠPrimaries":7234,"ĠDer":7235,"ĠDirect":7236,"ĠWealth":7237,"ĠWeeks":7238,"anda":7239,"ĠFarm":7240,"ĠFriend":7241,"Ġhospital":7242,"Ġhurt":7243,"otry":7244,"Ġdri":7245,"Ġmoved":7246,"Ġinauguration":7247,"oler":7248,"Ġreached":7249,"Ġforg":7250,"Ġisland":7251,"istered":7252,"ĠStage":7253,"ĠVac":7254,"ĠViet":7255,"ĠVaccine":7256,"rator":7257,"abot":7258,"iagn":7259,"Ġleaves":7260,"ĠNewt":7261,"orker":7262,"Ġuns":7263,"Ġwhom":7264,"ĠHispanic":7265,"Ġclin":7266,"ismant":7267,"oval":7268,"Ġusers":7269,"apper":7270,"appropriate":7271,"ĠJoke":7272,"Ġplatform":7273,"Ġactual":7274,"Ġcompromise":7275,"Ġsecure":7276,"Ġotherwise":7277,"ĠDeport":7278,"ĠArms":7279,"Ġblood":7280,"Ġbacking":7281,"Ġsupports":7282,"Ġsupported":7283,"ĠAbs":7284,"Ġoption":7285,"Ġabortions":7286,"ĠThank":7287,"azine":7288,"ĠColumb":7289,"ĠBecame":7290,"ĠConfirms":7291,"ĠSurge":7292,"Ġguilty":7293,"Ġthreatens":7294,"Ġreturns":7295,"ĠDelegates":7296,"ĠInclud":7297,"ĠWeekend":7298,"ĠOpposition":7299,"Ġcourage":7300,"ĠDetention":7301,"ĠKeystone":7302,"ĠJudicial":7303,"Ġjournalists":7304,"Ġtrouble":7305,"ĠSeems":7306,"Semitism":7307,"Ġpopulation":7308,"Ġmistake":7309,"Ġcomplete":7310,"ĠMoscow":7311,"ĠLiberty":7312,"Government":7313,"Ġlaunched":7314,"Ġoriginally":7315,"ĠSurvivors":7316,"Ġtelevision":7317,"Ġcomplicated":7318,"Ġspokesman":7319,"Robert":7320,"Planned":7321,"eeches":7322,"Both":7323,"Backed":7324,"Int":7325,"Le":7326,"Martin":7327,"Oregon":7328,"Pacific":7329,"RT":7330,"RNC":7331,"die":7332,"kish":7333,"mate":7334,"night":7335,"opping":7336,"ps":7337,"wr":7338,"Ġid":7339,"Ġet":7340,"Ġri":7341,"Ġticket":7342,"onest":7343,"reach":7344,"stream":7345,"Ġtheory":7346,"itb":7347,"itimate":7348,"ĠACA":7349,"ĠSit":7350,"ĠSuff":7351,"ĠCame":7352,"ĠCases":7353,"aration":7354,"Ġsqu":7355,"Ġsens":7356,"Ġcross":7357,"Ġpage":7358,"Ġpipeline":7359,"Ġfel":7360,"Ġfamous":7361,"ĠPosit":7362,"ĠDocument":7363,"ĠDestroy":7364,"ĠWy":7365,"ĠWond":7366,"andals":7367,"ĠFCC":7368,"ĠMain":7369,"ĠMobil":7370,"asks":7371,"Ġhom":7372,"Ġdanger":7373,"Ġmom":7374,"oles":7375,"olve":7376,"olitic":7377,"ĠGift":7378,"imately":7379,"usual":7380,"emin":7381,"ĠEgypt":7382,"roots":7383,"urers":7384,"ĠUK":7385,"ĠJason":7386,"uls":7387,"unk":7388,"rawn":7389,"oretta":7390,"ĠCond":7391,"essed":7392,"Ġvast":7393,"Ġvowed":7394,"abel":7395,"udd":7396,"Ġ28":7397,"Ġ29":7398,"Ġprosp":7399,"under":7400,"apers":7401,"avily":7402,"ĠProv":7403,"ĠLeaving":7404,"Ġunn":7405,"erving":7406,"ogle":7407,"Ġcontent":7408,"actions":7409,"Ġresources":7410,"Ġthank":7411,"anging":7412,"ĠResc":7413,"Ġanymore":7414,"Conf":7415,"ĠDefund":7416,"Ġblue":7417,"egrity":7418,"ĠLeading":7419,"ĠHowever":7420,"Ġimm":7421,"Ġdisag":7422,"Ġabove":7423,"athan":7424,"ĠEnforcement":7425,"ĠKnows":7426,"stitute":7427,"Ġopponent":7428,"Ġhappening":7429,"Ġinvestigate":7430,"ĠFacing":7431,"Ġlegislators":7432,"ĠZuckerberg":7433,"ĠGray":7434,"Ġelimin":7435,"ĠTrue":7436,"ĠOppose":7437,"ĠTerrorists":7438,"licit":7439,"ĠBelie":7440,"ĠDrilling":7441,"ĠKellyanne":7442,"ĠMurphy":7443,"Ġtowards":7444,"Ġsuccessful":7445,"ĠGreene":7446,"Ġlevels":7447,"Ġdevelopment":7448,"Ġradio":7449,"ĠInfo":7450,"ĠExcept":7451,"ĠConcerns":7452,"Ġadvocate":7453,"ĠWilson":7454,"Ġrenew":7455,"ĠConnecticut":7456,"Ġimmediately":7457,"Ġunconstitutional":7458,"ĠBernardino":7459,"Ġscheduled":7460,"--":7461,"Hey":7462,"Making":7463,"Op":7464,"Sm":7465,"Wisconsin":7466,"afer":7467,"long":7468,"ya":7469,"Ġug":7470,"Ġtour":7471,"orate":7472,"alter":7473,"Ġaides":7474,"ouston":7475,"itable":7476,"ĠAut":7477,"ĠSales":7478,"Ġsad":7479,"Ġsitting":7480,"Ġfears":7481,"ĠPers":7482,"ĠPushing":7483,"ĠDesp":7484,"ĠWake":7485,"ĠBans":7486,"ĠBund":7487,"ĠMus":7488,"ĠMandate":7489,"Ġdrop":7490,"igger":7491,"elves":7492,"ĠNar":7493,"ĠNamed":7494,"amin":7495,"uter":7496,"Ġlines":7497,"ĠEasy":7498,"sex":7499,"Ġeyes":7500,"ctic":7501,"ackle":7502,"Ġanswers":7503,"ĠClin":7504,"ĠYes":7505,"aping":7506,"erez":7507,"ompeo":7508,"ĠOvert":7509,"ĠOfficers":7510,"Ġrecomm":7511,"Ġaggressive":7512,"Ġimper":7513,"Ġimpro":7514,"ertific":7515,"Ġblocked":7516,"Ġsheriff":7517,"ultz":7518,"Ġperiod":7519,"ĠEnding":7520,"Ġremark":7521,"Ġremoved":7522,"Ġhealthcare":7523,"Ġadvisers":7524,"Ġeffects":7525,"ĠOpens":7526,"Ġintended":7527,"ĠCombat":7528,"Ġreligion":7529,"attern":7530,"Ġseeing":7531,"ĠProposes":7532,"Ġapproved":7533,"ĠSteps":7534,"Ġrates":7535,"Ġchanging":7536,"ĠHeadline":7537,"Ġcentral":7538,"Ġembrace":7539,"iveness":7540,"Ġwritten":7541,"Ġgeneration":7542,"Ġbringing":7543,"Ġdiscussion":7544,"ĠClassified":7545,"Ġwatching":7546,"Ġresponsible":7547,"Ġcredit":7548,"ĠGoldman":7549,"Ġspecif":7550,"Ġprovided":7551,"ĠJournalists":7552,"ĠPorter":7553,"ĠHearings":7554,"Ġoccup":7555,"Ġdelivered":7556,"Ġcycle":7557,"Ġdevast":7558,"ĠCondemn":7559,"ĠSurprise":7560,"Ġphoto":7561,"ĠApologizes":7562,"ĠRenew":7563,"roduced":7564,"ĠCredit":7565,"ĠGermany":7566,"Ġoptions":7567,"Ġsanctions":7568,"Jimmy":7569,"ĠEllison":7570,"ĠAngeles":7571,"antorum":7572,"ĠAntonin":7573,"Ġslammed":7574,"Ġneighbor":7575,"ĠTaylor":7576,"itbart":7577,"60":7578,"Court":7579,"Ill":7580,"Key":7581,"Nevada":7582,"Polls":7583,"author":7584,"eac":7585,"gers":7586,"look":7587,"nel":7588,"oom":7589,"tained":7590,"Â¯":7591,"Ġtired":7592,"onc":7593,"athing":7594,"athered":7595,"ĠTPP":7596,"ĠSam":7597,"ĠCard":7598,"ĠCorker":7599,"Ġwave":7600,"Ġsite":7601,"Ġsell":7602,"Ġsever":7603,"Ġcas":7604,"Ġcash":7605,"ĠPerez":7606,"Ġbus":7607,"ĠOrange":7608,"Ġtool":7609,"ĠRather":7610,"ĠRhetoric":7611,"ĠWel":7612,"ĠWade":7613,"ĠWait":7614,"ĠHide":7615,"ĠHann":7616,"ĠBase":7617,"ĠBatt":7618,"ĠFuel":7619,"ĠMap":7620,"ĠMocks":7621,"Ġmogul":7622,"ĠGary":7623,"ĠNear":7624,"imated":7625,"ĠLarry":7626,"Ġlik":7627,"eph":7628,"ĠEsc":7629,"roit":7630,"uries":7631,"urred":7632,"outing":7633,"ĠJokes":7634,"ĠForget":7635,"ĠConstitutional":7636,"ĠConflict":7637,"Ġyes":7638,"Ġvirt":7639,"ths":7640,"ĠThrows":7641,"Ġround":7642,"Ġprogressives":7643,"Ġchances":7644,"ĠBegin":7645,"ĠAlmost":7646,"ĠSpent":7647,"ĠLePage":7648,"Ġoutcome":7649,"remlin":7650,"Ġupcoming":7651,"Ins":7652,"Instead":7653,"ĠAttention":7654,"Ġagents":7655,"Ġquiet":7656,"ĠActivist":7657,"ĠCampaigns":7658,"ĠBacking":7659,"Ġbackground":7660,"Ġsupporter":7661,"ĠAbb":7662,"Ġends":7663,"Char":7664,"atholic":7665,"Ġadvice":7666,"Ġ31":7667,"Ġ45":7668,"Ġsurviv":7669,"Ġcontinuing":7670,"ĠConfirm":7671,"ĠTraff":7672,"Ġlegislature":7673,"Ġrealize":7674,"Ġfloor":7675,"Ġincludes":7676,"annel":7677,"School":7678,"lobe":7679,"Ġstandard":7680,"ĠLegalization":7681,"ĠAllegedly":7682,"rific":7683,"ĠLoan":7684,"ĠEdition":7685,"Ġignored":7686,"nyder":7687,"Ġbuilt":7688,"Ġunfair":7689,"autiful":7690,"Ġlimit":7691,"Ġpreparing":7692,"ographer":7693,"Ġfigures":7694,"Ġpractice":7695,"ophobic":7696,"ĠConcerned":7697,"Ġpossibility":7698,"ĠEmployees":7699,"ĠThanksgiving":7700,"Ġescal":7701,"Attorney":7702,"ĠRestrictions":7703,"ameras":7704,"Boehner":7705,"ĠMontana":7706,"istleblower":7707,".âĢĻ":7708,"Have":7709,"Homel":7710,"Life":7711,"ON":7712,"Public":7713,"Pentagon":7714,"bed":7715,"book":7716,"bled":7717,"bara":7718,"called":7719,"fire":7720,"ht":7721,"ipped":7722,"joy":7723,"life":7724,"sen":7725,"tr":7726,"ties":7727,"tarian":7728,"Ġtreated":7729,"atast":7730,"ĠSuit":7731,"ĠSouthern":7732,"ĠSnyder":7733,"ĠCDC":7734,"icenses":7735,"Ġcaught":7736,"Ġpray":7737,"Ġfought":7738,"ĠPow":7739,"Ġow":7740,"ĠDig":7741,"ĠOversight":7742,"ĠRate":7743,"lets":7744,"ĠBoss":7745,"ĠBrag":7746,"ĠFiles":7747,"ĠMnuchin":7748,"Ġhour":7749,"Ġholiday":7750,"otes":7751,"Ġdraft":7752,"Ġdriving":7753,"Ġminds":7754,"oly":7755,"amera":7756,"ĠLoves":7757,"ĠLindsey":7758,"ĠEyes":7759,"ĠInequality":7760,"Ġgain":7761,"ortance":7762,"ortez":7763,"istrict":7764,"Ġstruck":7765,"ĠJury":7766,"ulated":7767,"ifies":7768,"abortion":7769,"astrous":7770,"ells":7771,"ieg":7772,"Ġshared":7773,"Ġjump":7774,"overed":7775,"eball":7776,"Ġdoor":7777,"Ġwhatever":7778,"Ġclos":7779,"iscal":7780,"mined":7781,"renn":7782,"Ġexpressed":7783,"ĠDoor":7784,"ĠReserve":7785,"achs":7786,"Ġcompared":7787,"Ġcomplex":7788,"ĠTrack":7789,"Ġbacked":7790,"ledges":7791,"ĠAllow":7792,"PORT":7793,"Ġwarns":7794,"Ġinternet":7795,"ĠQuit":7796,"ĠRecount":7797,"Ġdefending":7798,"ĠWorry":7799,"Ġmanufact":7800,"affetz":7801,"Ġoppose":7802,"Ġassoci":7803,"ĠDisapp":7804,"Ġprotection":7805,"Ġprominent":7806,"ĠFundra":7807,"Ġenthus":7808,"regn":7809,"ĠDeaths":7810,"ĠInvestigating":7811,"Ġhighlight":7812,"Ġdeserve":7813,"ĠSchiff":7814,"ĠSchultz":7815,"Ġrequired":7816,"ĠHolding":7817,"Ġmassacre":7818,"ĠDrugs":7819,"Ġtalked":7820,"Ġdetention":7821,"Ġlisten":7822,"ĠBroad":7823,"Ġuncertain":7824,"Ġdrugs":7825,"ĠHarder":7826,"ĠReveal":7827,"ĠJews":7828,"Ġdeadly":7829,"Ġcitizenship":7830,"Immigrant":7831,"Ġexperi":7832,"ĠSuspect":7833,"Ġincreasing":7834,"ĠProsecutors":7835,"Ġextreme":7836,"Ġstruggling":7837,"Environmental":7838,"ĠHomeless":7839,"Ġjournalist":7840,"Ġpractices":7841,"ĠNYC":7842,"ĠViews":7843,"Ġballots":7844,"ĠFeud":7845,"Ġperformance":7846,"Ġaccusations":7847,"Ġessential":7848,"ĠMeasure":7849,"Ġemerged":7850,"Leaks":7851,"ikiLeaks":7852,"atastrop":7853,"Dr":7854,"Deb":7855,"Har":7856,"Lou":7857,"NRA":7858,"Nobody":7859,"Sorry":7860,"West":7861,"cut":7862,"cher":7863,"cons":7864,"cept":7865,"gu":7866,"iqu":7867,"list":7868,"mission":7869,"rica":7870,"ux":7871,"weet":7872,"Ġorders":7873,"Ġtalks":7874,"hew":7875,"reatest":7876,"reason":7877,"ĠTouts":7878,"Ġachieve":7879,"ĠSeen":7880,"ĠCot":7881,"ĠCash":7882,"ĠCrimes":7883,"ĠCensus":7884,"Ġsearch":7885,"Ġfier":7886,"Ġfresh":7887,"ĠPosition":7888,"ĠPompeo":7889,"ĠOval":7890,"ĠRallies":7891,"ĠWelcome":7892,"ĠBump":7893,"ĠBizarre":7894,"andria":7895,"ĠFaith":7896,"ĠMer":7897,"ĠMot":7898,"ĠMoral":7899,"ĠMocked":7900,"Ġdict":7901,"Ġdrive":7902,"igible":7903,"igrant":7904,"ĠGirl":7905,"ĠGaza":7906,"ecurity":7907,"ading":7908,"Ġloy":7909,"ĠEar":7910,"ĠInn":7911,"Ġgotten":7912,"Ġgathered":7913,"Ġstance":7914,"ĠStraight":7915,"ĠVer":7916,"hatt":7917,"Ġconflicts":7918,"Ġareas":7919,"izr":7920,"Ġproced":7921,"Ġproduct":7922,"ĠSense":7923,"ĠAli":7924,"ictment":7925,"Ġnewly":7926,"ĠSpot":7927,"ĠAdop":7928,"Thanks":7929,"erved":7930,"ĠCongresswoman":7931,"ĠBlood":7932,"Ġpolitician":7933,"ovie":7934,"Ġincident":7935,"Ġbecomes":7936,"ĠDeputy":7937,"ĠQat":7938,"Ġarrived":7939,"ĠContribut":7940,"Ġtrack":7941,"ĠDonations":7942,"Ġremove":7943,"Once":7944,"ĠQuiz":7945,"ĠRecogn":7946,"ĠDecades":7947,"ĠColbert":7948,"ĠOpin":7949,"ĠComment":7950,"ĠIndian":7951,"ĠCooper":7952,"Ġfinance":7953,"Ġtrail":7954,"Ġbanks":7955,"oof":7956,"Ġdeport":7957,"ĠRemember":7958,"Ġdealing":7959,"ĠMinutes":7960,"Ġpassing":7961,"Ġguide":7962,"Ġenter":7963,"Ġmarks":7964,"ĠTransition":7965,"Ġteacher":7966,"ĠVictim":7967,"Ġobject":7968,"ĠPaying":7969,"ĠCapital":7970,"Ġsmart":7971,"Ġargues":7972,"ĠRegistration":7973,"ĠHighlights":7974,"Ġfollows":7975,"Ġveto":7976,"einstein":7977,"class":7978,"ĠPACs":7979,"ĠCharlie":7980,"ĠStaffer":7981,"ĠPrisoners":7982,"ospit":7983,"ĠStarted":7984,"ĠPrograms":7985,"ĠBombing":7986,"Ġlimited":7987,"stantial":7988,"ĠLegislation":7989,"Ġskept":7990,"ĠBirthday":7991,"ĠCampus":7992,"ĠDefeats":7993,"heme":7994,"Ġcyber":7995,"Ġnegotiations":7996,"Ġsuffering":7997,"ĠNATO":7998,"Dems":7999,"Ġrecognize":8000,"Adv":8001,"ĠOrganization":8002,"Ġpraised":8003,"usalem":8004,"Ġcondemn":8005,"Ġcreating":8006,"Ġorganizations":8007,"ĠDifferent":8008,"ĠPleads":8009,"Ġavailable":8010,"Ġpundits":8011,"shell":8012,"ĠVietnam":8013,"17":8014,"CIA":8015,"Comey":8016,"Death":8017,"Four":8018,"Fight":8019,"Feds":8020,"GA":8021,"High":8022,"Journal":8023,"Matt":8024,"Party":8025,"Sty":8026,"ban":8027,"lies":8028,"mingly":8029,"Ķ¥":8030,"inning":8031,"Ġtoug":8032,"erem":8033,"atred":8034,"ĠTour":8035,"ĠTurned":8036,"itage":8037,"ĠSends":8038,"ĠSides":8039,"ĠSachs":8040,"Ġwatched":8041,"Ġcr":8042,"Ġcop":8043,"Ġcapt":8044,"Ġpiv":8045,"Ġpowers":8046,"ĠPage":8047,"ĠPract":8048,"ĠDaughter":8049,"ĠDraft":8050,"ĠDallas":8051,"ĠWa":8052,"ĠWind":8053,"omed":8054,"ĠField":8055,"ĠMock":8056,"ĠMyst":8057,"Ġdeg":8058,"Ġmad":8059,"veys":8060,"owdy":8061,"ership":8062,"lymp":8063,"ĠLack":8064,"ĠLower":8065,"adow":8066,"Ġlikes":8067,"outed":8068,"tered":8069,"terms":8070,"ithole":8071,"Ġstupid":8072,"Ġbegins":8073,"host":8074,"ĠOnline":8075,"ratul":8076,"antasy":8077,"Ġpromp":8078,"quir":8079,"Ġexerc":8080,"umes":8081,"ĠBeg":8082,"ĠProves":8083,"ĠUnve":8084,"ĠUnconstitutional":8085,"Ġunw":8086,"Ġunions":8087,"Ġoffensive":8088,"Ġresort":8089,"ĠWeak":8090,"Ġscient":8091,"soff":8092,"Ġcomb":8093,"Ġcommitment":8094,"ĠReporters":8095,"ĠArctic":8096,"egreg":8097,"Ġperman":8098,"insured":8099,"Ġamendment":8100,"ĠAccording":8101,"Chief":8102,"ĠWorks":8103,"Any":8104,"ĠNationalist":8105,"Ġinsult":8106,"ĠAgents":8107,"Ġtaxpayers":8108,"ACLU":8109,"Ġrelated":8110,"Ġrelief":8111,"ĠCoast":8112,"Ġtragic":8113,"ĠWinner":8114,"Ġcolumn":8115,"Ġrefusing":8116,"vaney":8117,"Ġflood":8118,"Ġletting":8119,"Ġthreatening":8120,"ribute":8121,"ĠRespect":8122,"ĠRoom":8123,"irds":8124,"Ext":8125,"ĠRetirement":8126,"Ġminorities":8127,"arma":8128,"arming":8129,"ĠAnyone":8130,"accept":8131,"Ġdeny":8132,"Ġ70":8133,"Ġpointed":8134,"ĠWestern":8135,"Ġwriting":8136,"ĠNetwork":8137,"ĠStandard":8138,"Ġstaffers":8139,"Ġunclear":8140,"Ġstrongly":8141,"ĠIdeas":8142,"ĠObs":8143,"Ġinvolving":8144,"ĠSilent":8145,"Everyone":8146,"Ġjudicial":8147,"fortun":8148,"fortable":8149,"Ġpatients":8150,"Ġfavorite":8151,"Ġproviding":8152,"Ġrevolution":8153,"ĠViolent":8154,"Warren":8155,"ĠLearned":8156,"ĠValues":8157,"Ġunprecedented":8158,"McC":8159,"Ġprivilege":8160,"Ġcoalition":8161,"ĠPunish":8162,"Ġcompletely":8163,"Ġattempts":8164,"ĠDoctor":8165,"Ġdiplomatic":8166,"Ġcouple":8167,"Ġepidemic":8168,"Ġdramatic":8169,"Ġprinciples":8170,"Ġgrowth":8171,"ĠInfluence":8172,"ĠAssociation":8173,"ĠCarlson":8174,"ĠRadical":8175,"Experts":8176,"arceration":8177,"roduce":8178,"Check":8179,"uffington":8180,"eaceful":8181,"ĠHannity":8182,"AT":8183,"BA":8184,"Cortez":8185,"Dec":8186,"End":8187,"Kansas":8188,"Make":8189,"Mont":8190,"Pay":8191,"Qu":8192,"Ret":8193,"Rich":8194,"Take":8195,"can":8196,"casio":8197,"fe":8198,"free":8199,"fair":8200,"rit":8201,"tig":8202,"Ġtask":8203,"itary":8204,"ĠSim":8205,"ĠSter":8206,"ĠSets":8207,"ĠSees":8208,"ĠSaved":8209,"ĠSupremacy":8210,"ĠSantorum":8211,"isf":8212,"isdom":8213,"ĠCory":8214,"icism":8215,"Ġwing":8216,"Ġwelcome":8217,"Ġsal":8218,"Ġsource":8219,"Ġsacrif":8220,"Ġcult":8221,"Ġcrack":8222,"Ġport":8223,"Ġpicture":8224,"Ġpattern":8225,"Ġfan":8226,"Ġfill":8227,"ĠPack":8228,"ĠPregn":8229,"ĠDean":8230,"ĠDumb":8231,"ĠDuke":8232,"ĠRant":8233,"ĠWass":8234,"ĠWeed":8235,"ĠBox":8236,"ĠMount":8237,"ĠMental":8238,"Ġder":8239,"Ġinstitutions":8240,"ĠGas":8241,"ĠGubernatorial":8242,"ĠGerrymandering":8243,"Ġnone":8244,"ĠNov":8245,"ĠNavy":8246,"amber":8247,"ĠThems":8248,"uther":8249,"Ġliterally":8250,"ĠInj":8251,"ĠInform":8252,"Ġgl":8253,"urious":8254,"ĠUg":8255,"Ġstraight":8256,"ular":8257,"hore":8258,"ĠFord":8259,"ighter":8260,"ĠVan":8261,"ĠVers":8262,"ĠVacc":8263,"ĠConflicts":8264,"ĠKKK":8265,"abled":8266,"Ġaside":8267,"ĠChaffetz":8268,"odes":8269,"Ġpresidents":8270,"Ġprohib":8271,"Ġsharp":8272,"exp":8273,"ĠReach":8274,"apes":8275,"ĠUnity":8276,"rises":8277,"Ġunivers":8278,"Ġouts":8279,"remend":8280,"encer":8281,"ogyn":8282,"onsense":8283,"Inc":8284,"ĠWeird":8285,"redible":8286,"ĠCannot":8287,"Ġacting":8288,"ĠAttend":8289,"Ġgovernments":8290,"Ġsoft":8291,"Ġcounty":8292,"iolent":8293,"Ġcomed":8294,"Ġnewspaper":8295,"ĠAllowed":8296,"Ġtrillion":8297,"ĠExpand":8298,"ĠSupporting":8299,"rones":8300,"alsely":8301,"ĠEnc":8302,"riminals":8303,"ounced":8304,"Ġindeed":8305,"Ġ300":8306,"Ġsurge":8307,"ĠAssembly":8308,"Ġwinner":8309,"ĠSomeone":8310,"ĠAdvis":8311,"Ġdeals":8312,"Ġguarant":8313,"duced":8314,"Ġsystems":8315,"Ġdesign":8316,"ĠDenial":8317,"Ġtests":8318,"ĠHolds":8319,"raceful":8320,"ĠPatrol":8321,"ĠPatrick":8322,"Ġgrad":8323,"Ġdelay":8324,"ĠWatergate":8325,"Ġviolate":8326,"ĠHeads":8327,"ĠOfficially":8328,"Ġcutting":8329,"ecessarily":8330,"ĠCosts":8331,"Ġrisks":8332,"Ġdirection":8333,"Ġbuying":8334,"ĠApproves":8335,"Ġconvicted":8336,"Ġresigned":8337,"Ġlimits":8338,"Ġprosecutor":8339,"Ġsuspect":8340,"Ġpatriot":8341,"Arkansas":8342,"ĠLegislature":8343,"Ġstruggle":8344,"ĠAwkward":8345,"Ġengage":8346,"ĠNYPD":8347,"McConnell":8348,"Ġsymp":8349,"ĠArgument":8350,"Ġdetermine":8351,"ĠExecution":8352,"Colorado":8353,"ĠMiller":8354,"ĠRepresentatives":8355,"Ġcontributions":8356,"ĠIndependence":8357,"iliation":8358,"Ġbrother":8359,"Ġtotal":8360,"Ġethics":8361,"Legal":8362,"Ġbeliefs":8363,"Putin":8364,"Ġgathering":8365,"ihad":8366,"ĠDraws":8367,"ĠMulvaney":8368,"ministrator":8369,"ĠOssoff":8370,"ĠAmazon":8371,"Ġbottom":8372,"Ġugly":8373,"ĠCotton":8374,"hattan":8375,"tigieg":8376,"ĠWasserman":8377,"ĠThemselves":8378,"CO":8379,"Era":8380,"Fire":8381,"HE":8382,"Has":8383,"Mean":8384,"Pros":8385,"Rec":8386,"Several":8387,"Would":8388,"Woman":8389,"aho":8390,"breaking":8391,"eas":8392,"franch":8393,"iot":8394,"kn":8395,"nab":8396,"oil":8397,"inced":8398,"Ġtim":8399,"onor":8400,"anim":8401,"ĠTal":8402,"itation":8403,"ĠSell":8404,"ĠSolution":8405,"isa":8406,"Ġsolutions":8407,"Ġsucceed":8408,"Ġcal":8409,"Ġcited":8410,"Ġcaucus":8411,"Ġpret":8412,"Ġpull":8413,"Ġpaper":8414,"Ġfiring":8415,"ĠIRS":8416,"ĠPledge":8417,"rup":8418,"ĠRat":8419,"ĠRising":8420,"ĠWorth":8421,"ĠWaiting":8422,"ĠHunt":8423,"ĠFan":8424,"ĠFeinstein":8425,"Ġhall":8426,"Ġmor":8427,"Ġmate":8428,"etal":8429,"ĠGone":8430,"ĠGrow":8431,"ĠTodd":8432,"ĠNice":8433,"ĠLed":8434,"ĠLock":8435,"Ġgirl":8436,"Ġequality":8437,"Ġheat":8438,"Ġstake":8439,"ĠStupid":8440,"opher":8441,"ĠConversation":8442,"ĠKeith":8443,"ĠKremlin":8444,"chin":8445,"Ġvaccine":8446,"ivism":8447,"ressive":8448,"abs":8449,"Ġrough":8450,"Ġrallies":8451,"Ġprob":8452,"Ġjoke":8453,"assed":8454,"ĠShares":8455,"ordan":8456,"ĠWhit":8457,"Ġweigh":8458,"ĠProve":8459,"ĠUnc":8460,"ĠSpend":8461,"lanation":8462,"Though":8463,"Ġexpand":8464,"ĠCanc":8465,"ĠFloor":8466,"Ġacts":8467,"Ġincoming":8468,"ĠStatement":8469,"otte":8470,"formed":8471,"ĠCrus":8472,"Ġreporting":8473,"ĠContest":8474,"Ġperpet":8475,"ĠAbortions":8476,"ahl":8477,"errit":8478,"ĠExpert":8479,"Ġopening":8480,"aterial":8481,"Ġselect":8482,"Ġabroad":8483,"Ġunderstanding":8484,"Newt":8485,"Ġhealthy":8486,"Ġinsist":8487,"Ġinsisted":8488,"emper":8489,"ĠCharles":8490,"Ġregard":8491,"Ġrock":8492,"Ġtraff":8493,"ĠAssad":8494,"ĠTrain":8495,"umph":8496,"Ġprotected":8497,"raction":8498,"ĠAfrica":8499,"ĠIraqi":8500,"Ġserving":8501,"Ġlessons":8502,"Ġdistricts":8503,"ĠFrance":8504,"ĠKeeping":8505,"Ġincreased":8506,"Ġaffected":8507,"Ġarguments":8508,"ĠCriticizes":8509,"ĠRestore":8510,"ĠBlocking":8511,"ĠMarket":8512,"ĠBrook":8513,"Ġauthorities":8514,"urgent":8515,"ĠCEOs":8516,"Ġtargeting":8517,"ĠAirport":8518,"ĠLessons":8519,"iami":8520,"Ġresignation":8521,"ĠCuban":8522,"rollment":8523,"Ġapart":8524,"holds":8525,"Ġbehalf":8526,"ĠLaunch":8527,"Ġadmitted":8528,"ĠLobbyist":8529,"ĠModel":8530,"ĠBoycott":8531,"Politicians":8532,"Ġparticular":8533,"Ġsignificantly":8534,"ĠCondemns":8535,"ĠFavorite":8536,"ĠSandy":8537,"Ġdoctor":8538,"Ġbrothers":8539,"REPORT":8540,"ĠWeiner":8541,"ĠWeinstein":8542,"Ġprofessional":8543,"ĠBritish":8544,"ĠBolton":8545,"ĠJerusalem":8546,"rennan":8547,"25":8548,"Alex":8549,"Comm":8550,"Chelsea":8551,"FTA":8552,"Great":8553,"Med":8554,"Maryland":8555,"Rex":8556,"Sch":8557,"See":8558,"boy":8559,"due":8560,"lusion":8561,"uous":8562,"ukes":8563,"Ġally":8564,"Ġlying":8565,"ints":8566,"income":8567,"requ":8568,"reck":8569,"ĠTar":8570,"ĠTotally":8571,"enfranch":8572,"ĠAR":8573,"ĠSorry":8574,"isanship":8575,"ĠCross":8576,"arch":8577,"Ġweren":8578,"Ġsounds":8579,"Ġcard":8580,"Ġputs":8581,"Ġfossil":8582,"ĠDri":8583,"ĠDied":8584,"ĠDump":8585,"idy":8586,"Ġbathroom":8587,"ĠOlymp":8588,"Ġtom":8589,"ĠRid":8590,"ĠRow":8591,"ĠWish":8592,"ĠHo":8593,"ĠHatch":8594,"ĠBru":8595,"ĠBuff":8596,"ĠBlank":8597,"ĠBeyond":8598,"ĠMa":8599,"ĠMind":8600,"ĠMoving":8601,"Ġhack":8602,"âĢ¦":8603,"Ġthrow":8604,"ĠGates":8605,"ĠGian":8606,"ĠGather":8607,"ĠGender":8608,"ĠGiven":8609,"ĠNort":8610,"amation":8611,"ameful":8612,"ĠLight":8613,"uties":8614,"Ġloved":8615,"Ġreven":8616,"ldon":8617,"istering":8618,"Ġstreets":8619,"ĠStories":8620,"ĠStrateg":8621,"ĠForg":8622,"mercial":8623,"ĠRepeat":8624,"Ġangry":8625,"Ġanchor":8626,"ĠConyers":8627,"ĠConsequences":8628,"ĠKamala":8629,"Ġvacc":8630,"osite":8631,"ĠChap":8632,"aware":8633,"keley":8634,"ello":8635,"ouses":8636,"Ġchampion":8637,"Ġexam":8638,"ĠAsking":8639,"ĠBeh":8640,"ianne":8641,"Ġreplac":8642,"ogan":8643,"Ġcontrast":8644,"Ġuser":8645,"Ġplenty":8646,"Ġagent":8647,"Ġenemies":8648,"ishonest":8649,"Ġdonations":8650,"Ġblamed":8651,"Ġbacklash":8652,"amilton":8653,"rives":8654,"ĠExpected":8655,"Ġopioid":8656,"Ġpregn":8657,"Ġmyself":8658,"ĠEnter":8659,"Andrew":8660,"Asian":8661,"ĠColor":8662,"ĠOpt":8663,"Ġtaxpayer":8664,"ĠHarvard":8665,"Ġintroduced":8666,"ĠTeach":8667,"ĠImpact":8668,"Ġfamiliar":8669,"Class":8670,"Ġcorruption":8671,"ĠNominate":8672,"Ġ90":8673,"Ġconfirm":8674,"2016":8675,"Ġlawsuits":8676,"ĠMissing":8677,"Ġdemands":8678,"Ġsetting":8679,"auci":8680,"ĠReforms":8681,"Ġchallenging":8682,"ĠAttorneys":8683,"Ġtransition":8684,"piring":8685,"Ġplayers":8686,"Ġinteresting":8687,"Ġrating":8688,"ĠDetain":8689,"ĠChallenges":8690,"comes":8691,"ĠLooms":8692,"ĠGarner":8693,"Ġpersonally":8694,"Ġdivide":8695,"Ġwatchdog":8696,"ĠAngry":8697,"ĠCommissioner":8698,"Amid":8699,"iasm":8700,"Ġappearance":8701,"ĠCelebrate":8702,"Ġillegally":8703,"Political":8704,"Ġcrucial":8705,"ĠStruggle":8706,"ĠPalestinians":8707,"leasing":8708,"Ġtechnology":8709,"itudes":8710,"ĠVisits":8711,"Ġpraise":8712,"Minute":8713,"Ġseparate":8714,"ĠDevast":8715,"ĠCircuit":8716,"Ġpulled":8717,"ĠEstablishment":8718,"ĠIncrease":8719,"ĠEasier":8720,"olerance":8721,"ĠBundy":8722,"Homeland":8723,"ospitals":8724,"Style":8725,"acceptable":8726,"remendous":8727,"!âĢĿ":8728,"Back":8729,"Bob":8730,"Den":8731,"Jared":8732,"Jerry":8733,"Pence":8734,"Ruth":8735,"Tax":8736,"dose":8737,"ease":8738,"fall":8739,"ique":8740,"nest":8741,"oks":8742,"rory":8743,"shore":8744,"then":8745,"Ġtable":8746,"Ġturns":8747,"Ġtemporary":8748,"ongest":8749,"atism":8750,"ĠTor":8751,"ĠTact":8752,"enes":8753,"alle":8754,"step":8755,"storm":8756,"Ġaims":8757,"ĠAG":8758,"ĠAward":8759,"ĠSearch":8760,"ĠSuing":8761,"ĠSupremacist":8762,"ĠCa":8763,"ĠCorn":8764,"ĠCounter":8765,"ĠCatholic":8766,"arison":8767,"iche":8768,"Ġwa":8769,"Ġsing":8770,"Ġsession":8771,"Ġsleep":8772,"Ġsupremacist":8773,"Ġfit":8774,"Ġfallen":8775,"Ġfool":8776,"ĠIr":8777,"ĠPain":8778,"ĠPays":8779,"Ġodds":8780,"Ġbul":8781,"ĠOl":8782,"ĠWid":8783,"ĠWolf":8784,"ĠHundreds":8785,"leph":8786,"ĠBrennan":8787,"ĠFine":8788,"ĠFights":8789,"Ġhomel":8790,"Ġhomes":8791,"Ġdad":8792,"Ġdisease":8793,"Ġmission":8794,"olly":8795,"ĠGirls":8796,"ĠGowdy":8797,"Ġnatural":8798,"ĠNazis":8799,"ĠNebraska":8800,"ĠLands":8801,"ĠLying":8802,"ĠLiterally":8803,"aden":8804,"adian":8805,"Ġlaugh":8806,"roc":8807,"Ġreverse":8808,"irit":8809,"Ġonto":8810,"Ġbegun":8811,"ĠJordan":8812,"ĠStew":8813,"ĠSteven":8814,"rial":8815,"ifer":8816,"ealing":8817,"Ġrout":8818,"aganda":8819,"ĠSports":8820,"rations":8821,"icken":8822,"ompet":8823,"Ġoffers":8824,"ĠScal":8825,"ĠExchange":8826,"mann":8827,"Ġresc":8828,"ĠMarine":8829,"Ġthanks":8830,"Ġattended":8831,"Ġaccounts":8832,"Ġrural":8833,"ĠAttemp":8834,"Ġincumbent":8835,"Ġimpossible":8836,"Ġconsumers":8837,"ĠMcDonald":8838,"ĠBanning":8839,"velations":8840,"ĠGovernors":8841,"Step":8842,"ĠContrad":8843,"ĠReflect":8844,"ĠExpl":8845,"Ġpreced":8846,"ĠManchin":8847,"ĠAgrees":8848,"ĠIndia":8849,"Ġregarding":8850,"Ġraises":8851,"Ġattacking":8852,"ĠPerfect":8853,"ĠTraining":8854,"onym":8855,"ĠSurveillance":8856,"Ġdeputy":8857,"ĠRemain":8858,"ĠTelling":8859,"ĠParks":8860,"hamed":8861,"Ġretired":8862,"ĠDevelop":8863,"Ġlesson":8864,"Ġthroughout":8865,"ĠAnnounce":8866,"Ġheaded":8867,"ĠOwner":8868,"Without":8869,"Ġtestify":8870,"racts":8871,"Ġfinding":8872,"ĠDelays":8873,"umerous":8874,"Ġprovision":8875,"ĠResignation":8876,"voided":8877,"ĠBroken":8878,"Ġfiling":8879,"Ġregulation":8880,"Ġmisleading":8881,"Ġdeeper":8882,"ĠReduce":8883,"ĠBreaking":8884,"ĠBreitbart":8885,"ðŁĶ¥":8886,"ĠAnnouncement":8887,"Ġrepresentatives":8888,"ĠShooter":8889,"Ġjudgment":8890,"Ġfailing":8891,"ĠMattis":8892,"ĠSeriously":8893,"ĠFalls":8894,"ĠTurnout":8895,"ĠPraise":8896,"ĠAuthority":8897,"Ġbelieved":8898,"Ġstarts":8899,"ĠValley":8900,"Ġhotel":8901,"Ġpriorities":8902,"LGBTQ":8903,"Ġwidespread":8904,"ĠCastro":8905,"ĠDoubt":8906,"Ġeasily":8907,"alyt":8908,"ĠFilibuster":8909,"Ġcaused":8910,"Ġdismissed":8911,"ĠEqual":8912,"ĠCorey":8913,"Ġconditions":8914,"Interior":8915,"ĠCrash":8916,"ĠFreddie":8917,"aurant":8918,"Facebook":8919,"Ġpunishment":8920,"ĠWeighs":8921,"ĠHigher":8922,"World":8923,"bitious":8924,"ĠDuckworth":8925,"oomberg":8926,"ĠAbbott":8927,"ĠPowell":8928,"ĠQatar":8929,"eremony":8930,"Prosecut":8931,",âĢĻ":8932,"Dream":8933,"EW":8934,"El":8935,"Fin":8936,"Famil":8937,"Gary":8938,"Haw":8939,"Jon":8940,"Members":8941,"Oh":8942,"Opp":8943,"Sur":8944,"Sant":8945,"Super":8946,"Thing":8947,"Tennessee":8948,"big":8949,"bers":8950,"bles":8951,"dahl":8952,"eers":8953,"ford":8954,"face":8955,"hor":8956,"mers":8957,"making":8958,"pret":8959,"rities":8960,"uis":8961,"uate":8962,"will":8963,"inement":8964,"inition":8965,"ĠTro":8966,"ĠTech":8967,"alo":8968,"stance":8969,"Ġaverage":8970,"ĠSued":8971,"ĠCal":8972,"ĠCas":8973,"ĠCPAC":8974,"icient":8975,"Ġsending":8976,"Ġsources":8977,"Ġcorn":8978,"Ġcatch":8979,"Ġcrazy":8980,"Ġporn":8981,"Ġfate":8982,"Ġfrust":8983,"ĠPull":8984,"ĠPrisons":8985,"ĠPledges":8986,"ĠDram":8987,"ĠDanger":8988,"Ġbi":8989,"Ġbed":8990,"Ġboss":8991,"ĠWeb":8992,"ĠWrote":8993,"ĠWikiLeaks":8994,"ĠHaven":8995,"ĠHoliday":8996,"ĠHuffington":8997,"ĠBon":8998,"ĠBald":8999,"andatory":9000,"ĠFig":9001,"ĠFive":9002,"ĠMac":9003,"ĠMail":9004,"ĠMask":9005,"ĠMerk":9006,"otic":9007,"Ġdaily":9008,"Ġinitiative":9009,"olving":9010,"ĠGap":9011,"Ġnegative":9012,"ecided":9013,"ĠNav":9014,"ĠNormal":9015,"imals":9016,"ĠLam":9017,"ĠLines":9018,"ĠLoretta":9019,"Ġlinked":9020,"ĠEmanuel":9021,"Ġgrab":9022,"irk":9023,"Ġeye":9024,"ocrat":9025,"Ġheavy":9026,"Ġheavily":9027,"Ġstood":9028,"ĠJay":9029,"identally":9030,"merce":9031,"ĠVideos":9032,"ĠClerk":9033,"ĠKind":9034,"ĠKirst":9035,"ĠKicks":9036,"ĠKurd":9037,"oster":9038,"bamas":9039,"antly":9040,"asting":9041,"Ġnotice":9042,"Ġshown":9043,"qualif":9044,"Ġchurch":9045,"ĠSens":9046,"ĠShake":9047,"ĠShift":9048,"Ġdozen":9049,"avors":9050,"Ġadult":9051,"ĠAlong":9052,"ĠSpy":9053,"ĠSpokes":9054,"Ġunarmed":9055,"Ġunlikely":9056,"Ġallows":9057,"ĠScientists":9058,"Ġreproductive":9059,"ĠBlue":9060,"ĠButtigieg":9061,"Ġoverall":9062,"Ġusually":9063,"ocket":9064,"angers":9065,"Ġherself":9066,"ĠBanks":9067,"ĠDefending":9068,"ĠBacklash":9069,"ĠControversy":9070,"Ġyourself":9071,"jorie":9072,"Ġinternal":9073,"Ġimage":9074,"Ġabsolutely":9075,"ĠRecent":9076,"ĠMeddling":9077,"ronic":9078,"ĠConsumer":9079,"Ġ35":9080,"ĠOption":9081,"ĠDeals":9082,"Ġintent":9083,"Ġassistance":9084,"Ġsurv":9085,"ĠPutting":9086,"bye":9087,"ĠCountries":9088,"ĠRemains":9089,"ISIS":9090,"Ġconfident":9091,"annon":9092,"ĠMissed":9093,"Ġdemanding":9094,"Tweet":9095,"Ġoblig":9096,"Ġobvious":9097,"Ġdesigned":9098,"letely":9099,"Ġdisturbing":9100,"Almost":9101,"ĠAnymore":9102,"ĠApart":9103,"ĠApology":9104,"Ġeditorial":9105,"Ġfewer":9106,"Ġfollowed":9107,"ĠPatriot":9108,"ĠSeason":9109,"ĠCentury":9110,"ĠDetroit":9111,"Ġcivilians":9112,"Ġaddressing":9113,"Ġclassified":9114,"Ġmodel":9115,"augural":9116,"ĠTurkish":9117,"Ġeffectively":9118,"Ġdiscussed":9119,"ĠDeserve":9120,"Ġsurprised":9121,"Ġmissing":9122,"ĠFailing":9123,"ĠVeteran":9124,"ĠSeattle":9125,"Ġprovides":9126,"Ġopinions":9127,"Ġengaged":9128,"Ġdispar":9129,"Ġstrikes":9130,"verseas":9131,"board":9132,"Ġpossibly":9133,"ĠStruggles":9134,"Ġoperations":9135,"Ġnarrow":9136,"Sanctuary":9137,"ĠIndependent":9138,"Ġpledged":9139,"Religious":9140,"ĠBerkeley":9141,"Ġtactics":9142,"ĠSimple":9143,"ĠRosen":9144,"Ġfeels":9145,"ĠCBO":9146,"ĠCreate":9147,"Ġcustody":9148,"ĠAtlanta":9149,"Mexico":9150,"Ġpurpose":9151,"rehensive":9152,"ĠSnowden":9153,"abotage":9154,"ĠWyoming":9155,"ĠBelieves":9156,"quiry":9157,"Montana":9158,"ĠBrooklyn":9159,"ĠStewart":9160,"onymous":9161,"Air":9162,"About":9163,"Baltimore":9164,"Betsy":9165,"Car":9166,"Cong":9167,"Celeb":9168,"EN":9169,"IP":9170,"LA":9171,"List":9172,"Labor":9173,"Mueller":9174,"Maine":9175,"Ob":9176,"Other":9177,"Pal":9178,"Pope":9179,"Ref":9180,"break":9181,"cience":9182,"dis":9183,"fun":9184,"iable":9185,"liest":9186,"uz":9187,"uzz":9188,"zy":9189,"zar":9190,"Ġtight":9191,"Ġtone":9192,"Ġtied":9193,"ĠTied":9194,"ĠTammy":9195,"alph":9196,"Ġtheories":9197,"ĠServe":9198,"ĠCrazy":9199,"Ġsorry":9200,"Ġpot":9201,"Ġpardon":9202,"ĠProud":9203,"Ġbail":9204,"ĠOcasio":9205,"ĠRamp":9206,"ĠRush":9207,"ĠRuth":9208,"ĠRural":9209,"ĠWood":9210,"ĠHusband":9211,"lem":9212,"leans":9213,"ĠBus":9214,"ĠBail":9215,"ĠBerg":9216,"omers":9217,"ĠFeat":9218,"Ġdying":9219,"Ġdrawn":9220,"Ġmoves":9221,"ĠGore":9222,"Ġnor":9223,"ĠToss":9224,"ĠLied":9225,"ĠLady":9226,"ĠLuther":9227,"utation":9228,"Ġloud":9229,"ĠIncome":9230,"Ġgirls":9231,"aked":9232,"akistan":9233,"Ġstyle":9234,"ĠJill":9235,"ulting":9236,"rapp":9237,"raged":9238,"arters":9239,"Ġconvent":9240,"ustain":9241,"Ġvar":9242,"Ġviral":9243,"Ġvolunt":9244,"osure":9245,"abit":9246,"udies":9247,"astert":9248,"ĠThrow":9249,"Ġshock":9250,"Ġshape":9251,"ardons":9252,"uren":9253,"umed":9254,"ĠRein":9255,"ipients":9256,"ĠHeat":9257,"Ġadmit":9258,"ĠProof":9259,"ĠAlly":9260,"inding":9261,"ĠAnswers":9262,"ĠSpeaking":9263,"Ġunless":9264,"eeds":9265,"Ġcontender":9266,"ĠBlocked":9267,"Ġresistance":9268,"issed":9269,"Ġexposed":9270,"Ġapply":9271,"Ġscrutiny":9272,"ĠCarly":9273,"Ġquit":9274,"ĠActual":9275,"ĠWhole":9276,"ĠBackground":9277,"ĠQual":9278,"Ġarms":9279,"versations":9280,"ĠContract":9281,"ĠExper":9282,"ĠDonor":9283,"China":9284,"ĠDecides":9285,"ĠPolitician":9286,"ĠBigger":9287,"Ġinsurrection":9288,"azing":9289,"ĠAgent":9290,"Ġintel":9291,"Ġintimid":9292,"Ġdisclose":9293,"ĠComeback":9294,"Ġlooked":9295,"Ġnationwide":9296,"ĠDisg":9297,"ĠDisabilities":9298,"Presidential":9299,"ĠSurvey":9300,"Ġfundraising":9301,"Ġannounce":9302,"ĠAdvances":9303,"ĠThreaten":9304,"ĠMcCrory":9305,"Ġpromote":9306,"Ġpayments":9307,"idding":9308,"Ġmargin":9309,"Ġquestioned":9310,"Ġraces":9311,"Ġserves":9312,"asket":9313,"letes":9314,"Ġminutes":9315,"Ġheads":9316,"ĠOpponents":9317,"ĠHighway":9318,"Ġgrown":9319,"ĠNeo":9320,"Ġlarger":9321,"Ġviolated":9322,"ĠSettlement":9323,"ĠSlow":9324,"ĠGreece":9325,"Flint":9326,"Ġ80":9327,"ĠIslamophobia":9328,"Ġposted":9329,"Ġcenters":9330,"Ġprovider":9331,"urban":9332,"Ġsteps":9333,"Ġstaffer":9334,"Ġfilm":9335,"Ġdeadline":9336,"ĠDesc":9337,"ĠTargeting":9338,"ĠTargeted":9339,"ĠGiant":9340,"rutality":9341,"ĠStarting":9342,"ĠPlaying":9343,"ullying":9344,"Ġcredible":9345,"Ġremaining":9346,"Ġurging":9347,"Ġaware":9348,"Ġsexually":9349,"ĠHitler":9350,"Appeals":9351,"ĠNAFTA":9352,"Ġpriority":9353,"Ġprivacy":9354,"Ġinvestment":9355,"Ġsilent":9356,"Ġsilence":9357,"Ġnarrative":9358,"Ġaudience":9359,"ĠComplaint":9360,"ĠApologize":9361,"ĠDoctors":9362,"emporarily":9363,"ĠAccuser":9364,"Ġaimed":9365,"Ġstrategist":9366,"levant":9367,"Ġinnocent":9368,"Ġcampus":9369,"Ġanalysis":9370,"ĠAustral":9371,"ĠTribute":9372,"Ġsomew":9373,"Ġmoments":9374,"Ġrecommend":9375,"Ġspecifically":9376,"istricting":9377,"known":9378,"nabis":9379,"ĠRatings":9380,"ĠScalise":9381,"Things":9382,"ĠBergdahl":9383,"Bad":9384,"Core":9385,"DNC":9386,"Doug":9387,"Five":9388,"ICE":9389,"Koch":9390,"Kamala":9391,"Less":9392,"Medic":9393,"OL":9394,"Pre":9395,"Part":9396,"Those":9397,"UD":9398,"Veter":9399,"Want":9400,"gle":9401,"lied":9402,"rig":9403,"vy":9404,"water":9405,"Ã¡":9406,"Ġou":9407,"Ġver":9408,"real":9409,"reational":9410,"ĠTaps":9411,"orious":9412,"ĠAx":9413,"ĠAims":9414,"ĠSounds":9415,"ĠSepar":9416,"ĠSuicide":9417,"ĠCaught":9418,"ĠCaucuses":9419,"icable":9420,"Ġwelfare":9421,"Ġwisdom":9422,"Ġsize":9423,"Ġsuing":9424,"Ġsales":9425,"Ġsafer":9426,"Ġfat":9427,"ĠPandemic":9428,"ĠPicture":9429,"ĠPakistan":9430,"ĠDue":9431,"ĠDying":9432,"Ġbars":9433,"Ġbrain":9434,"Ġbias":9435,"ĠHom":9436,"ĠBible":9437,"ĠBraz":9438,"ĠFans":9439,"ĠFuels":9440,"ĠMachine":9441,"ĠMuseum":9442,"otyp":9443,"Ġdrag":9444,"Ġduty":9445,"Ġdiverse":9446,"Ġmandate":9447,"etime":9448,"ĠNobody":9449,"ĠNikki":9450,"ĠLt":9451,"ĠLiving":9452,"ĠLinked":9453,"Ġlocked":9454,"Ġloves":9455,"ĠInst":9456,"Ġgap":9457,"Ġgubernatorial":9458,"Ġgreatest":9459,"ocol":9460,"ocide":9461,"aki":9462,"ĠStopped":9463,"ĠForces":9464,"opou":9465,"rah":9466,"ĠConced":9467,"Ġyesterday":9468,"ĠClar":9469,"chang":9470,"Ġvirus":9471,"Ġwithdraw":9472,"ĠYates":9473,"Ġproof":9474,"ags":9475,"quarters":9476,"unding":9477,"ĠAsylum":9478,"Ġweapon":9479,"Ġdozens":9480,"Ġspons":9481,"Ġspring":9482,"Ġadults":9483,"ĠProvid":9484,"ĠAlt":9485,"ĠUns":9486,"ĠSplit":9487,"ĠLevel":9488,"ensions":9489,"ĠScrew":9490,"Ġupset":9491,"Thank":9492,"rance":9493,"ervers":9494,"ervatism":9495,"Ġreplacement":9496,"aulting":9497,"mining":9498,"ĠJustices":9499,"Ġusual":9500,"Ġexplo":9501,"ĠResolution":9502,"Ġscientists":9503,"Ġrecovery":9504,"ĠEmotional":9505,"Ġquarter":9506,"Ġsomebody":9507,"illionaire":9508,"Ġcompet":9509,"Ġconsensus":9510,"ĠPlanet":9511,"ĠPlanning":9512,"Storm":9513,"Ġimagine":9514,"ĠGoogle":9515,"ĠHero":9516,"Ġlongtime":9517,"ĠAgencies":9518,"ACP":9519,"jection":9520,"ĠImpeach":9521,"Ġsignal":9522,"ĠIndicted":9523,"Ġopposite":9524,"Ġrob":9525,"ĠConfront":9526,"Ġadditional":9527,"ĠPharma":9528,"ĠAdvoc":9529,"ĠReminds":9530,"ĠReminder":9531,"ĠWallace":9532,"ĠMostly":9533,"idden":9534,"ĠPosts":9535,"anna":9536,"Ġretirement":9537,"ĠDelegate":9538,"Ġvictories":9539,"Ġ2009":9540,"Ġclaiming":9541,"Ġprotesting":9542,"ĠProtecting":9543,"ĠFrank":9544,"ĠOwners":9545,"ĠIncreas":9546,"prise":9547,"ĠSwamp":9548,"ĠSmart":9549,"ĠCritical":9550,"rize":9551,"ĠAffair":9552,"Ġhoped":9553,"Ġsuggesting":9554,"ĠNeigh":9555,"Ġratings":9556,"ĠAddiction":9557,"rified":9558,"Ġestimated":9559,"ĠChemical":9560,"Ġreforms":9561,"ĠDeadline":9562,"hetic":9563,"Ġaddressed":9564,"Ġthoughts":9565,"ĠStaffers":9566,"alties":9567,"Ġprices":9568,"Ġreceiving":9569,"Ġmoderate":9570,"ĠElimin":9571,"Ġstronger":9572,"Ġfrontrunner":9573,"ĠTurning":9574,"Ġemployer":9575,"ĠArrests":9576,"Ġdeclined":9577,"Ġbasis":9578,"Ġrepresented":9579,"ĠMeanwhile":9580,"ĠApproach":9581,"Ġpotentially":9582,"ĠStarts":9583,"league":9584,"Ġparts":9585,"ĠSentence":9586,"Ġinfluential":9587,"Ġbrings":9588,"rogate":9589,"Ġinjust":9590,"Ġequal":9591,"Ġunpopular":9592,"Ġprior":9593,"Ġmessages":9594,"Ġfootball":9595,"ĠMillennials":9596,"ĠBriefing":9597,"Ġlobbyist":9598,"Emb":9599,"ĠSurvivor":9600,"Ġtransparency":9601,"Neil":9602,"moil":9603,"ĠSoldiers":9604,"ĠPrivacy":9605,"Ġtotally":9606,"Ġwalked":9607,"Ġsoldiers":9608,"Ġultimately":9609,"ĠVoice":9610,"ortunities":9611,"urgeon":9612,"Ġqualified":9613,"Netanyahu":9614,"Charlottesville":9615,"itimacy":9616,"Ġpackage":9617,"Ġbalance":9618,"Ġsubsidies":9619,"ĠColumbia":9620,"ĠProvide":9621,"Illinois":9622,"Ġtomorrow":9623,"Hawaii":9624,"13":9625,"90":9626,"AR":9627,"Campaign":9628,"Down":9629,"Education":9630,"Fact":9631,"Nazi":9632,"Nazis":9633,"OU":9634,"Puerto":9635,"born":9636,"def":9637,"eiling":9638,"iat":9639,"ius":9640,"kowski":9641,"las":9642,"low":9643,"lers":9644,"mitted":9645,"nst":9646,"te":9647,"tled":9648,"violent":9649,"wor":9650,"wart":9651,"Ġi":9652,"inct":9653,"inary":9654,"held":9655,"heart":9656,"heast":9657,"erred":9658,"ĠTight":9659,"ĠTears":9660,"ĠText":9661,"ĠTechn":9662,"ĠTicket":9663,"ĠTitle":9664,"orist":9665,"isher":9666,"ĠCulture":9667,"aron":9668,"icop":9669,"Ġsort":9670,"Ġcell":9671,"Ġcaut":9672,"Ġcatastrop":9673,"Ġprot":9674,"Ġprime":9675,"Ġplead":9676,"Ġpurch":9677,"Ġpeaceful":9678,"ĠPiv":9679,"ĠPod":9680,"Ġovers":9681,"ĠDA":9682,"ĠDomin":9683,"ĠDele":9684,"ĠOcc":9685,"ĠRam":9686,"ĠRew":9687,"ĠRee":9688,"ĠRap":9689,"ĠWelfare":9690,"ĠBrian":9691,"ĠFate":9692,"ĠFrust":9693,"ĠFurther":9694,"ĠFossil":9695,"ĠMal":9696,"ĠMate":9697,"Ġhun":9698,"Ġdinner":9699,"Ġdedic":9700,"Ġmus":9701,"Ġmir":9702,"acity":9703,"igil":9704,"resents":9705,"etty":9706,"imism":9707,"ĠLaugh":9708,"ĠLobbying":9709,"Ġlog":9710,"Ġlied":9711,"users":9712,"epting":9713,"eman":9714,"Ġgains":9715,"Ġgreen":9716,"Ġreaction":9717,"Ġstick":9718,"Ġstock":9719,"Ġstreet":9720,"ĠJes":9721,"cealed":9722,"ĠSton":9723,"ĠStake":9724,"ĠStocks":9725,"ĠForced":9726,"raining":9727,"ĠRepublic":9728,"Ġyouth":9729,"Ġconstant":9730,"ĠKa":9731,"ĠKrist":9732,"char":9733,"arewell":9734,"ivals":9735,"osis":9736,"ressing":9737,"Ġasylum":9738,"away":9739,"Ġrid":9740,"Ġrigged":9741,"Ġshame":9742,"assidy":9743,"Ġexclusive":9744,"uming":9745,"ĠShare":9746,"apol":9747,"Ġweird":9748,"Ġspace":9749,"Ġspeed":9750,"ernity":9751,"ĠAnger":9752,"ĠAnalyt":9753,"ĠSpencer":9754,"Ġoffering":9755,"ĠScient":9756,"ogy":9757,"Ġplant":9758,"reek":9759,"ounding":9760,"Ġleads":9761,"Ġanybody":9762,"Ġanywhere":9763,"ĠNewspaper":9764,"ĠCrucial":9765,"Ġwarm":9766,"ahm":9767,"Ġbillions":9768,"Ġdisplay":9769,"Ġdisastrous":9770,"ĠQuite":9771,"ĠQuits":9772,"Ġabandon":9773,"Ġmyth":9774,"Ġbigotry":9775,"Ġinspired":9776,"ĠManning":9777,"ĠApple":9778,"ĠBrings":9779,"Ġmeddling":9780,"ĠWorker":9781,"ĠSoft":9782,"uction":9783,"ĠDisag":9784,"Ġtruck":9785,"Ġadds":9786,"Ġemissions":9787,"Ġcolleges":9788,"Ġdepend":9789,"Ġpromoting":9790,"Ġmarch":9791,"Ġobsc":9792,"Ġdeserves":9793,"ĠGrows":9794,"eeling":9795,"ĠDenying":9796,"Ġcoop":9797,"Although":9798,"Ġincreases":9799,"Ġaffairs":9800,"ĠOpposes":9801,"ĠOpportunity":9802,"Ready":9803,"Reilly":9804,"Donnell":9805,"Ġviolation":9806,"spoken":9807,"Ġevangelical":9808,"ĠChecks":9809,"ĠUrban":9810,"Ġofficially":9811,"Ġhumanitarian":9812,"ĠLoans":9813,"Ġorganized":9814,"Ġlistening":9815,"Ġsentence":9816,"ĠMurkowski":9817,"Ġmarkets":9818,"Ġfirearms":9819,"Ġtargets":9820,"Ġrepresentative":9821,"iament":9822,"ĠHackers":9823,"ĠMeaning":9824,"ĠHandle":9825,"ĠSubpoena":9826,"ĠListen":9827,"ophole":9828,"Ġturnout":9829,"ĠSkept":9830,"ĠJimmy":9831,"Mayor":9832,"Ġdescribe":9833,"itiatives":9834,"Ġsummit":9835,"ĠHeard":9836,"ĠSeeking":9837,"ĠLobbyists":9838,"ĠEvents":9839,"ĠIgnore":9840,"ĠPetra":9841,"Ġinjured":9842,"Apparently":9843,"Ġcomplaint":9844,"ĠCourts":9845,"ĠLeaks":9846,"ĠLimits":9847,"ĠBenefit":9848,"ĠGlenn":9849,"poenas":9850,"Ġaccomplish":9851,"Ġencouraged":9852,"ĠRaids":9853,"Ġliberty":9854,"Ġtensions":9855,"ĠDismisses":9856,"rentice":9857,"ĠJoseph":9858,"ĠProfessor":9859,"ĠJapanese":9860,"Seriously":9861,"ĠPositive":9862,"olitical":9863,"Advocates":9864,"egregation":9865,"fortunately":9866,"McCain":9867,"Corey":9868,"opoulos":9869,"70":9870,"Add":9871,"Bannon":9872,"Carl":9873,"Det":9874,"Gu":9875,"Jan":9876,"Kim":9877,"Kris":9878,"Long":9879,"Rour":9880,"Sw":9881,"Sy":9882,"Sand":9883,"Utah":9884,"box":9885,"eus":9886,"eah":9887,"funded":9888,"gg":9889,"greg":9890,"har":9891,"hard":9892,"iety":9893,"lings":9894,"pire":9895,"ports":9896,"vin":9897,"was":9898,"Ġicon":9899,"inter":9900,"Ġtend":9901,"Ġtouch":9902,"anth":9903,"reements":9904,"ĠTapper":9905,"inging":9906,"ouching":9907,"eda":9908,"ĠSel":9909,"isle":9910,"ĠCatch":9911,"ĠCitizen":9912,"arations":9913,"ician":9914,"icense":9915,"Ġselling":9916,"Ġsaved":9917,"Ġcoin":9918,"Ġcops":9919,"Ġpill":9920,"Ġfault":9921,"ilem":9922,"ĠPaper":9923,"Ġoversight":9924,"Ġoverseas":9925,"ĠDun":9926,"ĠDevin":9927,"ĠDollars":9928,"ĠDouble":9929,"Ġbold":9930,"Ġbox":9931,"Ġbrag":9932,"Ġbarely":9933,"ĠOw":9934,"ĠRu":9935,"ĠRican":9936,"ĠRum":9937,"ĠRose":9938,"ĠRove":9939,"ĠRoss":9940,"ĠHB":9941,"ĠHait":9942,"ĠHouston":9943,"ĠHastert":9944,"ĠBed":9945,"ĠFile":9946,"ĠMary":9947,"ĠMiami":9948,"Ġhide":9949,"Ġdiagn":9950,"Ġmatch":9951,"Ġinfect":9952,"acing":9953,"acies":9954,"ĠGains":9955,"Ġnumerous":9956,"imistic":9957,"ĠLy":9958,"ĠLog":9959,"ĠLaden":9960,"ution":9961,"Ġlock":9962,"ĠEU":9963,"rock":9964,"ĠInitiative":9965,"Ġgames":9966,"Ġgranted":9967,"Ġrein":9968,"Ġforms":9969,"urse":9970,"ula":9971,"pper":9972,"ravel":9973,"ifted":9974,"usted":9975,"thy":9976,"resses":9977,"abe":9978,"abies":9979,"odies":9980,"Ġnote":9981,"Ġric":9982,"Ġrow":9983,"agers":9984,"assroots":9985,"eopard":9986,"ongering":9987,"Ġalike":9988,"Ġalthough":9989,"Ġsparked":9990,"indal":9991,"ĠAnal":9992,"Ġunity":9993,"Ġunusual":9994,"ĠAdelson":9995,"ĠExit":9996,"ĠExactly":9997,"ĠOverhaul":9998,"ollster":9999,"ĠMarks":10000,"Ġoverhaul":10001,"anye":10002,"angered":10003,"Ġaccurate":10004,"ĠOuts":10005,"ĠOutrage":10006,"Ġplaint":10007,"Ġaftermath":10008,"Ġactive":10009,"ĠEmbass":10010,"Ġenforce":10011,"Ġworkplace":10012,"ibrand":10013,"ĠWhose":10014,"Ġimportance":10015,"Ġcommit":10016,"Ġdonor":10017,"ĠTrick":10018,"ĠQue":10019,"Ġarm":10020,"ĠMonuments":10021,"ĠImm":10022,"Ġtrick":10023,"Ġeverybody":10024,"Ġeverywhere":10025,"Ġendorse":10026,"ĠAmy":10027,"Ġknowledge":10028,"Ġoperation":10029,"uffPollster":10030,"Ġsees":10031,"Anon":10032,"ĠEnemy":10033,"ĠColleagues":10034,"Ġ36":10035,"ĠHarm":10036,"Ġintegrity":10037,"Ġdisclosure":10038,"ĠRunoff":10039,"ĠImprove":10040,"Ġelectorate":10041,"Ġregistered":10042,"Ġramp":10043,"ĠGuest":10044,"ĠBarr":10045,"ĠBarbara":10046,"Ġcriticize":10047,"Ġaddiction":10048,"ricter":10049,"Ġproperty":10050,"Ġfacilities":10051,"Ġcorrupt":10052,"Ġconclud":10053,"Ġpassage":10054,"Ġguys":10055,"ribes":10056,"Ġchecks":10057,"Ġquestioning":10058,"aunting":10059,"Ġdifferences":10060,"ĠPayments":10061,"ysfun":10062,"ĠGrad":10063,"Ġphil":10064,"ĠParties":10065,"ĠTesting":10066,"Ġheadlines":10067,"Ġarguing":10068,"accurate":10069,"Shithole":10070,"Ġviolates":10071,"Ġvet":10072,"ĠSlavery":10073,"Ġcovered":10074,"clusion":10075,"ĠPrices":10076,"ĠUSA":10077,"rips":10078,"Ġwrites":10079,"ĠStandards":10080,"olidays":10081,"ĠEdge":10082,"ĠClaiming":10083,"forcing":10084,"Ġsuccessor":10085,"Ġsuccessfully":10086,"Ġexcited":10087,"Money":10088,"Ġinvolve":10089,"ĠSexist":10090,"ĠHonors":10091,"Ġloans":10092,"***":10093,"Ġcredibility":10094,"aughters":10095,"Ġmissile":10096,"ĠGolden":10097,"Ġreveals":10098,"Ġaccountability":10099,"ĠMidterms":10100,"ography":10101,"Ġbrand":10102,"ĠCelebrates":10103,"Voting":10104,"ĠEvangelical":10105,"Ġtroubling":10106,"Ġrepeated":10107,"ĠConvicted":10108,"Being":10109,"Ġbankrupt":10110,"Ġidentity":10111,"Ġidentified":10112,"ĠVeto":10113,"ĠPoised":10114,"ĠPoison":10115,"Ġaccomplished":10116,"ĠRegulations":10117,"ascist":10118,"Ġautom":10119,"Ġanalyst":10120,"Facing":10121,"ĠDispute":10122,"According":10123,"ĠMegyn":10124,"ĠThoughts":10125,"Ġacad":10126,"Ġacknowledge":10127,"Ġbreath":10128,"ĠNewtown":10129,"Extrem":10130,"ĠSterling":10131,"expected":10132,"Meanwhile":10133,"ĠCancels":10134,"Ġhomeless":10135,"Santis":10136,"ĠBaldwin":10137,"Ġinjustice":10138,"ĠPetraeus":10139,"Rourke":10140,"ilemma":10141,"400":10142,"Border":10143,"Candid":10144,"Citizens":10145,"Dick":10146,"Eth":10147,"Foll":10148,"Freedom":10149,"Gi":10150,"Hard":10151,"History":10152,"IT":10153,"Kh":10154,"Mod":10155,"Millions":10156,"Nikki":10157,"Reg":10158,"Sam":10159,"Sad":10160,"Sign":10161,"Susan":10162,"Tru":10163,"Wall":10164,"aeda":10165,"bage":10166,"eh":10167,"field":10168,"happy":10169,"kers":10170,"lock":10171,"mel":10172,"met":10173,"mits":10174,"pel":10175,"rd":10176,"west":10177,"xy":10178,"ylan":10179,"Ġiron":10180,"Ġrif":10181,"inian":10182,"inated":10183,"ano":10184,"rev":10185,"enant":10186,"Ġaward":10187,"itled":10188,"itches":10189,"ĠSending":10190,"ĠSolid":10191,"ĠSuddenly":10192,"isode":10193,"ĠCat":10194,"ĠCreated":10195,"Ġwearing":10196,"Ġsch":10197,"Ġsued":10198,"Ġsuddenly":10199,"Ġciv":10200,"ĠPed":10201,"ĠPoss":10202,"ĠDeter":10203,"Ġbound":10204,"ĠRif":10205,"ĠRivals":10206,"ĠWhe":10207,"ĠWave":10208,"ĠWitness":10209,"ĠHalt":10210,"ĠHints":10211,"ĠBreat":10212,"ĠBach":10213,"ĠBrutal":10214,"ĠFat":10215,"ĠFool":10216,"ĠFantasy":10217,"ĠMasks":10218,"asing":10219,"Ġhired":10220,"Ġdate":10221,"Ġment":10222,"olt":10223,"ĠTrumps":10224,"Ġthrowing":10225,"ĠGrop":10226,"ĠGulf":10227,"ĠGlobe":10228,"Ġnobody":10229,"ĠNob":10230,"ĠLA":10231,"ader":10232,"Ġlit":10233,"Ġlos":10234,"Ġlaid":10235,"Ġrevers":10236,"ework":10237,"Ġheated":10238,"ulating":10239,"hoen":10240,"opoly":10241,"ĠReplac":10242,"ĠKiss":10243,"ustries":10244,"endy":10245,"endum":10246,"ignity":10247,"aws":10248,"asters":10249,"izer":10250,"ellent":10251,"Ġproven":10252,"Ġshocking":10253,"ector":10254,"Ġchaos":10255,"Ġ2000":10256,"Ġspeeches":10257,"ĠAlb":10258,"ereg":10259,"ĠUnless":10260,"risk":10261,"Ġunve":10262,"Ġkid":10263,"ĠAdmit":10264,"ĠScram":10265,"bery":10266,"Think":10267,"Ġcontrad":10268,"Ġcontenders":10269,"onsider":10270,"Ġovercome":10271,"overs":10272,"ĠBillions":10273,"Which":10274,"Ġexpanding":10275,"Ġexplanation":10276,"Ġaccord":10277,"ĠCanadian":10278,"ĠFlo":10279,"Ġappropriate":10280,"Ġactor":10281,"Ġscandals":10282,"oyers":10283,"Ġincidents":10284,"Ġsomehow":10285,"ĠTweeting":10286,"Ġworker":10287,"Ġcommander":10288,"Ġblind":10289,"ĠBackers":10290,"ultiple":10291,"Still":10292,"ĠCouldn":10293,"ĠRefuse":10294,"Ġtroll":10295,"Ġtrigger":10296,"ĠExpansion":10297,"rounding":10298,"Ġreminder":10299,"Ġopened":10300,"Ġprefer":10301,"Ġimages":10302,"Ġpartner":10303,"Ġdisenfranch":10304,"ĠQuick":10305,"rony":10306,"ĠManhattan":10307,"empl":10308,"ĠCharity":10309,"Ġcareful":10310,"ĠInterference":10311,"Ġmanip":10312,"Ġdiscour":10313,"ĠRuns":10314,"Ġopportunities":10315,"Ġregret":10316,"ĠProtester":10317,"Ġ194":10318,"Ġnationalist":10319,"ĠInsult":10320,"Ġrefuse":10321,"ĠPhys":10322,"Ġanticip":10323,"ĠRemoved":10324,"Ġentered":10325,"Ġentering":10326,"ĠInvestigated":10327,"ĠMissile":10328,"Islam":10329,"Ġ2001":10330,"ĠDeny":10331,"ĠShowdown":10332,"ĠPartisan":10333,"Ġslight":10334,"Ġattorneys":10335,"Ġswamp":10336,"Ġtesting":10337,"Profit":10338,"ĠSwing":10339,"racing":10340,"races":10341,"duction":10342,"ĠHurts":10343,"Ġdeliber":10344,".).":10345,"ĠPrincip":10346,"Ġsentences":10347,"Ġauthorization":10348,"Ġpersonality":10349,"Ġjoining":10350,"ĠRevealed":10351,"ĠTurner":10352,"Ġnonprofit":10353,"ĠRaised":10354,"Ġharsh":10355,"Ġneo":10356,"ĠObstruction":10357,"ĠEastern":10358,"Special":10359,"Ġcelebrating":10360,"Ġconvince":10361,"Ġconviction":10362,"ĠDivide":10363,"ĠChoose":10364,"Ġmainstream":10365,"forte":10366,"ĠSuspends":10367,"ambridge":10368,"ĠSentenced":10369,"ĠPortland":10370,"Ġoccurred":10371,"borough":10372,"Ġnegotiating":10373,"Ġempty":10374,"profile":10375,"ĠNAACP":10376,"ĠDamning":10377,"ĠHalts":10378,"Ġsolve":10379,"ĠLeaked":10380,"Ġhorrific":10381,"Ġbroader":10382,"ĠAlexander":10383,"ĠDoubles":10384,"Getting":10385,"ĠEntire":10386,"Ġcircum":10387,"Ġdesperate":10388,"Ġoriginal":10389,"Indiana":10390,"Ġheroes":10391,"Ġgenerations":10392,"vertising":10393,"Ġtransportation":10394,"ĠMadness":10395,"ĠExtreme":10396,"Ġdoctors":10397,"Ġrivals":10398,"ĠDodges":10399,"ĠFuneral":10400,"Ġbattles":10401,"Ġconnection":10402,"idelines":10403,"Ġstrength":10404,"ĠQuietly":10405,"edding":10406,"Ġdestruction":10407,"ĠGillibrand":10408,"Ġunnecessary":10409,"ĠRescue":10410,"ĠOverturn":10411,"Charles":10412,"Ġclosely":10413,"ĠOpinion":10414,"ĠUgly":10415,"ĠEncour":10416,"erritory":10417,"ĠBehavior":10418,"ĠDevelopment":10419,"ĠMacron":10420,"Stormy":10421,"ĠAnalytica":10422,"Giuliani":10423,"Ġlosers":10424,"200":10425,"Cop":10426,"Disc":10427,"DACA":10428,"God":10429,"Iraq":10430,"Jew":10431,"Keith":10432,"Mem":10433,"Military":10434,"MSNBC":10435,"Please":10436,"Pelosi":10437,"Red":10438,"Ter":10439,"Talk":10440,"WI":10441,"ciss":10442,"door":10443,"fare":10444,"gr":10445,"hill":10446,"hmed":10447,"human":10448,"jamin":10449,"ker":10450,"kay":10451,"kee":10452,"lt":10453,"lide":10454,"lands":10455,"nis":10456,"nected":10457,"noon":10458,"president":10459,"page":10460,"party":10461,"rine":10462,"rina":10463,"with":10464,"ware":10465,"Ġtext":10466,"Ġtaught":10467,"oning":10468,"erates":10469,"reci":10470,"ĠTex":10471,"ĠTape":10472,"ĠTotal":10473,"ĠTonight":10474,"ĠTackle":10475,"enry":10476,"enger":10477,"oration":10478,"orce":10479,"sted":10480,"Ġavoided":10481,"ĠSat":10482,"ĠSlain":10483,"ĠSociety":10484,"ĠSelling":10485,"ĠSacrif":10486,"ĠCell":10487,"ĠCurrent":10488,"ĠCapt":10489,"ĠChelsea":10490,"Ġwear":10491,"Ġsac":10492,"Ġsupremacy":10493,"Ġcry":10494,"Ġpetition":10495,"Ġfans":10496,"Ġfilled":10497,"ĠPorn":10498,"ĠPurs":10499,"ĠPushed":10500,"ĠPacific":10501,"ĠDrag":10502,"Ġbooks":10503,"Ġbreaking":10504,"Ġbizarre":10505,"ĠRan":10506,"ĠRonald":10507,"enth":10508,"ĠHay":10509,"ĠHistor":10510,"ĠHUD":10511,"ĠBorn":10512,"ĠBond":10513,"ĠBash":10514,"ĠBurns":10515,"ĠBridge":10516,"ĠFalsely":10517,"ĠFauci":10518,"ĠMir":10519,"ĠMention":10520,"Ġhypocrisy":10521,"Ġhatred":10522,"Ġdiversity":10523,"Ġdouble":10524,"Ġmal":10525,"Ġmap":10526,"Ġinmates":10527,"igrants":10528,"olen":10529,"olars":10530,"Ġnorm":10531,"ĠNor":10532,"ĠNAS":10533,"immer":10534,"ĠLets":10535,"ĠLamb":10536,"ĠLicenses":10537,"Ġlay":10538,"Ġlived":10539,"epts":10540,"emon":10541,"ĠInmates":10542,"Ġgrew":10543,"Ġrent":10544,"Ġfort":10545,"urer":10546,"ocracy":10547,"istant":10548,"akers":10549,"ĠOften":10550,"Ġste":10551,"Ġstem":10552,"Ġstark":10553,"Ġstuck":10554,"Ġstring":10555,"Ġstopping":10556,"ĠJindal":10557,"riev":10558,"rav":10559,"ĠVen":10560,"Ġanx":10561,"ĠClosed":10562,"ĠClosing":10563,"Ġconstituents":10564,"ifty":10565,"chie":10566,"essing":10567,"thold":10568,"ivated":10569,"ivities":10570,"izon":10571,"Ġjur":10572,"Ġpolar":10573,"agog":10574,"ĠWithin":10575,"Ġexchange":10576,"eyer":10577,"ĠReince":10578,"apse":10579,"Ġweather":10580,"Ġsports":10581,"ĠProsp":10582,"ĠAlone":10583,"Ġunb":10584,"Ġunemployment":10585,"Ġoffices":10586,"Ġclub":10587,"ittees":10588,"ĠExist":10589,"Ġcontain":10590,"ĠAftermath":10591,"rence":10592,"Ġexpensive":10593,"ounder":10594,"Ġrecru":10595,"ĠEmissions":10596,"Ġquality":10597,"Ġcounties":10598,"ĠTwice":10599,"ĠActions":10600,"Ġcompl":10601,"Ġcompassion":10602,"Ġcomparison":10603,"Ġconsult":10604,"ĠMcM":10605,"ĠArm":10606,"Ġlegally":10607,"Students":10608,"ĠEnded":10609,"ĠPlays":10610,"ĠPlag":10611,"Ġendless":10612,"Ġreminded":10613,"Ġknowing":10614,"Ġimag":10615,"ĠRecovery":10616,"Ġunderst":10617,"ĠEnrollment":10618,"ĠAppoint":10619,"ĠApparently":10620,"ĠColin":10621,"ĠColleges":10622,"Ġadvance":10623,"evitable":10624,"gery":10625,"ĠTeens":10626,"ĠHelps":10627,"Ġsignature":10628,"Ġregime":10629,"Ġregistration":10630,"Ġowners":10631,"ĠPerform":10632,"ĠZero":10633,"Ġconfused":10634,"Ġteach":10635,"Ġsettle":10636,"ĠDeSantis":10637,"Ġobviously":10638,"Ġobtained":10639,"arenthold":10640,"Ġelite":10641,"ĠPassed":10642,"ĠTruck":10643,"raception":10644,"Ġdenial":10645,"Ġdenounced":10646,"ĠAffairs":10647,"Ġinterested":10648,"ĠOrdered":10649,"ĠDetained":10650,"Ġestab":10651,"ĠMeme":10652,"Ġbadly":10653,"Ġembattled":10654,"Ġembarrassing":10655,"Ġfourth":10656,"Ġdetain":10657,"ĠEditorial":10658,"Ġregular":10659,"Ġjoins":10660,"Ġolder":10661,"ĠRaising":10662,"ĠDreamer":10663,"Ġbasically":10664,"ðŁĺ":10665,"Ġdiscussing":10666,"ĠLesson":10667,"ĠSilver":10668,"Everything":10669,"Ġcelebration":10670,"Ġcelebrated":10671,"Ġsurprising":10672,"ĠChanging":10673,"Ġprisoners":10674,"respons":10675,"ĠBuying":10676,"ĠJournalist":10677,"Ġexplains":10678,"Ġexplained":10679,"Ġextremism":10680,"Ġawkward":10681,"ĠBooker":10682,"ĠEmbrace":10683,"Ġlandmark":10684,"Ġdemonstrators":10685,"Ġemphas":10686,"Ġcomplained":10687,"ĠSummer":10688,"Ġsuffered":10689,"ĠDamage":10690,"ĠErnst":10691,"boarding":10692,"Ġentirely":10693,"Ġcruel":10694,"Ġtrusted":10695,"ĠEmployee":10696,"ĠStruggling":10697,"Ġhopefuls":10698,"ĠPrepare":10699,"ĠPrepares":10700,"check":10701,"ĠLibertarian":10702,"Ġlobbyists":10703,"ĠVetoes":10704,"Ġgenerally":10705,"Ġrape":10706,"Ġrapid":10707,"Ġpledge":10708,"ĠSoldier":10709,"ĠPulls":10710,"Ġreferred":10711,"Ġultimate":10712,"Ġpoison":10713,"ĠReceives":10714,"ĠLibya":10715,"Racist":10716,"ĠCommunications":10717,"ĠAnthem":10718,"Ġhistorical":10719,"ĠMistake":10720,"ĠWilliams":10721,"Ġacknowled":10722,"ĠJosh":10723,"ĠFootball":10724,"Looking":10725,"ĠBooed":10726,"ĠReverses":10727,"Ġcanceled":10728,"Ġethn":10729,"Ġdisagree":10730,"ertificate":10731,"ĠFundraiser":10732,"Ġenthusiasm":10733,"Ġtougher":10734,"ĠPregnant":10735,"ĠInformant":10736,"Ġcomedian":10737,"ĠMaher":10738,"ĠGianforte":10739,"ichele":10740,"Opponents":10741,"bersecurity":10742,"ĠRosenstein":10743,"ĠOccup":10744,"ĠBachmann":10745,"ĠNobel":10746,"hoenix":10747,"23":10748,"Aul":10749,"Billionaire":10750,"Cub":10751,"Dead":10752,"Eight":10753,"EMA":10754,"Frank":10755,"Lat":10756,"MO":10757,"Much":10758,"Power":10759,"Prop":10760,"Ron":10761,"Rigged":10762,"Sometimes":10763,"Terror":10764,"Until":10765,"VE":10766,"but":10767,"bors":10768,"comm":10769,"fers":10770,"govern":10771,"good":10772,"his":10773,"jo":10774,"la":10775,"point":10776,"rase":10777,"sec":10778,"track":10779,"wan":10780,"wau":10781,"ÂŃ":10782,"Ġordinary":10783,"informed":10784,"Ġtor":10785,"Ġtrump":10786,"erb":10787,"stances":10788,"ĠAiles":10789,"ĠSite":10790,"ĠSuch":10791,"ĠSelect":10792,"ĠCreat":10793,"ĠCode":10794,"arts":10795,"arren":10796,"icate":10797,"Ġsight":10798,"Ġcart":10799,"Ġcares":10800,"Ġcode":10801,"Ġcamera":10802,"Ġfly":10803,"Ġfights":10804,"Ġfram":10805,"Ġfright":10806,"ĠPit":10807,"ĠPact":10808,"ĠPsych":10809,"ĠDiss":10810,"ĠDriving":10811,"ĠDisease":10812,"idance":10813,"Ġband":10814,"Ġbans":10815,"Ġbought":10816,"Ġtoll":10817,"Ġtoxic":10818,"ĠRay":10819,"ĠRub":10820,"ĠRates":10821,"ĠRises":10822,"ĠRival":10823,"ĠRoof":10824,"ĠWat":10825,"ĠWeren":10826,"ĠHeb":10827,"ĠHeck":10828,"ĠHuffPollster":10829,"ĠBot":10830,"ĠBased":10831,"ĠBrought":10832,"ĠBrain":10833,"ĠFDA":10834,"ĠFifth":10835,"ĠFarenthold":10836,"ĠMat":10837,"ĠMall":10838,"ĠMick":10839,"Ġhunt":10840,"otion":10841,"Ġdele":10842,"Ġdrew":10843,"Ġmill":10844,"Ġmine":10845,"Ġmale":10846,"Ġmovie":10847,"Ġinappropriate":10848,"olar":10849,"eld":10850,"Ġnature":10851,"Ġnecessarily":10852,"illiant":10853,"immigrant":10854,"ĠLays":10855,"ĠLoy":10856,"ĠLikes":10857,"utenant":10858,"Ġlink":10859,"epern":10860,"ĠEve":10861,"ĠEither":10862,"ĠEye":10863,"roke":10864,"ĠInstitute":10865,"ĠUber":10866,"ĠJoint":10867,"ĠJump":10868,"ubious":10869,"raid":10870,"Ġanimal":10871,"ĠKate":10872,"ĠKirk":10873,"Ġvideos":10874,"abric":10875,"iast":10876,"astic":10877,"Ġnotion":10878,"Ġrange":10879,"ellen":10880,"Ġproceed":10881,"ective":10882,"ousand":10883,"agram":10884,"ĠBeach":10885,"ĠBeau":10886,"ĠShowing":10887,"ĠReaction":10888,"aped":10889,"Ġalive":10890,"Ġspin":10891,"Ġspect":10892,"Ġspoken":10893,"avin":10894,"icting":10895,"ĠUnlikely":10896,"ĠLeague":10897,"Ġkicked":10898,"Ġcannabis":10899,"too":10900,"ĠScathing":10901,"Ġgoals":10902,"irstri":10903,"Ġrepresents":10904,"ogus":10905,"olding":10906,"ĠBland":10907,"ĠOffensive":10908,"aults":10909,"Ġattract":10910,"Ġruns":10911,"Ġscary":10912,"Ġgovernors":10913,"Ġsole":10914,"otted":10915,"Ġhadn":10916,"Ġcommercial":10917,"ĠDeficit":10918,"Ġblasted":10919,"ĠTrillion":10920,"Ġlegitimate":10921,"ĠCareer":10922,"ĠAllowing":10923,"ĠRefused":10924,"ĠExposed":10925,"ĠHoward":10926,"Ġpartners":10927,"Ġbelong":10928,"ĠYorker":10929,"rongest":10930,"ĠHeritage":10931,"Ġinspect":10932,"ĠNeeded":10933,"ĠAttacked":10934,"Ġmanner":10935,"ĠChristopher":10936,"ĠComplic":10937,"cessive":10938,"ĠOper":10939,"ĠOpening":10940,"Ġintention":10941,"Ġopposing":10942,"ĠShel":10943,"ĠBeck":10944,"Ġsurveillance":10945,"Ġsurveys":10946,"ĠGuarant":10947,"ĠPerman":10948,"ĠTrail":10949,"Ġcollection":10950,"Ġbanning":10951,"Ġseeks":10952,"Ġfundra":10953,"Ġecho":10954,"ĠHIV":10955,"ĠRemove":10956,"ĠUndermine":10957,"loyed":10958,"ĠMcCabe":10959,"Sheriff":10960,"Ġguard":10961,"ducing":10962,"Ġsubstantial":10963,"Ġsubstance":10964,"ĠIntroduc":10965,"ĠIntroduce":10966,"Ġdemanded":10967,"uilding":10968,"Ġ2005":10969,"Ġ2006":10970,"Ġ2007":10971,"Ġchose":10972,"Ġchoices":10973,"Ġdistract":10974,"arence":10975,"Ġdelegate":10976,"ĠKills":10977,"Ġpharm":10978,"ĠRepealing":10979,"Ġtopics":10980,"Ġreading":10981,"Someone":10982,"ĠPicked":10983,"IDS":10984,"ĠIsraelis":10985,"ĠPropose":10986,"ĠDisclose":10987,"Ġinvasion":10988,"Ġrequiring":10989,"Ġedge":10990,"rayed":10991,"ĠCriticizing":10992,"plays":10993,"Ġdenying":10994,"ĠAfford":10995,"ĠMyth":10996,"ĠSanctuary":10997,"ĠHurting":10998,"iffe":10999,"iffords":11000,"Unless":11001,"Ġviolations":11002,"ĠSettle":11003,"Ġhostile":11004,"backed":11005,"Ġhumanity":11006,"ĠDrone":11007,"Ġhandle":11008,"ĠBroke":11009,"Ġfilibuster":11010,"Ġmomentum":11011,"Ġnonpartisan":11012,"Ġignoring":11013,"Absolutely":11014,"ĠDeserves":11015,"ĠMeetings":11016,"ĠGreater":11017,"ĠNationwide":11018,"ĠHacked":11019,"Ġunfit":11020,"ĠSexism":11021,"Ġmethod":11022,"ĠInvolved":11023,"Ġresponding":11024,"Ġsuspended":11025,"ĠHosts":11026,"Ġmissed":11027,"ĠGeneration":11028,"Ġseats":11029,"ĠBuzz":11030,"ĠJournalism":11031,"ĠNightmare":11032,"Ġmemory":11033,"ĠIgnoring":11034,"ĠPete":11035,"ĠBasically":11036,"Ġpopularity":11037,"Ġdrilling":11038,"Behind":11039,"Ġindependence":11040,"ĠIllegally":11041,"represent":11042,"ĠClearance":11043,"ĠScarborough":11044,"Ġphotos":11045,"Defense":11046,"ĠHunger":11047,"ĠComplains":11048,"Ġattempting":11049,"ĠStatue":11050,"ĠExtremism":11051,"ĠRelationship":11052,"amentally":11053,"Ġspokeswoman":11054,"Ġmagazine":11055,"Ġpursue":11056,"ĠXL":11057,"Ġearned":11058,"Ġleaked":11059,"Ġoutrageous":11060,"ĠTransportation":11061,"Ġtraditionally":11062,"controlled":11063,"burgh":11064,"Fewer":11065,"ĠHopefuls":11066,"leeing":11067,"ĠStamps":11068,"Ġapologized":11069,"ĠWiretapping":11070,"ĠDropped":11071,"Ġinitially":11072,"Ġignorance":11073,"ĠPopulist":11074,"Ġripped":11075,"ĠWonders":11076,"Ġbusy":11077,"Ġtools":11078,"ĠBattleground":11079,"ratulations":11080,"Ġprompted":11081,"Payer":11082,"Richard":11083,"ogyny":11084,"rupts":11085,"Schumer":11086,"ĠAttempts":11087,"ĠMerkel":11088,"Congratulations":11089,"Ġvarious":11090,"Ġintellect":11091,"ĠIncreasingly":11092,"apolis":11093,"ĠSelma":11094,"Ġrichest":11095,"Khizr":11096,"Auliffe":11097,"waukee":11098,"epernick":11099,"18":11100,"40":11101,"Af":11102,"Again":11103,"Care":11104,"Calif":11105,"Capit":11106,"Des":11107,"FK":11108,"Half":11109,"Il":11110,"Linked":11111,"NEW":11112,"OW":11113,"PN":11114,"Press":11115,"Protect":11116,"Social":11117,"Tucker":11118,"Vote":11119,"Young":11120,"beat":11121,"cape":11122,"ek":11123,"fight":11124,"father":11125,"hand":11126,"iate":11127,"iors":11128,"jud":11129,"lusive":11130,"mail":11131,"manship":11132,"nation":11133,"pects":11134,"sl":11135,"ta":11136,"uates":11137,"Ġerror":11138,"erly":11139,"recy":11140,"ĠTen":11141,"ĠTale":11142,"ĠTerry":11143,"ĠTyp":11144,"ĠTaken":11145,"orable":11146,"Ġaisle":11147,"itmo":11148,"ĠAT":11149,"ĠAy":11150,"edge":11151,"ĠSing":11152,"ĠSav":11153,"ĠSession":11154,"ĠCry":11155,"ĠCap":11156,"ĠCens":11157,"ĠCantor":11158,"esb":11159,"Ġsong":11160,"Ġsue":11161,"Ġcable":11162,"Ġcrises":11163,"Ġpitch":11164,"Ġpsych":11165,"Ġfails":11166,"Ġfuels":11167,"ĠPur":11168,"ĠPrize":11169,"ĠDu":11170,"ĠDitch":11171,"Ġbre":11172,"Ġbitter":11173,"Ġbaby":11174,"ĠOath":11175,"ĠObamas":11176,"ĠReop":11177,"ĠRolls":11178,"ente":11179,"ĠHers":11180,"ĠHilar":11181,"ĠHogan":11182,"ĠBin":11183,"ĠBrett":11184,"ĠMA":11185,"ĠMoms":11186,"ĠMixed":11187,"Ġhaw":11188,"Ġhalt":11189,"Ġhospitals":11190,"Ġdod":11191,"Ġdismant":11192,"Ġmos":11193,"Ġmail":11194,"Ġmask":11195,"Ġmachine":11196,"Ġmaterial":11197,"Ġthrew":11198,"owards":11199,"ĠGrab":11200,"ĠGiffords":11201,"ĠLiar":11202,"ĠLisa":11203,"Ġluck":11204,"Ġgut":11205,"Ġgift":11206,"urches":11207,"Ġevil":11208,"occer":11209,"Ġstream":11210,"Ġstrip":11211,"ĠStrange":11212,"unned":11213,"hored":11214,"riers":11215,"ĠForum":11216,"raf":11217,"Ġanimals":11218,"estine":11219,"artisanship":11220,"rome":11221,"ĠConduct":11222,"Ġconversations":11223,"ĠKick":11224,"earchers":11225,"Ġasks":11226,"izz":11227,"Ġshameful":11228,"Ġjoint":11229,"Ġjokes":11230,"ecting":11231,"ection":11232,"gression":11233,"quer":11234,"orship":11235,"ĠReact":11236,"ipartisanship":11237,"Ġ150":11238,"Ġadministrator":11239,"henomen":11240,"ĠUnivers":11241,"ĠSpace":11242,"ĠSpeed":11243,"Ġunanim":11244,"Ġoutl":11245,"ervous":11246,"ĠOverwhel":11247,"Ġcontempt":11248,"ĠBloomberg":11249,"ĠWarm":11250,"ĠWarner":11251,"ĠOffered":11252,"ĠMaria":11253,"Ġuses":11254,"angs":11255,"redibly":11256,"Ġplot":11257,"Ġplaced":11258,"Ġafternoon":11259,"Ġapparent":11260,"Ġactress":11261,"Ġactivity":11262,"Ġgovernance":11263,"ĠCarrier":11264,"Ġenjoy":11265,"ĠHaspel":11266,"ugg":11267,"Ġimplications":11268,"Ġimpressive":11269,"ĠMcG":11270,"ĠPlane":11271,"Ġcomfort":11272,"ĠOrleans":11273,"ĠReported":11274,"ĠRefusing":11275,"ĠPlant":11276,"Ġremoval":11277,"ĠAccuse":11278,"ĠTaxpayer":11279,"Ġdisabilities":11280,"ĠMedal":11281,"Ġdeficit":11282,"Ġdefinition":11283,"ridges":11284,"ĠHeroes":11285,"ĠAppl":11286,"ĠConsiders":11287,"Ġadvis":11288,"ĠCompared":11289,"Ġ47":11290,"luding":11291,"ĠProtesting":11292,"Ġowner":11293,"ĠBars":11294,"ĠPerdue":11295,"lessness":11296,"Ġinvestigated":11297,"ĠConfident":11298,"ĠNortham":11299,"umption":11300,"ĠAdvantage":11301,"ĠThreatened":11302,"ĠThreatening":11303,"ĠMinorities":11304,"Ġflip":11305,"Ġpayment":11306,"ĠParade":11307,"ĠBenjamin":11308,"ĠMission":11309,"ĠRetire":11310,"ĠRetreat":11311,"ĠDenounce":11312,"Ġcoast":11313,"Ġchoosing":11314,"Ġchosen":11315,"ĠKiller":11316,"Ġheading":11317,"ĠIncarceration":11318,"Ġrestore":11319,"ĠLawsuits":11320,"Ġideology":11321,"Ġideological":11322,"Ġchallenged":11323,"Ġchallenger":11324,"deau":11325,"Ġlegalization":11326,"Ġsweeping":11327,"ĠDiscrimin":11328,"Ġinvited":11329,"ĠRegulation":11330,"ĠEndorsed":11331,"Unlike":11332,"ĠPromised":11333,"ĠDelivers":11334,"Ġviolating":11335,"Ġdifferently":11336,"Ġfounder":11337,"Ġcovering":11338,"Laws":11339,"ĠIslamophobic":11340,"Ġnightmare":11341,"ennis":11342,"comfortable":11343,"Ġdetained":11344,"Dozens":11345,"voids":11346,"Ġyounger":11347,"Ġregularly":11348,"Ġdivision":11349,"Ġmarked":11350,"Ġdeclare":11351,"ðŁİ":11352,"Ġreasonable":11353,"Ġneither":11354,"ĠQuestioning":11355,"ĠDeclaration":11356,"ĠHandling":11357,"ĠPlayed":11358,"ĠPanic":11359,"ĠPhotographer":11360,"ĠKimmel":11361,"Ġprepare":11362,"Ġpatient":11363,"ĠSkew":11364,"Ġdeveloping":11365,"eltdown":11366,"Ġskin":11367,"Ġstruggled":11368,"Ġstruggles":11369,"white":11370,"ĠAuthorization":11371,"doing":11372,"rogation":11373,"ĠFollow":11374,"ĠIgnores":11375,"ĠMisleading":11376,"ĠPetition":11377,"Ġrecognition":11378,"Ġpopulist":11379,"ĠMomentum":11380,"Ġdefeated":11381,"Adam":11382,"ĠExecutions":11383,"Ġmistakes":11384,"ĠLimit":11385,"ĠAlexandria":11386,"Ġcontested":11387,"Ġfootage":11388,"iums":11389,"Ġattempted":11390,"Ġdisgraceful":11391,"ĠStatues":11392,"ĠSandra":11393,"Ġexecutives":11394,"Ġpersu":11395,"ĠEmpire":11396,"Ġvacation":11397,"Ġprinciple":11398,"ĠIdent":11399,"justice":11400,"Ġlosses":11401,"ĠMagazine":11402,"Ġprofessor":11403,"ĠReceive":11404,"Ġteenager":11405,"Ġpursuing":11406,"ĠHamas":11407,"Ġindicated":11408,"ĠCouple":11409,"ĠBritain":11410,"Ġtactic":11411,"ĠSuppression":11412,"Ġcollective":11413,"Ġbattleground":11414,"Ġdissent":11415,"ORK":11416,"equal":11417,"Ġsolidarity":11418,"Daniel":11419,"Supporters":11420,"Ġmounting":11421,"cription":11422,"Ġburden":11423,"Ġignorant":11424,"ĠWealthy":11425,"ĠFarmers":11426,"Ġfelony":11427,"eminist":11428,"Ġcontentious":11429,"ĠClinics":11430,"Ġcasual":11431,"Ġvirtually":11432,"ĠTrafficking":11433,"htag":11434,"Louis":11435,"ĠPractice":11436,"Ġexercise":11437,"Ġpermanent":11438,"Retired":11439,"ĠAdvisory":11440,"Ġroughly":11441,"ĠTactics":11442,"Ġprecedent":11443,"Ġsurvive":11444,"Tweeters":11445,"Listen":11446,"ustainable":11447,"ĠAustralia":11448,"changes":11449,"works":11450,"Ġdedicated":11451,"ĠKaepernick":11452,"Ġplaintiffs":11453,"ĠEmbassy":11454,"Ġinvolvement":11455,"Ethics":11456,"ĠSolidarity":11457,"ĠHebdo":11458,")_":11459,"/Â¯":11460,"Aw":11461,"Brit":11462,"Cory":11463,"Cities":11464,"Day":11465,"Daily":11466,"DHS":11467,"Ec":11468,"Earlier":11469,"Energy":11470,"Far":11471,"Gold":11472,"HA":11473,"Id":11474,"Jason":11475,"Keep":11476,"LK":11477,"Liberal":11478,"Liber":11479,"ME":11480,"Mor":11481,"Made":11482,"Meg":11483,"Pr":11484,"Rad":11485,"Resp":11486,"Romney":11487,"Sil":11488,"Sessions":11489,"Tell":11490,"Treasury":11491,"View":11492,"Week":11493,"Whether":11494,"\\_":11495,"agh":11496,"aotic":11497,"chool":11498,"dad":11499,"eign":11500,"fast":11501,"front":11502,"gen":11503,"ha":11504,"hour":11505,"kins":11506,"mad":11507,"major":11508,"ni":11509,"nib":11510,"power":11511,"rite":11512,"rings":11513,"uating":11514,"would":11515,"xen":11516,"zing":11517,"¤Ķ":11518,"Ã±":11519,"Ġought":11520,"erately":11521,"reening":11522,"enar":11523,"orous":11524,"ita":11525,"ĠAle":11526,"ĠSant":11527,"ĠSally":11528,"ĠSong":11529,"ĠSources":11530,"ĠSoul":11531,"ĠSleep":11532,"ĠCumm":11533,"ĠCzar":11534,"aria":11535,"arians":11536,"Ġwages":11537,"Ġwounded":11538,"Ġsites":11539,"Ġcur":11540,"Ġcabinet":11541,"Ġcameras":11542,"Ġceremony":11543,"Ġprim":11544,"Ġpicks":11545,"Ġplea":11546,"Ġprisons":11547,"Ġfiscal":11548,"ĠPep":11549,"Ġoath":11550,"ĠDismant":11551,"ĠDylan":11552,"ĠOsc":11553,"ĠOmar":11554,"ĠRent":11555,"ĠRating":11556,"ĠWalter":11557,"ĠHond":11558,"ĠHenry":11559,"ĠBaker":11560,"ĠBaby":11561,"ĠFest":11562,"ĠFury":11563,"ĠMent":11564,"ĠMine":11565,"asse":11566,"oween":11567,"eling":11568,"ĠGab":11569,"ĠGina":11570,"ĠToomey":11571,"ĠToxic":11572,"ameless":11573,"ĠLink":11574,"ĠLoser":11575,"uted":11576,"utical":11577,"ads":11578,"Ġlobbying":11579,"Ġlabel":11580,"emeter":11581,"ndrome":11582,"ĠInmate":11583,"Ġgrant":11584,"Ġreelection":11585,"Ġreleasing":11586,"Ġforcing":11587,"ura":11588,"Ġeager":11589,"Ġearth":11590,"Ġstakes":11591,"Ġstruct":11592,"ĠJam":11593,"ĠJumps":11594,"cest":11595,"ĠSteel":11596,"ube":11597,"hop":11598,"riello":11599,"tsburgh":11600,"ĠVulnerable":11601,"ĠVolunt":11602,"ĠKid":11603,"Ġvital":11604,"osa":11605,"awed":11606,"Ġath":11607,"ĠYellen":11608,"ĠYORK":11609,"Ġride":11610,"Ġprojects":11611,"ĠClintons":11612,"ampions":11613,"overeign":11614,"ĠSenior":11615,"ĠAsh":11616,"owned":11617,"ĠShame":11618,"ĠSharp":11619,"Ġweed":11620,"Ġdoors":11621,"aceutical":11622,"ĠAlive":11623,"iann":11624,"ĠUnemployment":11625,"ĠSpin":11626,"ĠSpring":11627,"ĠPolicing":11628,"hinged":11629,"Ġunable":11630,"Ġunacceptable":11631,"Ġ2019":11632,"Ġclot":11633,"ĠSched":11634,"ĠScheme":11635,"ormous":11636,"encement":11637,"Ġreputation":11638,"eating":11639,"eather":11640,"olds":11641,"olded":11642,"Ġcontacts":11643,"ĠBlaming":11644,"active":11645,"ĠMarjorie":11646,"issue":11647,"ovation":11648,"Ġexpansion":11649,"Ġcampaigning":11650,"ĠUpset":11651,"Ġactivities":11652,"Ġdecline":11653,"Ġincompet":11654,"Ġenemy":11655,"iked":11656,"Ġmonument":11657,"Ġconservatism":11658,"ĠBanned":11659,"erties":11660,"Ġblog":11661,"Ġshel":11662,"eadows":11663,"Strong":11664,"egment":11665,"ĠAllen":11666,"ĠRefuge":11667,"inski":11668,"herent":11669,"ĠEndangered":11670,"ahren":11671,"ĠExpensive":11672,"Ġinterference":11673,"Ġinterpret":11674,"Ġpartial":11675,"ĠNoah":11676,"ĠReck":11677,"ĠDecided":11678,"Ġinsists":11679,"rapy":11680,"Ġadvanced":11681,"Ġmanaged":11682,"ĠComplex":11683,"Ġgunman":11684,"Ġintense":11685,"Ġ43":11686,"Ġ400":11687,"Ġassert":11688,"Ġrelative":11689,"Ġsurrounding":11690,"ĠCoff":11691,"uctant":11692,"ĠBarry":11693,"Ġtrain":11694,"ĠPerriello":11695,"Ġcriticizing":11696,"ĠConfirmed":11697,"ĠTragedy":11698,"Ġwinners":11699,"Ġemotional":11700,"Ġcolleague":11701,"Ġpropaganda":11702,"Ġserver":11703,"Ġcorrespond":11704,"ĠSomehow":11705,"risoned":11706,"Ġpromoted":11707,"ĠAfraid":11708,"irming":11709,"Ġentertain":11710,"ĠRoose":11711,"Ġsubpoena":11712,"Ġretail":11713,"Ġreturned":11714,"Ġdemograp":11715,"Ġobstruction":11716,"Ġ2003":11717,"Ġhearts":11718,"Ġdistance":11719,"Ġeligible":11720,"ĠPassing":11721,"Ġextended":11722,"Ġsworn":11723,"Ġaffordable":11724,"incing":11725,"ĠOpposed":11726,"Ġtested":11727,"Ġbusinessman":11728,"ĠRegister":11729,"Prof":11730,"Probably":11731,"ĠSweeping":11732,"Ġdenies":11733,"Ġ75":11734,"ĠNeither":11735,"ĠPromote":11736,"Ġannouncing":11737,"ĠGreatest":11738,"ĠDebbie":11739,"ĠJuan":11740,"Ġholds":11741,"ennifer":11742,"Ġstepped":11743,"ĠBusinesses":11744,"ĠBrooks":11745,"Ġprofit":11746,"Ġprofound":11747,"Ġprofits":11748,"ĠGarc":11749,"Ġdivisive":11750,"Ġemployee":11751,"aiwan":11752,"Ġneutrality":11753,"Disg":11754,"Ġpicking":11755,"ĠDeclare":11756,"ĠApprove":11757,"Everybody":11758,"ĠHonest":11759,"Ġspeaks":11760,"ĠServer":11761,"ĠKnown":11762,"Ġresponses":11763,"ĠChildhood":11764,"Ġcarbon":11765,"Ġfocusing":11766,"Ġmaintain":11767,"dogan":11768,"estroying":11769,"ĠRequire":11770,"Ġmidst":11771,"ĠLegislative":11772,"Ġgrounds":11773,"Ġliberals":11774,"Ġdamaging":11775,"Ġaccepted":11776,"Ġtroubled":11777,"ĠBaseball":11778,"Ġcomplaints":11779,"Ġdrinking":11780,"Ġrecognized":11781,"Ġsolar":11782,"ĠConviction":11783,"ĠArguments":11784,"Ġ1990":11785,"ĠNonpartisan":11786,"Ġhorror":11787,"ĠJoni":11788,"ĠEnglish":11789,"Ġbirthday":11790,"ĠDouglas":11791,"Ġappointed":11792,"ĠLauren":11793,"Ġrebuke":11794,"Ġescape":11795,"Ġcondemned":11796,"ĠAccusers":11797,"ĠAccusations":11798,"errymandered":11799,"NYC":11800,"itzer":11801,"Ġparticipate":11802,"Ġrequirements":11803,"ĠSalv":11804,"ĠPulling":11805,"ĠFewer":11806,"ĠExpectations":11807,"Tea":11808,"Ġethical":11809,"ĠCommunities":11810,"Ġexistence":11811,"Ġdreams":11812,"Ġdrawing":11813,"ĠTradition":11814,"ĠLargest":11815,"ĠProbes":11816,"Ġmeaningful":11817,"ĠAustin":11818,"Ġdiscriminatory":11819,"Ġstrengthen":11820,"Transgender":11821,"ĠNegotiations":11822,"Ġoverturn":11823,"ĠPrayers":11824,"ĠKatrina":11825,"ĠAppearance":11826,"Perhaps":11827,"ĠDropping":11828,"Ġdestructive":11829,"Ġdepartments":11830,"friendly":11831,"ĠDeportations":11832,"ĠInclude":11833,"Ġeliminate":11834,"ĠDesperate":11835,"Ġremarkable":11836,"Â¯\\_":11837,"Ġsurvivors":11838,"ĠInnocent":11839,"ĠRecognize":11840,"Ġsacrifice":11841,"Ġoutsider":11842,"Ġpatriotism":11843,"lephant":11844,"Stephen":11845,"Prosecutors":11846,"Dreamers":11847,"Ġcorner":11848,"Veterans":11849,"ĠReelection":11850,"Following":11851,"ĠNASA":11852,"Ġrapidly":11853,"government":11854,"ĠIntroduces":11855,"ĠMAGA":11856,")_/Â¯":11857,"enario":11858,"ĠCummings":11859,"Â¯\\_(":11860,"'?":11861,"300":11862,"Bre":11863,"CH":11864,"Count":11865,"DR":11866,"Dist":11867,"Debate":11868,"Dennis":11869,"Full":11870,"Jack":11871,"KE":11872,"Kn":11873,"Kerry":11874,"Morning":11875,"Moyers":11876,"Post":11877,"Pete":11878,"RI":11879,"SC":11880,"Sure":11881,"Seek":11882,"Saudi":11883,"Ten":11884,"Tur":11885,"ao":11886,"aver":11887,"cious":11888,"duce":11889,"eu":11890,"fere":11891,"gent":11892,"have":11893,"ien":11894,"iated":11895,"lip":11896,"losed":11897,"liament":11898,"mond":11899,"mosp":11900,"oe":11901,"oons":11902,"pat":11903,"rint":11904,"rilled":11905,"some":11906,"tru":11907,"tling":11908,"uk":11909,"ugh":11910,"uations":11911,"ãĥ":11912,"Ġurgent":11913,"Ġxen":11914,"Ġtech":11915,"Ġtale":11916,"Ġtonight":11917,"health":11918,"erious":11919,"reland":11920,"atican":11921,"ĠTy":11922,"ĠToug":11923,"ĠTrey":11924,"ĠTaiwan":11925,"orrect":11926,"aling":11927,"Ġast":11928,"ĠAble":11929,"ĠAcknow":11930,"ĠAaron":11931,"ĠAvoids":11932,"ede":11933,"ĠSom":11934,"ĠSound":11935,"ĠSeveral":11936,"ĠSource":11937,"ĠCook":11938,"ĠCiting":11939,"ĠCertain":11940,"ĠCites":11941,"icated":11942,"icits":11943,"Ġwide":11944,"Ġcold":11945,"Ġcurb":11946,"Ġcalm":11947,"Ġplease":11948,"Ġpool":11949,"Ġfinger":11950,"Ġfrank":11951,"Ġfifth":11952,"Ġfrequ":11953,"ilot":11954,"ĠPund":11955,"ĠProt":11956,"ĠPret":11957,"ĠPuz":11958,"ĠDEA":11959,"ĠDrive":11960,"rud":11961,"Ġbrutal":11962,"Ġtoss":11963,"ĠRare":11964,"ĠRoman":11965,"ĠRages":11966,"ĠRidiculous":11967,"ĠWear":11968,"ĠWaters":11969,"ĠHike":11970,"ĠHij":11971,"ĠHHS":11972,"ĠBal":11973,"ĠBee":11974,"ĠBott":11975,"ĠBrew":11976,"ĠBrus":11977,"ĠFill":11978,"ĠFreak":11979,"ĠFellow":11980,"ĠFracking":11981,"ĠMO":11982,"ĠMic":11983,"ĠMel":11984,"ĠMeadows":11985,"asey":11986,"Ġhyp":11987,"Ġdism":11988,"Ġdollar":11989,"Ġdignity":11990,"Ġmiles":11991,"Ġmobil":11992,"Ġmixed":11993,"Ġinitiatives":11994,"acey":11995,"olish":11996,"ĠNorm":11997,"ĠNelson":11998,"ĠNBA":11999,"ateg":12000,"ĠLiz":12001,"Ġloser":12002,"Ġliar":12003,"Ġleng":12004,"emed":12005,"roken":12006,"Ġgar":12007,"Ġgold":12008,"Ġreaching":12009,"Ġrevelations":12010,"Ġrelevant":12011,"Ġisol":12012,"istics":12013,"âĢĻ:":12014,"Ġstunning":12015,"Ġbeating":12016,"ĠJen":12017,"ceeds":12018,"ĠSteal":12019,"ĠStops":12020,"ĠStrip":12021,"ulus":12022,"rapping":12023,"rained":12024,"ĠVow":12025,"ĠVirgin":12026,"ĠViral":12027,"Ġconven":12028,"Ġconstruction":12029,"ĠKicked":12030,"think":12031,"thirds":12032,"endez":12033,"ivest":12034,"abil":12035,"aways":12036,"Ġleth":12037,"ĠYouth":12038,"Ġridiculous":12039,"Ġshake":12040,"aga":12041,"agg":12042,"Ġchap":12043,"Ġchamber":12044,"Ġexists":12045,"Ġexisting":12046,"ebert":12047,"ĠShrug":12048,"ĠShuts":12049,"ĠShadow":12050,"ĠReverse":12051,"Ġalert":12052,"Ġspirit":12053,"ĠUnfair":12054,"rish":12055,"Ġuniversity":12056,"Ġuninsured":12057,"Ġunexpected":12058,"Ġclar":12059,"Ġclash":12060,"ĠScrutiny":12061,"Ġuphold":12062,"ĠBlast":12063,"ĠWarned":12064,"Ġresolution":12065,"ĠOffshore":12066,"ĠBillMoyers":12067,"rency":12068,"ĠWilling":12069,"Ġexpl":12070,"ĠFlight":12071,"Ġrum":12072,"Ġrush":12073,"Ġscene":12074,"Ġreck":12075,"ĠCarbon":12076,"Ġcounting":12077,"ikh":12078,"iban":12079,"Ġconsist":12080,"Ġtheme":12081,"ĠMcAuliffe":12082,"Ġcommittees":12083,"ĠDept":12084,"ĠDepart":12085,"ancer":12086,"Ġdonated":12087,"velt":12088,"ĠArch":12089,"ĠBackfires":12090,"ĠQAnon":12091,"Ġarch":12092,"Stand":12093,"eglect":12094,"Ġpermission":12095,"ĠRefer":12096,"ĠImmedi":12097,"ĠAbsolutely":12098,"ĠAbandon":12099,"ossier":12100,"Ġambitious":12101,"ĠExport":12102,"ĠExposes":12103,"Ġremind":12104,"Ġremained":12105,"Ġintervention":12106,"ĠTaxpayers":12107,"ĠQuarant":12108,"ĠYorkers":12109,"ĠRecru":12110,"Ann":12111,"ronts":12112,"Ġindicted":12113,"Ġindictment":12114,"Ġindustries":12115,"ĠCollect":12116,"ĠCompet":12117,"ĠCompletely":12118,"ĠWorked":12119,"ĠBoebert":12120,"Ġintolerance":12121,"Ġ41":12122,"Ġ42":12123,"ĠCommerce":12124,"ethane":12125,"ĠIndictment":12126,"ĠBecoming":12127,"Ġregister":12128,"ĠCoop":12129,"Ġpresence":12130,"shot":12131,"Ġinvestigators":12132,"Ġadding":12133,"ĠSurrogate":12134,"Ġrefuses":12135,"riculture":12136,"Ġbanned":12137,"Ġfunded":12138,"ĠSigned":12139,"Ġ99":12140,"Ġlegislatures":12141,"ĠCorrect":12142,"ĠCorporations":12143,"Ġconcept":12144,"Ġconclusion":12145,"Ġseemingly":12146,"Ġconfidence":12147,"Ġguess":12148,"irmative":12149,"ĠParliament":12150,"Ġentry":12151,"regard":12152,"Existing":12153,"askill":12154,"ĠDenier":12155,"ĠDeniers":12156,"ĠISIL":12157,"ĠChiefs":12158,"Ġheadline":12159,"March":12160,"ĠIncumbent":12161,"ĠTrudeau":12162,"ĠReligion":12163,"Ġalleges":12164,"Ġlegalize":12165,"ynical":12166,"Ġaffair":12167,"Ġboasted":12168,"ĠRegrets":12169,"ĠSlammed":12170,"ĠCriticize":12171,"Ġ72":12172,"ĠWalkout":12173,"Union":12174,"ĠCenters":12175,"ĠPollsters":12176,"Lawmaker":12177,"Ġcivilian":12178,"claim":12179,"phone":12180,"Ġembraced":12181,"Ġpersonnel":12182,"ĠBelt":12183,"Ġbillionaires":12184,"Ġwriter":12185,"Ġauthoritarian":12186,"ĠOpenly":12187,"Ġpollsters":12188,"ragile":12189,"Ġexcuse":12190,"William":12191,"Ġdiscussions":12192,"Ġpicked":12193,".'\"":12194,"ĠExtend":12195,"ĠDeclines":12196,"Ġsuppression":12197,"Ġconvinced":12198,"ĠPlayers":12199,"Ġlooming":12200,"Ġbreaks":12201,"ĠDaniel":12202,"ĠBombshell":12203,"ĠFalling":12204,"ĠFallout":12205,"OTU":12206,"Ġsuspects":12207,"Ġmaint":12208,"ĠGenocide":12209,"ĠSkip":12210,"Ġapology":12211,"Ġextremist":12212,"Ġextremely":12213,"Ġtraditional":12214,"Ġalongside":12215,"Ġoccasion":12216,"ĠModern":12217,"ĠModerate":12218,"ĠFlags":12219,"ĠDefeated":12220,"Ġfalling":12221,"arrassment":12222,"ĠBernstein":12223,"ĠErdogan":12224,"Second":12225,"Ġfalsehoods":12226,"ĠEngagement":12227,"EAL":12228,"ĠSurprising":12229,"ĠBringing":12230,"ĠPredicts":12231,"Ġaudio":12232,"Ġcommentator":12233,"ĠEntry":12234,"Ġadvocacy":12235,"ĠMorgan":12236,"Ġmotion":12237,"Ġlaunch":12238,"Ġcouples":12239,"ĠStatus":12240,"Ġvisited":12241,"Ġexecuted":12242,"ette":12243,"ĠAccountability":12244,"Ġmagn":12245,"ĠDifference":12246,"ĠAntonio":12247,"Ġpoised":12248,"ĠBurr":12249,"ĠCouples":12250,"ĠForever":12251,"ĠMeasures":12252,"ĠWrite":12253,"Really":12254,"ĠIII":12255,"ĠTransparency":12256,"Ġtype":12257,"ĠWithdraws":12258,"Ġphysical":12259,"Ġtenure":12260,"ĠAtlantic":12261,"ĠResponsible":12262,"ĠResponsibility":12263,"Better":12264,"Leading":12265,"Ġoverwhelmingly":12266,"ĠSurvive":12267,"Ġdriven":12268,"Ġforgotten":12269,"ĠAbsurd":12270,"ĠDocumentary":12271,"Confederate":12272,"Ġimproving":12273,"authorized":12274,"Ġsevere":12275,"Ġquietly":12276,"Ġprayers":12277,"Debbie":12278,"ĠMystery":12279,"ĠUnveils":12280,"Ġuniversal":12281,"Ġguarantee":12282,"Ġregardless":12283,"ĠBruce":12284,"ĠStrategist":12285,"Ġreplaced":12286,"ĠIrma":12287,"ðŁĶ¥ðŁĶ¥":12288,"Family":12289,"ĠSpokesman":12290,"Palestin":12291,"Ġconventional":12292,"ĠInstagram":12293,"ĠNeighbor":12294,"Ġpleaded":12295,"Ġcooperation":12296,"revor":12297,"ĠRifle":12298,"Ġethnic":12299,"irstrikes":12300,"henomenon":12301,"nibus":12302,"ĠRoosevelt":12303,"lipse":12304,"ãĥĦ":12305,"ĠPuzder":12306,"250":12307,"600":12308,"Author":12309,"Bobby":12310,"Call":12311,"City":12312,"Come":12313,"Criminal":12314,"Del":12315,"Drug":12316,"Dakota":12317,"Devin":12318,"Dianne":12319,"Fear":12320,"Greg":12321,"HCA":12322,"Hamilton":12323,"IF":12324,"Jill":12325,"Kevin":12326,"Larry":12327,"Next":12328,"Nuclear":12329,"Ouch":12330,"Sens":12331,"Ukra":12332,"Vt":12333,"Vice":12334,"Walk":12335,"ca":12336,"cient":12337,"dated":12338,"hol":12339,"hicle":12340,"haust":12341,"iou":12342,"ios":12343,"iased":12344,"lass":12345,"oop":12346,"part":12347,"person":12348,"rors":12349,"uros":12350,"week":12351,"Ġ@":12352,"Ġurban":12353,"inn":12354,"inth":12355,"Ġtro":12356,"Ġtort":12357,"Ġtremendous":12358,"onies":12359,"ateral":12360,"ĠTemporarily":12361,"itan":12362,"itens":12363,"ĠAIDS":12364,"edy":12365,"ĠSort":12366,"ĠSix":12367,"ĠSale":12368,"ĠSitting":12369,"ĠSabotage":12370,"ĠSEAL":12371,"ĠCaut":12372,"ĠCameras":12373,"ĠCeiling":12374,"arro":12375,"array":12376,"Ġwalking":12377,"Ġsun":12378,"Ġsnow":12379,"Ġsets":12380,"Ġsounded":12381,"Ġsuicide":12382,"Ġcrus":12383,"Ġped":12384,"Ġpair":12385,"Ġparent":12386,"Ġfees":12387,"Ġfirms":12388,"Ġfulf":12389,"Ġfavors":12390,"ĠPin":12391,"ĠPrem":12392,"ĠPitch":12393,"ĠPhoenix":12394,"ĠDC":12395,"ĠDow":12396,"ĠDate":12397,"ĠDana":12398,"ĠDiversity":12399,"ĠDNA":12400,"Ġble":12401,"ĠRout":12402,"ĠRip":12403,"entless":12404,"ĠWalks":12405,"ĠWishes":12406,"ĠWedding":12407,"ĠHy":12408,"ĠHart":12409,"ĠHiring":12410,"lements":12411,"ĠBunch":12412,"ĠFence":12413,"ĠFallen":12414,"ĠFier":12415,"ĠFried":12416,"ĠFatal":12417,"ĠMand":12418,"ĠMast":12419,"ĠMinds":12420,"ĠMerc":12421,"ĠMigrant":12422,"ĠMLK":12423,"Ġham":12424,"Ġhundred":12425,"Ġhacking":12426,"otom":12427,"Ġdial":12428,"Ġdumb":12429,"Ġdyn":12430,"Ġdishonest":12431,"Ġmic":12432,"Ġmour":12433,"Ġinability":12434,"Ġinaccurate":12435,"ayed":12436,"igen":12437,"eler":12438,"ĠGaff":12439,"ĠGitmo":12440,"ĠNick":12441,"ĠNears":12442,"ĠNegative":12443,"imates":12444,"ĠTheories":12445,"ĠLab":12446,"ĠLind":12447,"ĠLabel":12448,"ĠLahren":12449,"Ġli":12450,"Ġlots":12451,"Ġlift":12452,"ĠEduc":12453,"ĠErupts":12454,"roved":12455,"Ġreference":12456,"urately":12457,"Ġeast":12458,"ocuses":12459,"isters":12460,"ĠUt":12461,"Ġheight":12462,"Ġstaun":12463,"Ġbear":12464,"cean":12465,"ĠStreng":12466,"union":12467,"rait":12468,"ĠVatican":12469,"ested":12470,"ĠCong":12471,"ĠKris":12472,"ustrial":12473,"eele":12474,"ups":12475,"Ġaspects":12476,"ighted":12477,"Ġring":12478,"Ġrational":12479,"Ġshocked":12480,"Ġshield":12481,"Ġsharing":12482,"Ġjoked":12483,"Ġpolicing":12484,"amples":12485,"agging":12486,"existing":12487,"ĠAsia":12488,"ĠShocking":12489,"ĠWhistleblower":12490,"gaining":12491,"aphor":12492,"Ġadvers":12493,"ĠItaly":12494,"ereotyp":12495,"ĠUncle":12496,"ĠUniverse":12497,"ĠSparks":12498,"ĠSpeeches":12499,"Ġuniverse":12500,"ickets":12501,"Ġalliance":12502,"Ġclimb":12503,"ĠNote":12504,"retch":12505,"Ġjustify":12506,"ĠButton":12507,"Ġresolve":12508,"onsored":12509,"ĠMarsh":12510,"Ġstatewide":12511,"mination":12512,"minute":12513,"ĠJustin":12514,"Ġattitudes":12515,"ĠDoors":12516,"Ġcampaigned":12517,"ĠUpcoming":12518,"Ġdecency":12519,"Ġscheme":12520,"Ġrecipients":12521,"ĠEmmanuel":12522,"Ġquo":12523,"Ġquote":12524,"Ġcomputer":12525,"Ġcomprehensive":12526,"ibi":12527,"Ġmonuments":12528,"ĠNewsom":12529,"Ġconsumer":12530,"ĠDeferred":12531,"ĠCommit":12532,"ĠCommitted":12533,"Ġhelps":12534,"ĠQaeda":12535,"Ġundo":12536,"ĠMonument":12537,"ĠContempt":12538,"ĠRefusal":12539,"insky":12540,"Ġwarrant":12541,"ĠImage":12542,"Ġnominated":12543,"ĠAbroad":12544,"Ġeveryday":12545,"attack":12546,"ĠExpanding":12547,"eaks":12548,"ĠAccord":12549,"ĠAccomp":12550,"Children":12551,"Ġsea":12552,"roportion":12553,"Ġunderway":12554,"ĠPolitico":12555,"ĠPolitically":12556,"Ass":12557,"alifornians":12558,"ĠIntern":12559,"ĠBrand":12560,"Ġmedic":12561,"ĠColumn":12562,"laine":12563,"Ġmanage":12564,"ĠWorkplace":12565,"eaning":12566,"ĠUndo":12567,"ĠUndecided":12568,"century":12569,"Ġ46":12570,"Ġassume":12571,"lude":12572,"Ġrain":12573,"ashion":12574,"Ġ1914":12575,"ĠPeriod":12576,"Ġpresented":12577,"ĠAssange":12578,"ĠFaced":12579,"ologies":12580,"ĠInsurrection":12581,"Ġrefugee":12582,"ĠTribe":12583,"ijah":12584,"ĠSigning":12585,"ĠRemark":12586,"ĠRemoves":12587,"ĠLetting":12588,"Ġeconomics":12589,"Ġchemical":12590,"aunts":12591,"ĠRuled":12592,"Ġreturning":12593,"Ġhardly":12594,"Ġpercentage":12595,"Scalia":12596,"Ġgreatly":12597,"ĠShowed":12598,"ĠPrevention":12599,"Ġpressing":12600,"Ġcool":12601,"ĠKillings":12602,"ĠProtected":12603,"Ġextend":12604,"Ġextension":12605,"poration":12606,"Ġalleging":12607,"Ġtransl":12608,"Ġsweet":12609,"ĠProperty":12610,"ynn":12611,"placed":12612,"Ġapprove":12613,"Shame":12614,"ĠJefferson":12615,"ĠPatients":12616,"Ġgrassroots":12617,"Ġvehicle":12618,"Ġconsideration":12619,"lication":12620,"ueless":12621,"Ġcentrist":12622,"Ġfactors":12623,"Ġhosted":12624,"urbin":12625,"ĠPrince":12626,"Ġstepping":12627,"Ġhandling":12628,"Ġhandful":12629,"Ġemployers":12630,"Ġvalid":12631,"Ġrecorded":12632,"ĠFargo":12633,"Benghazi":12634,"ĠBreyer":12635,"ĠAirlines":12636,"Ġneuros":12637,"Ġhonoring":12638,"Ġsupply":12639,"Imagine":12640,"ĠSexually":12641,"ĠInvite":12642,"Ġsooner":12643,"ĠMatthew":12644,"Ġsurprisingly":12645,"Ġrepealing":12646,"Ġsuspected":12647,"Ġelsewhere":12648,"Ġpredecess":12649,"Ġlearning":12650,"ezuel":12651,"Ġexpectations":12652,"Ġcounselor":12653,"ĠSentencing":12654,"Ġpreventing":12655,"Ġarrests":12656,"ĠPortman":12657,"Ġshooter":12658,"Ġwealthiest":12659,"Ġadmits":12660,"ĠViolate":12661,"Ġencounter":12662,"ĠHalls":12663,"ĠIgnor":12664,"Ġdisproportion":12665,"Ġinjury":12666,"Ġdemonstrated":12667,"Ġsuffer":12668,"Secretary":12669,"ĠInterested":12670,"Ġdetermined":12671,"Ġhorrible":12672,"ĠEngine":12673,"Ġpanic":12674,"Ġbombing":12675,"Ġoperatives":12676,"oulter":12677,"ĠHunting":12678,"Ġappointment":12679,"ĠComplaints":12680,"leashed":12681,"Ġillust":12682,"ĠGlass":12683,"Governor":12684,"Undocumented":12685,"Ġdespair":12686,"Ġzero":12687,"ĠLiberals":12688,"Ġheroin":12689,"ĠRepresentative":12690,"Ġexecution":12691,"Phot":12692,"Ġdropping":12693,"Ġdramatically":12694,"Ġstrategic":12695,"ĠIdaho":12696,"ascism":12697,"ĠSolitary":12698,"Ġparticipation":12699,"Ġcausing":12700,"Ġerup":12701,"Ġorganizers":12702,"Related":12703,"hicles":12704,"Ġdocumentary":12705,"ĠBerlin":12706,"Going":12707,"Ġwarnings":12708,"hibit":12709,"ĠLibrary":12710,"ĠAssociated":12711,"Legisl":12712,"ĠRodham":12713,"Christie":12714,"Ġ1980":12715,"Corporations":12716,"Ġimmediate":12717,"Ġhistorically":12718,"ĠVoices":12719,"Leaked":12720,"Working":12721,"worthy":12722,"almart":12723,"Ġspotlight":12724,"ĠProbing":12725,"Israeli":12726,"Ġslowly":12727,"Coal":12728,"Ġinformant":12729,"ĠMilwaukee":12730,"ĠCustody":12731,"ĠCustoms":12732,"ĠFelony":12733,"Ġdestroyed":12734,"ĠVacancy":12735,"ĠConditions":12736,"ĠClinic":12737,"ertificates":12738,"Ġoccupation":12739,"Ġdevastating":12740,"onciliation":12741,"Ġlikel":12742,"Ġmanufacturing":12743,"Ġexperienced":12744,"Ġloyalty":12745,"Ġskeptical":12746,"Ġscientific":12747,"Ġinsulted":12748,"Ġsharply":12749,"Ġtiming":12750,"ĠTaliban":12751,"ĠUncertain":12752,"Media":12753,"ĠDriver":12754,"ĠKirsten":12755,"lemency":12756,"ĠQualified":12757,"Medicare":12758,"ĠiPh":12759,"Ġcaution":12760,"Ġcatastrophe":12761,"ĠJesus":12762,"ĠScientist":12763,"antha":12764,"Ġphilos":12765,"Ġbankruptcy":12766,"ĠQuickly":12767,"Ġsacred":12768,"Ġestablished":12769,"responsible":12770,"Latino":12771,"Louisiana":12772,"aghdad":12773,"emetery":12774,"Ġlethal":12775,"\"?":12776,"Aut":12777,"BS":12778,"Ban":12779,"Bipartisan":12780,"Cho":12781,"Desp":12782,"Dangerous":12783,"Ev":12784,"Early":12785,"Flynn":12786,"Funded":12787,"Gr":12788,"Hate":12789,"Hold":12790,"Ign":12791,"Jos":12792,"Kasich":12793,"LE":12794,"La":12795,"Mary":12796,"ND":12797,"OK":12798,"PS":12799,"Past":12800,"Park":12801,"Rog":12802,"Self":12803,"Seven":12804,"TS":12805,"UM":12806,"VA":12807,"__":12808,"bac":12809,"bec":12810,"cot":12811,"comp":12812,"cely":12813,"fell":12814,"fired":12815,"feld":12816,"great":12817,"high":12818,"iec":12819,"ivery":12820,"jen":12821,"lim":12822,"mod":12823,"mother":12824,"mongering":12825,"oqu":12826,"pass":12827,"political":12828,"sm":12829,"that":12830,"uh":12831,"voy":12832,"wealth":12833,"à¦":12834,"ĠĠ":12835,"Ġerr":12836,"ĠÂł":12837,"Ġtou":12838,"Ġtar":12839,"Ġtur":12840,"Ġtape":12841,"Ġtackle":12842,"Ġtouted":12843,"Ġtemper":12844,"onia":12845,"oney":12846,"aning":12847,"anity":12848,"anish":12849,"anied":12850,"anking":12851,"ĠTable":12852,"ĠTrop":12853,"ĠTrap":12854,"ena":12855,"orus":12856,"orough":12857,"ingers":12858,"ito":12859,"itize":12860,"ĠAth":12861,"ĠSize":12862,"ĠSucceed":12863,"ĠSOTU":12864,"isely":12865,"isible":12866,"ĠCult":12867,"ĠCards":12868,"ĠCurb":12869,"ĠCemetery":12870,"esome":12871,"icles":12872,"Ġwel":12873,"Ġwaging":12874,"Ġwounds":12875,"Ġwaste":12876,"Ġsaf":12877,"Ġsaving":12878,"Ġsky":12879,"Ġsovereign":12880,"Ġcle":12881,"Ġcul":12882,"Ġcriminals":12883,"Ġfell":12884,"Ġfeds":12885,"ĠIce":12886,"ĠPear":12887,"ĠPap":12888,"ĠPowers":12889,"ĠPOTUS":12890,"ĠPurge":12891,"ĠPardons":12892,"ĠDiff":12893,"ĠDilemma":12894,"ĠDarren":12895,"ĠDurbin":12896,"Ġbot":12897,"Ġbond":12898,"Ġbump":12899,"Ġbright":12900,"ĠOvers":12901,"ĠOdds":12902,"ĠRigged":12903,"ĠRalph":12904,"ĠWing":12905,"ĠWearing":12906,"ĠHat":12907,"ĠHour":12908,"ĠHates":12909,"ĠHails":12910,"ĠHeller":12911,"ĠHobby":12912,"ĠHomes":12913,"leen":12914,"ĠBrat":12915,"ĠBold":12916,"ĠBarely":12917,"ĠFet":12918,"ĠFees":12919,"ĠFinger":12920,"Ġho":12921,"Ġhal":12922,"Ġhair":12923,"Ġhint":12924,"Ġhiding":12925,"Ġhaunt":12926,"Ġhabit":12927,"Ġdrast":12928,"Ġmil":12929,"Ġmouth":12930,"Ġmaster":12931,"Ġmasks":12932,"Ġinquiry":12933,"ayor":12934,"acob":12935,"igation":12936,"igare":12937,"Ġthin":12938,"Ġthousand":12939,"eted":12940,"ettlement":12941,"ĠGig":12942,"ĠGall":12943,"ĠGreek":12944,"ĠGavin":12945,"illa":12946,"ĠNig":12947,"ĠNonsense":12948,"ima":12949,"ĠLame":12950,"adv":12951,"Ġlongest":12952,"ĠErupt":12953,"Ġrewr":12954,"Ġforum":12955,"irs":12956,"Ġeat":12957,"Ġelev":12958,"ocative":12959,"ocah":12960,"ĠUlt":12961,"terror":12962,"Ġstamp":12963,"Ġstops":12964,"Ġstrange":12965,"Ġstricter":12966,"Ġstereotyp":12967,"Ġbeautiful":12968,"ĠJailed":12969,"ĠStalls":12970,"ulogy":12971,"unked":12972,"unction":12973,"ripp":12974,"riots":12975,"rieve":12976,"ribery":12977,"ĠVol":12978,"ĠVision":12979,"ĠVets":12980,"ainted":12981,"ests":12982,"ĠConc":12983,"ĠConstituents":12984,"Ġconnected":12985,"chief":12986,"essica":12987,"Ġvia":12988,"Ġvigil":12989,"osta":12990,"ostal":12991,"Ġaspir":12992,"ĠChances":12993,"ĠChamber":12994,"ude":12995,"keep":12996,"ĠYiann":12997,"izza":12998,"Ġproduce":12999,"Ġjihad":13000,"assination":13001,"ques":13002,"uma":13003,"umin":13004,"ucc":13005,"ĠSha":13006,"ĠShred":13007,"ipes":13008,"apeg":13009,"Ġalter":13010,"aval":13011,"avored":13012,"Ġadvertising":13013,"ĠAlarm":13014,"ĠAnx":13015,"ĠUnf":13016,"ĠUnarmed":13017,"ĠUnfortunately":13018,"ĠSpying":13019,"Ġoutlets":13020,"ĠArea":13021,"Ġwhistleblower":13022,"Ġclients":13023,"together":13024,"ĠScam":13025,"Ġuphill":13026,"venile":13027,"rang":13028,"ĠCongressmen":13029,"Ġcontained":13030,"Ġcontrolled":13031,"ĠBlake":13032,"Insp":13033,"Ġexplos":13034,"Ġaccuse":13035,"Ġaccusing":13036,"ĠUpholds":13037,"ĠFloy":13038,"Ġrulings":13039,"Ġdece":13040,"Ġdecisive":13041,"Ġscram":13042,"Ġtweeting":13043,"Ġgoverning":13044,"Ġrecover":13045,"Ġrecount":13046,"Ġincredible":13047,"ĠStatements":13048,"Ġmeg":13049,"ugs":13050,"ĠActs":13051,"otta":13052,"Ġconservation":13053,"ĠDeported":13054,"Ġdonation":13055,"ĠArriv":13056,"ĠDefender":13057,"Ġblaming":13058,"ĠBacked":13059,"ĠCommencement":13060,"Ġarrog":13061,"version":13062,"ĠAllows":13063,"Ġnominating":13064,"ĠAbility":13065,"ĠAbusers":13066,"Ġamounts":13067,"ĠPlaces":13068,"ĠExplos":13069,"Ġoperate":13070,"ĠAccounts":13071,"ĠAccidentally":13072,"Change":13073,"rams":13074,"espie":13075,"Ġseize":13076,"Ġdefined":13077,"Ġunderc":13078,"ĠBigotry":13079,"athleen":13080,"ĠManagement":13081,"ĠManufact":13082,"ĠApprentice":13083,"ounces":13084,"ĠIntervention":13085,"Ġindef":13086,"ĠConsumers":13087,"Ġ34":13088,"ÂłÂł":13089,"ĠBoasts":13090,"ometown":13091,"ĠTele":13092,"Ġgoodbye":13093,"Ġsigning":13094,"Ġsignals":13095,"ĠIndividual":13096,"Ġassess":13097,"Ġassured":13098,"ĠSheldon":13099,"ĠCohn":13100,"Ġ1915":13101,"ĠWinter":13102,"ĠConfinement":13103,"Ġwinter":13104,"Ġaddition":13105,"Ġrefusal":13106,"ullies":13107,"ĠSyndrome":13108,"ĠRemind":13109,"ĠRemoval":13110,"ĠCorps":13111,"ĠMcCaskill":13112,"Sheldon":13113,"Ġconfusion":13114,"Ġthreaten":13115,"ĠDemonst":13116,"Ġcheer":13117,"ĠInvestigations":13118,"Exclusive":13119,"annels":13120,"ĠIntimid":13121,"Ġteens":13122,"ĠRetweet":13123,"Ġsettlement":13124,"Ġobtain":13125,"Ġmining":13126,"Ġminister":13127,"Ġ2004":13128,"ĠDennis":13129,"ĠPrefer":13130,"forced":13131,"Ġdeleg":13132,"Ġelder":13133,"Ġprotester":13134,"Ġslavery":13135,"ĠThinking":13136,"Ġtransform":13137,"Ġswift":13138,"Ġaffects":13139,"Ġboasts":13140,"ĠRegime":13141,"ĠRegret":13142,"ĠSworn":13143,"ĠSweet":13144,"ontas":13145,"ruptly":13146,"ĠSocialist":13147,"ĠAdds":13148,"Ġfindings":13149,"specially":13150,"ĠTravelers":13151,"ĠDistricts":13152,"ĠChallenging":13153,"urbed":13154,"aughed":13155,"kipping":13156,"ĠLooming":13157,"Ġfeelings":13158,"Ġsentenced":13159,"Ġsentencing":13160,"Ġsentiment":13161,"ĠEdwards":13162,"Ġmoder":13163,"ĠSeeing":13164,"runk":13165,"Ġdeclaration":13166,"Ġbaseless":13167,"Ġbaseball":13168,"Ġrepresenting":13169,"Ġdirected":13170,"Ġhonored":13171,"ĠWatching":13172,"Ġunfortun":13173,"ĠLewinsky":13174,"ĠShoots":13175,"Ġinterviewed":13176,"ĠSubsid":13177,"ĠSubpoenas":13178,"Ġloan":13179,"ĠBillionaires":13180,"Ġfailures":13181,"rolling":13182,"Ġlowest":13183,"ĠDivorce":13184,"Ġprosecution":13185,"ĠAddresses":13186,"ĠSuspected":13187,"ĠSuspended":13188,"Ġproviders":13189,"Art":13190,"itique":13191,"Ġrevive":13192,"iarism":13193,"Ġextremists":13194,"Among":13195,"ternatives":13196,"ropriately":13197,"ĠAwful":13198,"Voter":13199,"Ġjournalism":13200,"Ġacceptable":13201,"ĠHalloween":13202,"lementary":13203,"Ġdispute":13204,"Ġdemonstrate":13205,"TomDispatch":13206,"Ġfairly":13207,"ĠNYT":13208,"Ġequival":13209,"Ġracially":13210,"Ġdevices":13211,"ĠLieu":13212,"ĠReading":13213,"ĠChristianity":13214,"render":13215,"ĠFinding":13216,"ĠCycle":13217,"Ġtowns":13218,"pective":13219,"Ġappointee":13220,"Ġfunny":13221,"Ġrolling":13222,"Mississippi":13223,"Ġillness":13224,"Ġforever":13225,"ĠBriefly":13226,"Ġdiplomats":13227,"Ġdesperately":13228,"Ġmotiv":13229,"Emails":13230,"winning":13231,"Ġmothers":13232,"Minnesota":13233,"Ġsanctuary":13234,"ĠMothers":13235,"Neither":13236,"ĠSolve":13237,"ĠSadly":13238,"Ġcauses":13239,"orrowers":13240,"Ġsoldier":13241,"Ġcollusion":13242,"Ġcondition":13243,"ĠStronger":13244,"Teachers":13245,"ĠFunny":13246,"Racism":13247,"Ġliberties":13248,"ĠShop":13249,"engers":13250,"Ġleaks":13251,"Ġ2022":13252,"Ġemerge":13253,"arcerated":13254,"ĠDogs":13255,"Ġpundit":13256,"ĠMistakes":13257,"Ġdominated":13258,"Remembering":13259,"Ġcontractors":13260,"Ġpredictable":13261,"Ġwitnesses":13262,"ĠInvestment":13263,"ĠWithdrawal":13264,"Ġapplaud":13265,"Ġabsurd":13266,"ĠCBS":13267,"ĠLosers":13268,"ĠAcqu":13269,"Mexican":13270,"Ġsector":13271,"ĠPrayer":13272,"Ġextraordinary":13273,"Majority":13274,"aliation":13275,"ĠGillespie":13276,"Ġoverwhelming":13277,"Ġutter":13278,"Ġdriver":13279,"Ġclinics":13280,"ĠSuffer":13281,"ĠWonder":13282,"ĠMusic":13283,"Ġneighborhoods":13284,"Ġcasino":13285,"ĠEscal":13286,"ĠTraffic":13287,"Ġexperiences":13288,"Ġessentially":13289,"Ġprocedural":13290,"ĠAdopt":13291,"Ġunwilling":13292,"ĠVersion":13293,"Ġtraffic":13294,"Alexandria":13295,"ĠTariffs":13296,"Ġhackers":13297,"ĠNorthern":13298,"Ġrevenue":13299,"ĠDetainees":13300,"nesty":13301,"ĠBonkers":13302,"qualified":13303,"asketball":13304,"Ã¡n":13305,"Ġousted":13306,"ĠProviders":13307,"icopter":13308,"ĠPodcast":13309,"Ġmusic":13310,"Ġconcluded":13311,"agogues":13312,"ĠPerformance":13313,"Cuba":13314,"secret":13315,"Ġpharmaceutical":13316,"majority":13317,"Ġconsistently":13318,"Walker":13319,"ioux":13320,"otomayor":13321,"Ġneurosurgeon":13322,"ezuela":13323,"Ġdisproportionately":13324,"igarett":13325,"ocahontas":13326,"apego":13327,"ĠFloyd":13328,"130":13329,"700":13330,"AD":13331,"Ag":13332,"Bel":13333,"Based":13334,"Business":13335,"Ballot":13336,"Brian":13337,"Cut":13338,"Coming":13339,"Cassidy":13340,"Democracy":13341,"Ever":13342,"FP":13343,"Feed":13344,"Fran":13345,"Friend":13346,"Female":13347,"FCC":13348,"Give":13349,"Gard":13350,"Group":13351,"Hur":13352,"Hope":13353,"Having":13354,"Houston":13355,"Ju":13356,"Led":13357,"Love":13358,"Lock":13359,"Mer":13360,"Mil":13361,"Mad":13362,"Move":13363,"Mother":13364,"Nebraska":13365,"PR":13366,"Pretty":13367,"Reb":13368,"Seat":13369,"Something":13370,"Southern":13371,"Term":13372,"Tillerson":13373,"Trevor":13374,"Violence":13375,"Vermont":13376,"Yeah":13377,"bear":13378,"cend":13379,"cuff":13380,"deep":13381,"hot":13382,"iros":13383,"ihood":13384,"iably":13385,"kind":13386,"nic":13387,"put":13388,"plan":13389,"rinking":13390,"sels":13391,"there":13392,"uable":13393,"inely":13394,"Ġtries":13395,"onz":13396,"erity":13397,"atisf":13398,"ĠTum":13399,"ĠTired":13400,"ĠTrend":13401,"ĠTaunts":13402,"enh":13403,"style":13404,"ingu":13405,"ĠAP":13406,"ĠABC":13407,"ĠAchieve":13408,"ĠAhmed":13409,"ĠSid":13410,"ĠSher":13411,"ĠSadd":13412,"ĠSioux":13413,"ĠSotomayor":13414,"isp":13415,"ĠCup":13416,"ĠCrow":13417,"ĠCurt":13418,"ĠCamer":13419,"ĠCoulter":13420,"aris":13421,"esides":13422,"Ġsoul":13423,"Ġcrew":13424,"Ġcars":13425,"Ġcounts":13426,"Ġcurt":13427,"Ġpod":13428,"Ġpause":13429,"Ġpope":13430,"Ġfed":13431,"ilateral":13432,"ĠIreland":13433,"ĠPR":13434,"ĠPubl":13435,"ĠPens":13436,"ĠPadd":13437,"Ġom":13438,"Ġowe":13439,"ĠDear":13440,"ĠDiagn":13441,"rub":13442,"idal":13443,"Ġbully":13444,"Ġbirther":13445,"Ġbrave":13446,"Ġbranch":13447,"Ġblank":13448,"ĠOz":13449,"Ġtoler":13450,"ĠRic":13451,"ĠRahm":13452,"ĠWal":13453,"ĠWoes":13454,"ĠWounded":13455,"ĠHew":13456,"ĠHorse":13457,"ĠHiding":13458,"ĠHamilton":13459,"ĠBuck":13460,"ĠBurn":13461,"ĠBias":13462,"ĠBrutality":13463,"ĠBhar":13464,"ĠBabies":13465,"ĠBogus":13466,"ĠFort":13467,"ĠFully":13468,"ĠFolks":13469,"ĠFarewell":13470,"ĠMob":13471,"ĠMocking":13472,"asp":13473,"asive":13474,"Ġdest":13475,"Ġmat":13476,"Ġmocked":13477,"Ġmuseum":13478,"Ġmandatory":13479,"Ġinvent":13480,"Ġinstruct":13481,"acles":13482,"veling":13483,"ighed":13484,"ĠGain":13485,"ĠGrid":13486,"ĠGMO":13487,"Ġnort":13488,"ĠNails":13489,"amir":13490,"imulus":13491,"ĠLi":13492,"ĠLanguage":13493,"utch":13494,"adows":13495,"Ġlib":13496,"Ġlining":13497,"Ġlicenses":13498,"ephy":13499,"ĠEns":13500,"ĠElaine":13501,"ĠIng":13502,"ĠInho":13503,"ĠInaugural":13504,"Ġgang":13505,"Ġreop":13506,"Ġreactions":13507,"Ġreduced":13508,"iration":13509,"seat":13510,"ortg":13511,"orting":13512,"ctional":13513,"ĠUC":13514,"Ġstable":13515,"Ġstudies":13516,"ĠJean":13517,"ĠJulian":13518,"ceived":13519,"ĠSting":13520,"ĠStuff":13521,"ĠSteele":13522,"unicip":13523,"ourney":13524,"ĠOnes":13525,"ĠVandal":13526,"ĠVirus":13527,"Ġang":13528,"ĠClash":13529,"ĠCloses":13530,"ĠKay":13531,"ĠKaren":13532,"Ġven":13533,"Ġvol":13534,"Ġvicious":13535,"third":13536,"endors":13537,"ivable":13538,"igns":13539,"Ġwithd":13540,"Trumpcare":13541,"ealed":13542,"oding":13543,"ĠThwart":13544,"Ġnotorious":13545,"Ġrolls":13546,"Ġproduced":13547,"Ġshares":13548,"Ġshaping":13549,"agen":13550,"assy":13551,"assing":13552,"quan":13553,"Ġchannel":13554,"Ġexceed":13555,"Ġexchanges":13556,"eoples":13557,"owns":13558,"ĠBeats":13559,"ĠShock":13560,"ĠShakes":13561,"ĠShared":13562,"ĠShots":13563,"Ġalarming":13564,"Ġspends":13565,"Ġadequ":13566,"ĠProduct":13567,"ĠAlan":13568,"ĠUnw":13569,"ĠUnite":13570,"ĠUninsured":13571,"ĠSpect":13572,"ĠSpoke":13573,"Ġunited":13574,"Ġunique":13575,"Ġuncomfortable":13576,"Ġoutlaw":13577,"Ġoutgoing":13578,"enship":13579,"ĠAdults":13580,"Ġclock":13581,"Ġclerk":13582,"ĠScor":13583,"Thomas":13584,"ittal":13585,"ĠExec":13586,"ranking":13587,"ĠOvertime":13588,"ĠOverdose":13589,"oga":13590,"Ġcontext":13591,"Ġcontribute":13592,"Ġcontempl":13593,"ĠBlasey":13594,"ĠWarming":13595,"ĠButler":13596,"ĠSecrets":13597,"Investig":13598,"minent":13599,"atorium":13600,"ĠWeiss":13601,"rene":13602,"Heart":13603,"Ġexpense":13604,"redict":13605,"Ġaccepting":13606,"ĠResort":13607,"ĠResist":13608,"Ġscale":13609,"Ġscript":13610,"Ġscreen":13611,"Ġrecreational":13612,"Ġenact":13613,"Ġenacted":13614,"oods":13615,"ĠActing":13616,"ĠActivism":13617,"venth":13618,"Ġimposed":13619,"Ġconscience":13620,"Ġcommem":13621,"ancies":13622,"ĠDefamation":13623,"Ġblat":13624,"Ġblocking":13625,"ĠCruel":13626,"Ġunders":13627,"ĠHealthcare":13628,"Stat":13629,"Standing":13630,"Study":13631,"Ġpermit":13632,"inson":13633,"Ġwarn":13634,"ĠImagine":13635,"Ġamazing":13636,"Ġremoving":13637,"Ġprevention":13638,"rugman":13639,"Ġdisregard":13640,"ĠRecall":13641,"ĠRecomm":13642,"ĠDecade":13643,"ĠWorries":13644,"Anton":13645,"Angry":13646,"ĠNationalists":13647,"onomic":13648,"Ġinsults":13649,"ĠEnvironment":13650,"ĠEnforce":13651,"raph":13652,"aze":13653,"ĠCandidacy":13654,"ĠBrady":13655,"Ġplane":13656,"Ġplants":13657,"Ġmanagement":13658,"ĠLegitimacy":13659,"ĠOprah":13660,"ĠDownplays":13661,"ĠBoast":13662,"Ġ48":13663,"Ġdiscred":13664,"ĠImper":13665,"Ġopposes":13666,"Ġassumed":13667,"Ġraid":13668,"ĠCool":13669,"ĠDisrupt":13670,"Ġfines":13671,"Ġfinish":13672,"ĠPerhaps":13673,"ĠConfidence":13674,"ĠInsider":13675,"ĠInsults":13676,"ĠTriumph":13677,"Ġfundamentally":13678,"ĠAdvisers":13679,"ĠSymp":13680,"Ġ52":13681,"Ġ500":13682,"Ġrealized":13683,"Ġflight":13684,"ĠZeal":13685,"Ġcomeback":13686,"ribal":13687,"ĠParad":13688,"Ġentitled":13689,"Ġcharity":13690,"Ġsystemic":13691,"Ġsuburb":13692,"ĠIntegrity":13693,"ĠMisses":13694,"Ġsetback":13695,"Ġhardest":13696,"lett":13697,"Ġminute":13698,"ĠDenied":13699,"ĠPrev":13700,"Ġcoordin":13701,"Ġdeemed":13702,"Ġextent":13703,"Also":13704,"ĠIncident":13705,"Ġrestaurant":13706,"ĠScholars":13707,"Ġallegation":13708,"Ġtransfer":13709,"ĠPresses":13710,"ypse":13711,"ĠProposals":13712,"Ġrequirement":13713,"Ġtestified":13714,"Ġeditor":13715,"Ġplayer":13716,"ĠSmoking":13717,"Ġdenounce":13718,"ĠSupercut":13719,"Ġfollowers":13720,"ĠBrownback":13721,"United":13722,"Ġsuggestion":13723,"ĠSea":13724,"ĠDelaware":13725,"ĠGreitens":13726,"Ġevident":13727,"Lawyers":13728,"Ġestablish":13729,"ĠMemory":13730,"ĠRestaurant":13731,"audis":13732,"Ġviewers":13733,"ielding":13734,"ĠStandoff":13735,"Ġhanded":13736,"Ġopenly":13737,"Ġmisinformation":13738,"goers":13739,"working":13740,"ĠRedistricting":13741,"Ġharassed":13742,"Ġdeclining":13743,"ðŁ¤Ķ":13744,"Ġrisen":13745,"ribution":13746,"ĠArabs":13747,"Speaking":13748,"neum":13749,"neapolis":13750,"ĠDeclared":13751,"ĠExplained":13752,"Ġeventually":13753,"ĠUkrainian":13754,"Ġinterviews":13755,"Ġconvincing":13756,"Ġrallying":13757,"ĠListening":13758,"ĠBombs":13759,"ĠSerge":13760,"Ġcarrying":13761,"ĠGener":13762,"Ġspecific":13763,"Ġspeculation":13764,"conf":13765,"Ġparalle":13766,"Ġdeveloped":13767,"Ġdoubled":13768,"ĠKhizr":13769,"ĠProfit":13770,"Ġsexism":13771,"ĠPrior":13772,"Ġcreation":13773,"Ġcreates":13774,"Enough":13775,"Ġengagement":13776,"ĠExcuse":13777,"ĠExcited":13778,"ĠCollusion":13779,"Ġdemonstrations":13780,"Ġempathy":13781,"profits":13782,"ĠResponders":13783,"solute":13784,"ielsen":13785,"Ġwondered":13786,"ĠConvince":13787,"ĠLashes":13788,"ĠLimb":13789,"ĠEpic":13790,"Ġinvestments":13791,"Ġcrowds":13792,"ĠPrediction":13793,"ĠPreparing":13794,"Ġfuneral":13795,"ĠLaura":13796,"ĠLaquan":13797,"ĠEnters":13798,"ĠOrganizing":13799,"Ġflags":13800,"Ġrolled":13801,"Ġdiplomacy":13802,"ĠVisa":13803,"ĠDeeper":13804,"ĠRebuke":13805,"Ġzones":13806,"Ġversus":13807,"kinny":13808,"ĠEmpower":13809,"NYT":13810,"Ġemerging":13811,"arrassed":13812,"Ġfriendly":13813,"ĠDodd":13814,"Ġspreading":13815,"Ġencourage":13816,"Ġcollapse":13817,"Team":13818,"Ġirony":13819,"Ġpainful":13820,"Ġlifetime":13821,"Ġconducted":13822,"Ġschedule":13823,"ĠSunni":13824,"Christian":13825,"ĠXi":13826,"UPDATED":13827,"NeverTrump":13828,"Ġperfectly":13829,"Ġdogs":13830,"Workers":13831,"Ġtypically":13832,"Ġcapacity":13833,"Ġacqu":13834,"Ġsatisf":13835,"Ġlandscape":13836,"Ġabsent":13837,"ĠCreates":13838,"ĠDiplomacy":13839,"ĠFootage":13840,"Ġdiscriminate":13841,"MeToo":13842,"aggering":13843,"Charlie":13844,"ĠBallots":13845,"ĠFlooding":13846,"ĠWiretap":13847,"ĠReversal":13848,"Ġhospitalized":13849,"ĠVacation":13850,"Ġclinic":13851,"Ġsensitive":13852,"ĠPositions":13853,"Ġrenewable":13854,"Open":13855,"ĠAutom":13856,"Ġaggressively":13857,"Ġowned":13858,"Ġassociated":13859,"Ġenthusiast":13860,"Ġuncertainty":13861,"iquely":13862,"Ġloyal":13863,"Ġproducts":13864,"Fighting":13865,"Journalist":13866,"Ġpivot":13867,"Ġdegree":13868,"Ġscientist":13869,"Ġpermanently":13870,"feit":13871,"Ġcrackdown":13872,"ĠInjured":13873,"Recent":13874,"ĠGrowth":13875,"Ġprobes":13876,"Ġtrafficking":13877,"ĠBlankenship":13878,"ĠNortheast":13879,"Ġpregnancy":13880,"ĠNavarro":13881,"ĠLamar":13882,"Ġsomewhat":13883,"ĠConcedes":13884,"ĠClarke":13885,"Ġlogic":13886,"ĠDisagree":13887,"Candidate":13888,"Ġslightly":13889,"Ġacknowledged":13890,"Ġframework":13891,"ĠGuarantee":13892,"Capitol":13893,"ĠAyotte":13894,"rafting":13895,"Ã±a":13896,"ĠSchedule":13897,"ĠGarcia":13898,"ĠSalvador":13899,"mosphere":13900,"claimed":13901,"Parkland":13902,"bacco":13903,"ĠYiannopoulos":13904,"Friendly":13905,"Seattle":13906,"ĠBharara":13907,"ephyr":13908,"ĠInhofe":13909,".:":13910,"150":13911,"24":13912,"80":13913,"84":13914,"?!":13915,"?)":13916,"?âĢĻ":13917,"Birther":13918,"Beyond":13919,"CI":13920,"Cent":13921,"Cops":13922,"Called":13923,"Cleveland":13924,"CDC":13925,"Cancer":13926,"Deep":13927,"Doct":13928,"Foreign":13929,"Growing":13930,"Hack":13931,"Human":13932,"Ir":13933,"Jake":13934,"Ken":13935,"Live":13936,"Liz":13937,"Looks":13938,"Mo":13939,"Michele":13940,"Native":13941,"Orange":13942,"Pres":13943,"Peter":13944,"Poor":13945,"Private":13946,"Pocahontas":13947,"Rest":13948,"Rather":13949,"Running":13950,"Trou":13951,"Tough":13952,"Taking":13953,"Torture":13954,"Trey":13955,"TPP":13956,"Tammy":13957,"Video":13958,"Word":13959,"Wait":13960,"Winning":13961,"aus":13962,"bal":13963,"bing":13964,"bar":13965,"bid":13966,"bel":13967,"dest":13968,"eached":13969,"fake":13970,"gs":13971,"game":13972,"hmer":13973,"hape":13974,"ioc":13975,"lus":13976,"laim":13977,"me":13978,"made":13979,"name":13980,"nold":13981,"rink":13982,"rics":13983,"saki":13984,"tw":13985,"tick":13986,"tles":13987,"uy":13988,"uition":13989,"wen":13990,"zed":13991,"ÃŃ":13992,"Ġ=":13993,"ĠâĢĻ":13994,"Ġice":13995,"Ġurg":13996,"Ġtal":13997,"Ġtack":13998,"Ġtrop":13999,"Ġterritory":14000,"eria":14001,"ato":14002,"ĠTack":14003,"ĠToll":14004,"ĠTucker":14005,"ĠTuls":14006,"alwell":14007,"Ġtheorist":14008,"Ġachie":14009,"itrust":14010,"educt":14011,"ĠSaw":14012,"ĠCave":14013,"ĠCart":14014,"ĠChat":14015,"ĠCos":14016,"ĠCamera":14017,"ĠCalifornians":14018,"Ġwishes":14019,"Ġwiret":14020,"Ġsoci":14021,"Ġsadd":14022,"Ġsouthern":14023,"Ġcouncil":14024,"Ġcertificate":14025,"Ġpages":14026,"Ġpapers":14027,"ionable":14028,"Ġfeed":14029,"Ġfile":14030,"Ġfleeing":14031,"ĠPe":14032,"ĠPurch":14033,"Ġokay":14034,"ĠDict":14035,"ĠDance":14036,"ĠDucks":14037,"ĠDereg":14038,"Ġbureau":14039,"Ġbrutality":14040,"ĠRide":14041,"ĠRage":14042,"ĠRails":14043,"ĠWitch":14044,"ĠWages":14045,"ĠWaste":14046,"ĠWendy":14047,"ĠHan":14048,"ĠHire":14049,"ĠHoll":14050,"ĠBat":14051,"ĠBart":14052,"ĠBust":14053,"ĠBear":14054,"ĠBey":14055,"ĠBears":14056,"andez":14057,"ĠFought":14058,"ĠFamous":14059,"ĠFeminist":14060,"ĠMu":14061,
[...]
